{
  "version": "1.0",
  "truncation": null,
  "padding": null,
  "added_tokens": [
    {
      "id": 0,
      "content": "[UNK]",
      "single_word": false,
      "lstrip": false,
      "rstrip": false,
      "normalized": false,
      "special": true
    },
    {
      "id": 1,
      "content": "[PAD]",
      "single_word": false,
      "lstrip": false,
      "rstrip": false,
      "normalized": false,
      "special": true
    },
    {
      "id": 2,
      "content": "[SOS]",
      "single_word": false,
      "lstrip": false,
      "rstrip": false,
      "normalized": false,
      "special": true
    },
    {
      "id": 3,
      "content": "[EOS]",
      "single_word": false,
      "lstrip": false,
      "rstrip": false,
      "normalized": false,
      "special": true
    }
  ],
  "normalizer": {
    "type": "Lowercase"
  },
  "pre_tokenizer": {
    "type": "Whitespace"
  },
  "post_processor": {
    "type": "TemplateProcessing",
    "single": [
      {
        "SpecialToken": {
          "id": "[SOS]",
          "type_id": 0
        }
      },
      {
        "Sequence": {
          "id": "A",
          "type_id": 0
        }
      },
      {
        "SpecialToken": {
          "id": "[EOS]",
          "type_id": 0
        }
      }
    ],
    "pair": [
      {
        "Sequence": {
          "id": "A",
          "type_id": 0
        }
      },
      {
        "Sequence": {
          "id": "B",
          "type_id": 1
        }
      }
    ],
    "special_tokens": {
      "[EOS]": {
        "id": "[EOS]",
        "ids": [
          3
        ],
        "tokens": [
          "[EOS]"
        ]
      },
      "[SOS]": {
        "id": "[SOS]",
        "ids": [
          2
        ],
        "tokens": [
          "[SOS]"
        ]
      }
    }
  },
  "decoder": {
    "type": "WordPiece",
    "prefix": "##",
    "cleanup": true
  },
  "model": {
    "type": "BPE",
    "dropout": null,
    "unk_token": "[UNK]",
    "continuing_subword_prefix": "##",
    "end_of_word_suffix": null,
    "fuse_unk": false,
    "byte_fallback": false,
    "ignore_merges": false,
    "vocab": {
      "[UNK]": 0,
      "[PAD]": 1,
      "[SOS]": 2,
      "[EOS]": 3,
      "!": 4,
      "\"": 5,
      "#": 6,
      "$": 7,
      "%": 8,
      "&": 9,
      "'": 10,
      "(": 11,
      ")": 12,
      ",": 13,
      "-": 14,
      ".": 15,
      "/": 16,
      "0": 17,
      "1": 18,
      "2": 19,
      "3": 20,
      "4": 21,
      "5": 22,
      "6": 23,
      "7": 24,
      "8": 25,
      "9": 26,
      ":": 27,
      ";": 28,
      "=": 29,
      "?": 30,
      "@": 31,
      "_": 32,
      "`": 33,
      "a": 34,
      "b": 35,
      "c": 36,
      "d": 37,
      "e": 38,
      "f": 39,
      "g": 40,
      "h": 41,
      "i": 42,
      "j": 43,
      "k": 44,
      "l": 45,
      "m": 46,
      "n": 47,
      "o": 48,
      "p": 49,
      "q": 50,
      "r": 51,
      "s": 52,
      "t": 53,
      "u": 54,
      "v": 55,
      "w": 56,
      "x": 57,
      "y": 58,
      "z": 59,
      "ß": 60,
      "à": 61,
      "ä": 62,
      "è": 63,
      "é": 64,
      "ñ": 65,
      "ö": 66,
      "ü": 67,
      "–": 68,
      "‘": 69,
      "’": 70,
      "“": 71,
      "”": 72,
      "„": 73,
      "##m": 74,
      "##g": 75,
      "##e": 76,
      "##b": 77,
      "##n": 78,
      "##d": 79,
      "##r": 80,
      "##i": 81,
      "##c": 82,
      "##h": 83,
      "##o": 84,
      "##p": 85,
      "##l": 86,
      "##x": 87,
      "##t": 88,
      "##a": 89,
      "##y": 90,
      "##k": 91,
      "##s": 92,
      "##ü": 93,
      "##ä": 94,
      "##u": 95,
      "##w": 96,
      "##q": 97,
      "##z": 98,
      "##f": 99,
      "##ß": 100,
      "##v": 101,
      "##j": 102,
      "##9": 103,
      "##5": 104,
      "##0": 105,
      "##ö": 106,
      "##3": 107,
      "##4": 108,
      "##6": 109,
      "##7": 110,
      "##-": 111,
      "##8": 112,
      "##1": 113,
      "##é": 114,
      "##\"": 115,
      "##.": 116,
      "##2": 117,
      "##“": 118,
      "##,": 119,
      "##è": 120,
      "##@": 121,
      "##ñ": 122,
      "##_": 123,
      "##'": 124,
      "##`": 125,
      "##in": 126,
      "##en": 127,
      "##er": 128,
      "ein": 129,
      "##an": 130,
      "##ch": 131,
      "##it": 132,
      "##ing": 133,
      "in": 134,
      "eine": 135,
      "##nd": 136,
      "##ar": 137,
      "##le": 138,
      "##re": 139,
      "man": 140,
      "th": 141,
      "##ra": 142,
      "##el": 143,
      "st": 144,
      "##on": 145,
      "einem": 146,
      "##es": 147,
      "##un": 148,
      "##al": 149,
      "##ei": 150,
      "##uf": 151,
      "##ck": 152,
      "the": 153,
      "##la": 154,
      "##or": 155,
      "##ro": 156,
      "##at": 157,
      "##et": 158,
      "mit": 159,
      "on": 160,
      "und": 161,
      "auf": 162,
      "##ir": 163,
      "##st": 164,
      "and": 165,
      "##ung": 166,
      "##ie": 167,
      "##om": 168,
      "mann": 169,
      "##and": 170,
      "sch": 171,
      "is": 172,
      "##eh": 173,
      "of": 174,
      "##em": 175,
      "an": 176,
      "##ut": 177,
      "##ss": 178,
      "##ed": 179,
      "einer": 180,
      "##sch": 181,
      "##ot": 182,
      "##id": 183,
      "##ith": 184,
      "##il": 185,
      "with": 186,
      "##rau": 187,
      "##ers": 188,
      "sp": 189,
      "##all": 190,
      "##op": 191,
      "##ol": 192,
      "sh": 193,
      "##ow": 194,
      "##hr": 195,
      "sit": 196,
      "frau": 197,
      "##ge": 198,
      "##ter": 199,
      "der": 200,
      "##ur": 201,
      "wom": 202,
      "##und": 203,
      "wh": 204,
      "##ich": 205,
      "##as": 206,
      "##iel": 207,
      "##us": 208,
      "##am": 209,
      "##is": 210,
      "to": 211,
      "mä": 212,
      "##ad": 213,
      "zw": 214,
      "##king": 215,
      "##ind": 216,
      "##ach": 217,
      "are": 218,
      "woman": 219,
      "die": 220,
      "##wo": 221,
      "##um": 222,
      "bl": 223,
      "bla": 224,
      "zwei": 225,
      "two": 226,
      "bo": 227,
      "##ear": 228,
      "##ig": 229,
      "##ten": 230,
      "##up": 231,
      "##irt": 232,
      "pla": 233,
      "kle": 234,
      "##eb": 235,
      "einen": 236,
      "at": 237,
      "jung": 238,
      "men": 239,
      "pe": 240,
      "##ic": 241,
      "im": 242,
      "##ople": 243,
      "people": 244,
      "##ack": 245,
      "##end": 246,
      "shirt": 247,
      "##oo": 248,
      "play": 249,
      "##ild": 250,
      "spiel": 251,
      "se": 252,
      "ch": 253,
      "##ber": 254,
      "gro": 255,
      "##chen": 256,
      "##ting": 257,
      "##og": 258,
      "##ug": 259,
      "##ier": 260,
      "steh": 261,
      "be": 262,
      "##erson": 263,
      "person": 264,
      "vor": 265,
      "wear": 266,
      "sitz": 267,
      "gr": 268,
      "schw": 269,
      "wearing": 270,
      "stand": 271,
      "##ts": 272,
      "##ide": 273,
      "##ite": 274,
      "##ßen": 275,
      "##os": 276,
      "klein": 277,
      "##im": 278,
      "yo": 279,
      "##ner": 280,
      "##ik": 281,
      "##gen": 282,
      "von": 283,
      "wal": 284,
      "zu": 285,
      "young": 286,
      "sich": 287,
      "dre": 288,
      "wei": 289,
      "##lt": 290,
      "##ue": 291,
      "tr": 292,
      "##ile": 293,
      "##her": 294,
      "##eit": 295,
      "##ähr": 296,
      "##isch": 297,
      "white": 298,
      "##irl": 299,
      "dem": 300,
      "girl": 301,
      "##dchen": 302,
      "##gt": 303,
      "mädchen": 304,
      "##ver": 305,
      "out": 306,
      "##pe": 307,
      "##ab": 308,
      "her": 309,
      "dog": 310,
      "##ard": 311,
      "##est": 312,
      "junge": 313,
      "##old": 314,
      "hund": 315,
      "boy": 316,
      "##nen": 317,
      "##ell": 318,
      "black": 319,
      "kind": 320,
      "his": 321,
      "##ce": 322,
      "män": 323,
      "##ße": 324,
      "##arz": 325,
      "schwarz": 326,
      "while": 327,
      "geh": 328,
      "red": 329,
      "wat": 330,
      "##ben": 331,
      "wa": 332,
      "blue": 333,
      "le": 334,
      "fr": 335,
      "stra": 336,
      "##au": 337,
      "männer": 338,
      "as": 339,
      "stre": 340,
      "##ahr": 341,
      "steht": 342,
      "ha": 343,
      "ge": 344,
      "rot": 345,
      "##ark": 346,
      "gra": 347,
      "sitting": 348,
      "hä": 349,
      "##if": 350,
      "##row": 351,
      "un": 352,
      "den": 353,
      "pa": 354,
      "ar": 355,
      "##men": 356,
      "co": 357,
      "##ick": 358,
      "blau": 359,
      "child": 360,
      "##own": 361,
      "##ul": 362,
      "sein": 363,
      "##ball": 364,
      "sitzt": 365,
      "hold": 366,
      "standing": 367,
      "##te": 368,
      "##ne": 369,
      "playing": 370,
      "group": 371,
      "hand": 372,
      "hin": 373,
      "sk": 374,
      "##nt": 375,
      "bei": 376,
      "loo": 377,
      "##schen": 378,
      "street": 379,
      "##ht": 380,
      "##ont": 381,
      "ro": 382,
      "##ere": 383,
      "or": 384,
      "##ion": 385,
      "##uppe": 386,
      "ball": 387,
      "über": 388,
      "down": 389,
      "##ent": 390,
      "um": 391,
      "straße": 392,
      "##ang": 393,
      "währ": 394,
      "##emd": 395,
      "während": 396,
      "br": 397,
      "##ree": 398,
      "##der": 399,
      "sm": 400,
      "walking": 401,
      "spr": 402,
      "fl": 403,
      "hat": 404,
      "al": 405,
      "menschen": 406,
      "am": 407,
      "gruppe": 408,
      "ver": 409,
      "##ks": 410,
      "spielt": 411,
      "hemd": 412,
      "hält": 413,
      "re": 414,
      "##round": 415,
      "##ft": 416,
      "ho": 417,
      "front": 418,
      "la": 419,
      "das": 420,
      "##ud": 421,
      "##itt": 422,
      "holding": 423,
      "fo": 424,
      "##uft": 425,
      "##eben": 426,
      "tra": 427,
      "aus": 428,
      "som": 429,
      "personen": 430,
      "dur": 431,
      "jack": 432,
      "##bo": 433,
      "lä": 434,
      "##sser": 435,
      "car": 436,
      "##ink": 437,
      "##orm": 438,
      "fahr": 439,
      "cl": 440,
      "water": 441,
      "##ange": 442,
      "##uch": 443,
      "##ct": 444,
      "mach": 445,
      "##ern": 446,
      "##ren": 447,
      "ra": 448,
      "##den": 449,
      "##side": 450,
      "dress": 451,
      "ne": 452,
      "ta": 453,
      "drei": 454,
      "one": 455,
      "ih": 456,
      "##hing": 457,
      "te": 458,
      "##ze": 459,
      "##ür": 460,
      "##iv": 461,
      "##ump": 462,
      "bas": 463,
      "gre": 464,
      "##ying": 465,
      "by": 466,
      "gel": 467,
      "##ehr": 468,
      "##eil": 469,
      "three": 470,
      "eines": 471,
      "up": 472,
      "neben": 473,
      "##ist": 474,
      "weißen": 475,
      "back": 476,
      "##ingt": 477,
      "run": 478,
      "blauen": 479,
      "wor": 480,
      "##ein": 481,
      "frauen": 482,
      "wasser": 483,
      "##one": 484,
      "str": 485,
      "hinter": 486,
      "##sp": 487,
      "sn": 488,
      "##we": 489,
      "##kle": 490,
      "##beit": 491,
      "for": 492,
      "durch": 493,
      "women": 494,
      "##ugh": 495,
      "##imm": 496,
      "mo": 497,
      "bu": 498,
      "##rad": 499,
      "##ger": 500,
      "roten": 501,
      "ist": 502,
      "##ägt": 503,
      "##be": 504,
      "ma": 505,
      "##ies": 506,
      "jump": 507,
      "orange": 508,
      "##uit": 509,
      "bra": 510,
      "weiß": 511,
      "green": 512,
      "stehen": 513,
      "po": 514,
      "##ip": 515,
      "##kleid": 516,
      "##amer": 517,
      "sitzen": 518,
      "litt": 519,
      "little": 520,
      "##ay": 521,
      "##icht": 522,
      "spielen": 523,
      "snow": 524,
      "ent": 525,
      "##ler": 526,
      "blo": 527,
      "##ong": 528,
      "looking": 529,
      "##to": 530,
      "##ans": 531,
      "##arben": 532,
      "##iert": 533,
      "grü": 534,
      "asi": 535,
      "##ff": 536,
      "##ährt": 537,
      "rid": 538,
      "outside": 539,
      "##lass": 540,
      "##art": 541,
      "kinder": 542,
      "##ap": 543,
      "kleid": 544,
      "##lich": 545,
      "geht": 546,
      "skat": 547,
      "lar": 548,
      "park": 549,
      "##rom": 550,
      "trägt": 551,
      "ba": 552,
      "##elt": 553,
      "large": 554,
      "##rown": 555,
      "side": 556,
      "fre": 557,
      "fährt": 558,
      "er": 559,
      "##he": 560,
      "so": 561,
      "##rough": 562,
      "braun": 563,
      "through": 564,
      "unter": 565,
      "he": 566,
      "ot": 567,
      "ges": 568,
      "##ood": 569,
      "##fer": 570,
      "over": 571,
      "brown": 572,
      "##ine": 573,
      "yell": 574,
      "ober": 575,
      "##ain": 576,
      "yellow": 577,
      "##ight": 578,
      "leut": 579,
      "##amera": 580,
      "ol": 581,
      "some": 582,
      "kleines": 583,
      "bik": 584,
      "children": 585,
      "##aut": 586,
      "ren": 587,
      "##ure": 588,
      "##farben": 589,
      "##les": 590,
      "blond": 591,
      "##cke": 592,
      "##alk": 593,
      "##ien": 594,
      "##auf": 595,
      "macht": 596,
      "arbeit": 597,
      "dr": 598,
      "##yc": 599,
      "entl": 600,
      "##gr": 601,
      "springt": 602,
      "entlang": 603,
      "from": 604,
      "ihr": 605,
      "##sen": 606,
      "schwarzen": 607,
      "##fen": 608,
      "##eren": 609,
      "thei": 610,
      "their": 611,
      "ber": 612,
      "##xt": 613,
      "##ssen": 614,
      "##ke": 615,
      "##igen": 616,
      "pos": 617,
      "##ire": 618,
      "do": 619,
      "into": 620,
      "##anz": 621,
      "geb": 622,
      "##uß": 623,
      "kleiner": 624,
      "##ning": 625,
      "sie": 626,
      "##ank": 627,
      "mot": 628,
      "watch": 629,
      "##ly": 630,
      "small": 631,
      "##ant": 632,
      "build": 633,
      "mehr": 634,
      "##ph": 635,
      "##ebo": 636,
      "building": 637,
      "##str": 638,
      "##hn": 639,
      "fel": 640,
      "##ame": 641,
      "##ors": 642,
      "hel": 643,
      "##pp": 644,
      "##eboard": 645,
      "##teil": 646,
      "next": 647,
      "other": 648,
      "leute": 649,
      "##lter": 650,
      "##tw": 651,
      "##uck": 652,
      "##ill": 653,
      "con": 654,
      "crow": 655,
      "near": 656,
      "crowd": 657,
      "nach": 658,
      "##ore": 659,
      "dressed": 660,
      "je": 661,
      "jacket": 662,
      "sand": 663,
      "skateboard": 664,
      "sw": 665,
      "##air": 666,
      "##unt": 667,
      "lad": 668,
      "##ille": 669,
      "##eln": 670,
      "##ischen": 671,
      "##ub": 672,
      "##kleidet": 673,
      "pink": 674,
      "grass": 675,
      "##ull": 676,
      "##äud": 677,
      "sur": 678,
      "gehen": 679,
      "fahrrad": 680,
      "##ep": 681,
      "oberteil": 682,
      "##ground": 683,
      "##ort": 684,
      "##age": 685,
      "älter": 686,
      "fuß": 687,
      "etw": 688,
      "wir": 689,
      "##eck": 690,
      "##walk": 691,
      "##form": 692,
      "ihre": 693,
      "riding": 694,
      "etwas": 695,
      "fa": 696,
      "running": 697,
      "mehrere": 698,
      "sc": 699,
      "##able": 700,
      "##uh": 701,
      "seinem": 702,
      "bab": 703,
      "##spiel": 704,
      "##ve": 705,
      "com": 706,
      "##orts": 707,
      "##unter": 708,
      "baby": 709,
      "##ück": 710,
      "##other": 711,
      "großen": 712,
      "son": 713,
      "off": 714,
      "##ield": 715,
      "another": 716,
      "around": 717,
      "##än": 718,
      "schne": 719,
      "motor": 720,
      "bet": 721,
      "##cer": 722,
      "##ross": 723,
      "gebäud": 724,
      "jungen": 725,
      "jeans": 726,
      "##gel": 727,
      "##ity": 728,
      "field": 729,
      "##grund": 730,
      "rock": 731,
      "beh": 732,
      "vers": 733,
      "sidewalk": 734,
      "beach": 735,
      "gekleidet": 736,
      "##ige": 737,
      "per": 738,
      "grünen": 739,
      "##alten": 740,
      "work": 741,
      "mus": 742,
      "col": 743,
      "air": 744,
      "##lasses": 745,
      "bus": 746,
      "##ster": 747,
      "##opf": 748,
      "hoch": 749,
      "##ieren": 750,
      "fü": 751,
      "##ket": 752,
      "##ander": 753,
      "luft": 754,
      "##fahr": 755,
      "hair": 756,
      "des": 757,
      "table": 758,
      "##umen": 759,
      "läch": 760,
      "strand": 761,
      "##ade": 762,
      "##zeug": 763,
      "stands": 764,
      "##bei": 765,
      "fot": 766,
      "##ha": 767,
      "##weg": 768,
      "läuft": 769,
      "jumping": 770,
      "behind": 771,
      "sits": 772,
      "sind": 773,
      "##get": 774,
      "##üh": 775,
      "##eball": 776,
      "pro": 777,
      "##tz": 778,
      "tre": 779,
      "zus": 780,
      "hintergrund": 781,
      "für": 782,
      "nä": 783,
      "##ture": 784,
      "##farbenen": 785,
      "hos": 786,
      "##enn": 787,
      "baseball": 788,
      "shorts": 789,
      "##per": 790,
      "freien": 791,
      "##itar": 792,
      "ab": 793,
      "##ehen": 794,
      "##way": 795,
      "jacke": 796,
      "kopf": 797,
      "##lä": 798,
      "kleidung": 799,
      "basket": 800,
      "tal": 801,
      "pic": 802,
      "##qu": 803,
      "foot": 804,
      "perform": 805,
      "##de": 806,
      "bike": 807,
      "top": 808,
      "unif": 809,
      "##cht": 810,
      "city": 811,
      "en": 812,
      "anderen": 813,
      "background": 814,
      "band": 815,
      "ben": 816,
      "schaut": 817,
      "##iling": 818,
      "##ycle": 819,
      "junger": 820,
      "bar": 821,
      "head": 822,
      "get": 823,
      "##board": 824,
      "##ib": 825,
      "wall": 826,
      "##cing": 827,
      "##uss": 828,
      "vorbei": 829,
      "helm": 830,
      "girls": 831,
      "dan": 832,
      "##unk": 833,
      "read": 834,
      "##ucht": 835,
      "blick": 836,
      "##ling": 837,
      "gelben": 838,
      "gras": 839,
      "##untain": 840,
      "##ör": 841,
      "fe": 842,
      "tisch": 843,
      "##iz": 844,
      "player": 845,
      "picture": 846,
      "vol": 847,
      "##pf": 848,
      "##ive": 849,
      "asiat": 850,
      "bic": 851,
      "arm": 852,
      "gu": 853,
      "##tter": 854,
      "hut": 855,
      "asian": 856,
      "rest": 857,
      "haar": 858,
      "looks": 859,
      "carr": 860,
      "comp": 861,
      "tenn": 862,
      "vier": 863,
      "stad": 864,
      "##ath": 865,
      "football": 866,
      "uniform": 867,
      "fla": 868,
      "lie": 869,
      "##use": 870,
      "guit": 871,
      "##ving": 872,
      "four": 873,
      "guitar": 874,
      "essen": 875,
      "andere": 876,
      "##amm": 877,
      "it": 878,
      "##angen": 879,
      "##utz": 880,
      "me": 881,
      "##ufen": 882,
      "##veral": 883,
      "gebäude": 884,
      "that": 885,
      "##menge": 886,
      "dogs": 887,
      "##aur": 888,
      "several": 889,
      "kleine": 890,
      "fußball": 891,
      "##sche": 892,
      "bef": 893,
      "schwarzer": 894,
      "older": 895,
      "##do": 896,
      "##br": 897,
      "##ert": 898,
      "##spieler": 899,
      "##ust": 900,
      "##se": 901,
      "camera": 902,
      "##fon": 903,
      "clot": 904,
      "##ants": 905,
      "gesch": 906,
      "basketball": 907,
      "##eig": 908,
      "mid": 909,
      "ph": 910,
      "ros": 911,
      "soc": 912,
      "ob": 913,
      "pol": 914,
      "##alt": 915,
      "##iger": 916,
      "wird": 917,
      "schnee": 918,
      "ac": 919,
      "fen": 920,
      "##kt": 921,
      "##ation": 922,
      "beim": 923,
      "nähe": 924,
      "##ag": 925,
      "somet": 926,
      "talking": 927,
      "restaur": 928,
      "something": 929,
      "walk": 930,
      "lady": 931,
      "schau": 932,
      "gitar": 933,
      "kleinen": 934,
      "kamera": 935,
      "soccer": 936,
      "af": 937,
      "##ating": 938,
      "food": 939,
      "##len": 940,
      "menschenmenge": 941,
      "##phone": 942,
      "along": 943,
      "weißer": 944,
      "de": 945,
      "da": 946,
      "##pla": 947,
      "walks": 948,
      "paar": 949,
      "guy": 950,
      "##pen": 951,
      "sho": 952,
      "kid": 953,
      "boys": 954,
      "ad": 955,
      "schwimm": 956,
      "li": 957,
      "##änd": 958,
      "##dle": 959,
      "##ische": 960,
      "hunde": 961,
      "toget": 962,
      "together": 963,
      "lo": 964,
      "working": 965,
      "boden": 966,
      "##igh": 967,
      "pool": 968,
      "restaurant": 969,
      "##cken": 970,
      "##ign": 971,
      "rosa": 972,
      "pre": 973,
      "##zen": 974,
      "gray": 975,
      "swe": 976,
      "##ather": 977,
      "smiling": 978,
      "grau": 979,
      "##sh": 980,
      "boot": 981,
      "##enden": 982,
      "##ction": 983,
      "has": 984,
      "feld": 985,
      "##wa": 986,
      "him": 987,
      "rol": 988,
      "sonnen": 989,
      "kü": 990,
      "schla": 991,
      "aut": 992,
      "gest": 993,
      "game": 994,
      "sing": 995,
      "them": 996,
      "zusch": 997,
      "##ammen": 998,
      "rennt": 999,
      "us": 1000,
      "##ess": 1001,
      "straßen": 1002,
      "road": 1003,
      "##tt": 1004,
      "tennis": 1005,
      "hü": 1006,
      "mark": 1007,
      "##mp": 1008,
      "##par": 1009,
      "plays": 1010,
      "gegen": 1011,
      "bench": 1012,
      "schn": 1013,
      "gitarre": 1014,
      "tanz": 1015,
      "##ift": 1016,
      "stadt": 1017,
      "go": 1018,
      "mountain": 1019,
      "##ves": 1020,
      "war": 1021,
      "zei": 1022,
      "team": 1023,
      "zusammen": 1024,
      "hol": 1025,
      "par": 1026,
      "##che": 1027,
      "##af": 1028,
      "holds": 1029,
      "ihren": 1030,
      "##fahrer": 1031,
      "hors": 1032,
      "##ale": 1033,
      "##atch": 1034,
      "old": 1035,
      "vie": 1036,
      "clim": 1037,
      "met": 1038,
      "we": 1039,
      "##io": 1040,
      "unterh": 1041,
      "##man": 1042,
      "pain": 1043,
      "coup": 1044,
      "dunk": 1045,
      "##ak": 1046,
      "##einander": 1047,
      "dirt": 1048,
      "##steig": 1049,
      "bes": 1050,
      "kar": 1051,
      "herum": 1052,
      "mar": 1053,
      "pfer": 1054,
      "pants": 1055,
      "outdo": 1056,
      "glasses": 1057,
      "wer": 1058,
      "under": 1059,
      "##edeck": 1060,
      "pur": 1061,
      "stage": 1062,
      "abo": 1063,
      "büh": 1064,
      "suit": 1065,
      "carrying": 1066,
      "älterer": 1067,
      "couple": 1068,
      "pull": 1069,
      "ag": 1070,
      "fem": 1071,
      "##ater": 1072,
      "bau": 1073,
      "##je": 1074,
      "##eitet": 1075,
      "ko": 1076,
      "##ish": 1077,
      "drau": 1078,
      "##ple": 1079,
      "train": 1080,
      "draußen": 1081,
      "befind": 1082,
      "climb": 1083,
      "##bre": 1084,
      "outf": 1085,
      "flo": 1086,
      "tree": 1087,
      "wait": 1088,
      "rennen": 1089,
      "##ice": 1090,
      "bicycle": 1091,
      "bühne": 1092,
      "face": 1093,
      "long": 1094,
      "wind": 1095,
      "##elle": 1096,
      "fahren": 1097,
      "sl": 1098,
      "set": 1099,
      "##wach": 1100,
      "##ogra": 1101,
      "brille": 1102,
      "foto": 1103,
      "##är": 1104,
      "instr": 1105,
      "shop": 1106,
      "hell": 1107,
      "sign": 1108,
      "##ley": 1109,
      "gehweg": 1110,
      "male": 1111,
      "outfit": 1112,
      "##ges": 1113,
      "spe": 1114,
      "gew": 1115,
      "seine": 1116,
      "race": 1117,
      "##kleidung": 1118,
      "##lo": 1119,
      "boat": 1120,
      "jumps": 1121,
      "sun": 1122,
      "taking": 1123,
      "ex": 1124,
      "mik": 1125,
      "sehen": 1126,
      "##ckey": 1127,
      "dark": 1128,
      "tow": 1129,
      "kletter": 1130,
      "hinunter": 1131,
      "bild": 1132,
      "each": 1133,
      "##ischer": 1134,
      "middle": 1135,
      "sle": 1136,
      "sto": 1137,
      "mic": 1138,
      "##mer": 1139,
      "##wachsen": 1140,
      "##ette": 1141,
      "chair": 1142,
      "mikro": 1143,
      "dab": 1144,
      "kur": 1145,
      "bag": 1146,
      "zuschau": 1147,
      "dabei": 1148,
      "##iss": 1149,
      "braunen": 1150,
      "doing": 1151,
      "##ping": 1152,
      "##tel": 1153,
      "coat": 1154,
      "seinen": 1155,
      "als": 1156,
      "blickt": 1157,
      "ka": 1158,
      "pf": 1159,
      "wand": 1160,
      "##ate": 1161,
      "day": 1162,
      "##uth": 1163,
      "micro": 1164,
      "phot": 1165,
      "##ob": 1166,
      "##ieht": 1167,
      "##ican": 1168,
      "bank": 1169,
      "watching": 1170,
      "across": 1171,
      "dar": 1172,
      "##geb": 1173,
      "baum": 1174,
      "there": 1175,
      "##hrt": 1176,
      "na": 1177,
      "area": 1178,
      "kn": 1179,
      "holz": 1180,
      "wie": 1181,
      "att": 1182,
      "brauner": 1183,
      "##stru": 1184,
      "schl": 1185,
      "verk": 1186,
      "bal": 1187,
      "hands": 1188,
      "laufen": 1189,
      "flag": 1190,
      "liegt": 1191,
      "##brille": 1192,
      "part": 1193,
      "che": 1194,
      "strip": 1195,
      "versucht": 1196,
      "##wagen": 1197,
      "##rä": 1198,
      "##acht": 1199,
      "hose": 1200,
      "mü": 1201,
      "arbeitet": 1202,
      "##haar": 1203,
      "##pt": 1204,
      "store": 1205,
      "toy": 1206,
      "##eiten": 1207,
      "ger": 1208,
      "bow": 1209,
      "el": 1210,
      "ground": 1211,
      "cover": 1212,
      "helmet": 1213,
      "bür": 1214,
      "##tze": 1215,
      "female": 1216,
      "##jo": 1217,
      "who": 1218,
      "kids": 1219,
      "room": 1220,
      "surf": 1221,
      "##stü": 1222,
      "snowboard": 1223,
      "##lichen": 1224,
      "cow": 1225,
      "##hes": 1226,
      "tragen": 1227,
      "performing": 1228,
      "dame": 1229,
      "##äft": 1230,
      "##als": 1231,
      "schie": 1232,
      "grün": 1233,
      "swing": 1234,
      "music": 1235,
      "tur": 1236,
      "##zug": 1237,
      "händ": 1238,
      "gestre": 1239,
      "pass": 1240,
      "##ired": 1241,
      "eating": 1242,
      "##ingen": 1243,
      "##ende": 1244,
      "rad": 1245,
      "ind": 1246,
      "##irm": 1247,
      "machen": 1248,
      "große": 1249,
      "lächelt": 1250,
      "schauen": 1251,
      "##kes": 1252,
      "being": 1253,
      "mau": 1254,
      "rei": 1255,
      "##ast": 1256,
      "versch": 1257,
      "fam": 1258,
      "##ful": 1259,
      "mouth": 1260,
      "bürger": 1261,
      "##ian": 1262,
      "##ult": 1263,
      "tag": 1264,
      "ihrem": 1265,
      "##ett": 1266,
      "orangefarbenen": 1267,
      "##uhl": 1268,
      "shirts": 1269,
      "##ikot": 1270,
      "using": 1271,
      "striped": 1272,
      "famil": 1273,
      "gather": 1274,
      "trick": 1275,
      "horse": 1276,
      "##ons": 1277,
      "##ards": 1278,
      "ältere": 1279,
      "##hen": 1280,
      "##ose": 1281,
      "##isten": 1282,
      "##ition": 1283,
      "many": 1284,
      "##las": 1285,
      "ihm": 1286,
      "##ope": 1287,
      "purple": 1288,
      "##unst": 1289,
      "junges": 1290,
      "bürgersteig": 1291,
      "stein": 1292,
      "constru": 1293,
      "motorrad": 1294,
      "app": 1295,
      "fris": 1296,
      "##iese": 1297,
      "erwachsen": 1298,
      "es": 1299,
      "##ance": 1300,
      "look": 1301,
      "new": 1302,
      "teen": 1303,
      "weg": 1304,
      "pferd": 1305,
      "cross": 1306,
      "##aus": 1307,
      "##arbeit": 1308,
      "this": 1309,
      "groß": 1310,
      "wood": 1311,
      "##dy": 1312,
      "spieler": 1313,
      "haired": 1314,
      "arbeiten": 1315,
      "swimm": 1316,
      "prepar": 1317,
      "##ßt": 1318,
      "star": 1319,
      "##stand": 1320,
      "zeigt": 1321,
      "halten": 1322,
      "show": 1323,
      "##ikan": 1324,
      "trikot": 1325,
      "gelb": 1326,
      "sieht": 1327,
      "enjo": 1328,
      "gem": 1329,
      "runs": 1330,
      "unterhalten": 1331,
      "window": 1332,
      "wald": 1333,
      "spricht": 1334,
      "bele": 1335,
      "graff": 1336,
      "##platz": 1337,
      "liest": 1338,
      "bot": 1339,
      "land": 1340,
      "players": 1341,
      "color": 1342,
      "##ibt": 1343,
      "sung": 1344,
      "##uer": 1345,
      "construction": 1346,
      "graffit": 1347,
      "sunglasses": 1348,
      "can": 1349,
      "##lefon": 1350,
      "past": 1351,
      "amer": 1352,
      "musik": 1353,
      "kunst": 1354,
      "##iet": 1355,
      "##scha": 1356,
      "betra": 1357,
      "reading": 1358,
      "bear": 1359,
      "fire": 1360,
      "##att": 1361,
      "##az": 1362,
      "##üst": 1363,
      "ander": 1364,
      "haaren": 1365,
      "high": 1366,
      "##cean": 1367,
      "weißem": 1368,
      "clothing": 1369,
      "ocean": 1370,
      "##iving": 1371,
      "microphone": 1372,
      "bre": 1373,
      "its": 1374,
      "sa": 1375,
      "##ho": 1376,
      "bahn": 1377,
      "##fü": 1378,
      "flow": 1379,
      "##ix": 1380,
      "she": 1381,
      "meer": 1382,
      "covered": 1383,
      "bä": 1384,
      "catch": 1385,
      "##ines": 1386,
      "##ike": 1387,
      "workers": 1388,
      "art": 1389,
      "during": 1390,
      "##boy": 1391,
      "motorc": 1392,
      "comput": 1393,
      "viele": 1394,
      "elder": 1395,
      "alt": 1396,
      "##rest": 1397,
      "afr": 1398,
      "auto": 1399,
      "bun": 1400,
      "zum": 1401,
      "##rol": 1402,
      "sonnenbrille": 1403,
      "pl": 1404,
      "##by": 1405,
      "##iver": 1406,
      "##zer": 1407,
      "berg": 1408,
      "watches": 1409,
      "##bt": 1410,
      "ins": 1411,
      "boo": 1412,
      "bright": 1413,
      "##liche": 1414,
      "climbing": 1415,
      "dis": 1416,
      "hosen": 1417,
      "again": 1418,
      "beob": 1419,
      "gekleidete": 1420,
      "grauen": 1421,
      "cap": 1422,
      "##cher": 1423,
      "schild": 1424,
      "seiner": 1425,
      "outdoor": 1426,
      "cowboy": 1427,
      "##schaft": 1428,
      "elderly": 1429,
      "##ry": 1430,
      "kick": 1431,
      "open": 1432,
      "##zt": 1433,
      "felsen": 1434,
      "blauem": 1435,
      "drin": 1436,
      "##ored": 1437,
      "against": 1438,
      "pub": 1439,
      "geländ": 1440,
      "tank": 1441,
      "wo": 1442,
      "stick": 1443,
      "gesicht": 1444,
      "frisbe": 1445,
      "cell": 1446,
      "trink": 1447,
      "##ucks": 1448,
      "hang": 1449,
      "num": 1450,
      "win": 1451,
      "##bla": 1452,
      "##pr": 1453,
      "##ement": 1454,
      "umbre": 1455,
      "all": 1456,
      "dancing": 1457,
      "umbrel": 1458,
      "singt": 1459,
      "##bra": 1460,
      "stud": 1461,
      "##ender": 1462,
      "smile": 1463,
      "hockey": 1464,
      "ihnen": 1465,
      "rides": 1466,
      "graffiti": 1467,
      "hill": 1468,
      "##gest": 1469,
      "##nf": 1470,
      "##ces": 1471,
      "schlä": 1472,
      "weiße": 1473,
      "##leyball": 1474,
      "swimming": 1475,
      "fest": 1476,
      "##ging": 1477,
      "throw": 1478,
      "ele": 1479,
      "##hä": 1480,
      "mantel": 1481,
      "they": 1482,
      "spielzeug": 1483,
      "##ial": 1484,
      "##over": 1485,
      "grill": 1486,
      "about": 1487,
      "five": 1488,
      "##ment": 1489,
      "track": 1490,
      "dunkel": 1491,
      "publ": 1492,
      "kit": 1493,
      "woo": 1494,
      "schü": 1495,
      "##amp": 1496,
      "##uhen": 1497,
      "fünf": 1498,
      "wooden": 1499,
      "gar": 1500,
      "posing": 1501,
      "posiert": 1502,
      "trees": 1503,
      "market": 1504,
      "##mt": 1505,
      "##uchen": 1506,
      "##wer": 1507,
      "sport": 1508,
      "having": 1509,
      "darauf": 1510,
      "dra": 1511,
      "##ted": 1512,
      "##ken": 1513,
      "feuer": 1514,
      "jem": 1515,
      "za": 1516,
      "##list": 1517,
      "stat": 1518,
      "##iften": 1519,
      "cost": 1520,
      "versamm": 1521,
      "waiting": 1522,
      "klettert": 1523,
      "colorful": 1524,
      "gold": 1525,
      "##co": 1526,
      "##hl": 1527,
      "##pack": 1528,
      "##ampf": 1529,
      "führt": 1530,
      "mikrofon": 1531,
      "jemand": 1532,
      "##ord": 1533,
      "befindet": 1534,
      "##arbeiter": 1535,
      "einige": 1536,
      "##elnd": 1537,
      "##ume": 1538,
      "getting": 1539,
      "bat": 1540,
      "sil": 1541,
      "##ey": 1542,
      "regen": 1543,
      "##aufen": 1544,
      "##anzug": 1545,
      "auss": 1546,
      "ice": 1547,
      "##utting": 1548,
      "##örper": 1549,
      "obje": 1550,
      "floor": 1551,
      "trying": 1552,
      "fenster": 1553,
      "frisbee": 1554,
      "##ün": 1555,
      "##aning": 1556,
      "##ument": 1557,
      "##igar": 1558,
      "very": 1559,
      "volleyball": 1560,
      "sweat": 1561,
      "##sst": 1562,
      "##fel": 1563,
      "##ufer": 1564,
      "blumen": 1565,
      "telefon": 1566,
      "ev": 1567,
      "fall": 1568,
      "zur": 1569,
      "##vers": 1570,
      "##led": 1571,
      "schre": 1572,
      "##scht": 1573,
      "blauer": 1574,
      "computer": 1575,
      "cle": 1576,
      "rück": 1577,
      "sehr": 1578,
      "wart": 1579,
      "##eich": 1580,
      "##ied": 1581,
      "schwarzem": 1582,
      "cart": 1583,
      "wirft": 1584,
      "winter": 1585,
      "##sse": 1586,
      "box": 1587,
      "##yclist": 1588,
      "busy": 1589,
      "night": 1590,
      "##ding": 1591,
      "ski": 1592,
      "gekleideter": 1593,
      "fence": 1594,
      "singing": 1595,
      "##vel": 1596,
      "##ffe": 1597,
      "##hers": 1598,
      "anzug": 1599,
      "##eps": 1600,
      "pullover": 1601,
      "beard": 1602,
      "eis": 1603,
      "zeit": 1604,
      "##iff": 1605,
      "book": 1606,
      "gen": 1607,
      "gle": 1608,
      "leh": 1609,
      "line": 1610,
      "##kind": 1611,
      "body": 1612,
      "brick": 1613,
      "raum": 1614,
      "##licher": 1615,
      "bed": 1616,
      "light": 1617,
      "oder": 1618,
      "path": 1619,
      "##ppe": 1620,
      "schwarze": 1621,
      "hän": 1622,
      "arbeiter": 1623,
      "tan": 1624,
      "compet": 1625,
      "kitchen": 1626,
      "##itten": 1627,
      "stair": 1628,
      "truck": 1629,
      "rotem": 1630,
      "##net": 1631,
      "##über": 1632,
      "isst": 1633,
      "roter": 1634,
      "lächelnd": 1635,
      "pie": 1636,
      "##ba": 1637,
      "männern": 1638,
      "flie": 1639,
      "laying": 1640,
      "wiese": 1641,
      "##ckt": 1642,
      "##unden": 1643,
      "board": 1644,
      "kindern": 1645,
      "gestreiften": 1646,
      "anderer": 1647,
      "##ium": 1648,
      "##ät": 1649,
      "##ated": 1650,
      "##ungen": 1651,
      "##becken": 1652,
      "big": 1653,
      "langen": 1654,
      "sub": 1655,
      "##eel": 1656,
      "scho": 1657,
      "paper": 1658,
      "cour": 1659,
      "wartet": 1660,
      "kom": 1661,
      "ride": 1662,
      "inside": 1663,
      "hats": 1664,
      "clothes": 1665,
      "##shirt": 1666,
      "lot": 1667,
      "ty": 1668,
      "##ient": 1669,
      "schutz": 1670,
      "##tern": 1671,
      "##immer": 1672,
      "others": 1673,
      "instrumen": 1674,
      "sweatshirt": 1675,
      "##dd": 1676,
      "plast": 1677,
      "grassy": 1678,
      "surround": 1679,
      "##eping": 1680,
      "poliz": 1681,
      "##gesch": 1682,
      "cellphone": 1683,
      "lin": 1684,
      "teil": 1685,
      "##piel": 1686,
      "##körper": 1687,
      "##less": 1688,
      "##schirm": 1689,
      "##aben": 1690,
      "fluss": 1691,
      "making": 1692,
      "someone": 1693,
      "##chtet": 1694,
      "cre": 1695,
      "river": 1696,
      "rucks": 1697,
      "viel": 1698,
      "metal": 1699,
      "metall": 1700,
      "dies": 1701,
      "pus": 1702,
      "bluse": 1703,
      "##dern": 1704,
      "takes": 1705,
      "backpack": 1706,
      "posieren": 1707,
      "maul": 1708,
      "statue": 1709,
      "buch": 1710,
      "ras": 1711,
      "sold": 1712,
      "sell": 1713,
      "##hel": 1714,
      "stuhl": 1715,
      "see": 1716,
      "springen": 1717,
      "parade": 1718,
      "motorcycle": 1719,
      "pap": 1720,
      "handy": 1721,
      "geschäft": 1722,
      "tanzen": 1723,
      "werden": 1724,
      "stock": 1725,
      "umbrella": 1726,
      "full": 1727,
      "net": 1728,
      "zug": 1729,
      "##ll": 1730,
      "##ym": 1731,
      "##ini": 1732,
      "überqu": 1733,
      "fotogra": 1734,
      "hügel": 1735,
      "kostü": 1736,
      "towards": 1737,
      "##achtet": 1738,
      "beleb": 1739,
      "far": 1740,
      "##let": 1741,
      "alter": 1742,
      "oberkörper": 1743,
      "##änger": 1744,
      "voller": 1745,
      "enjoying": 1746,
      "##me": 1747,
      "eink": 1748,
      "bereitet": 1749,
      "hu": 1750,
      "pad": 1751,
      "zie": 1752,
      "schm": 1753,
      "##ops": 1754,
      "colored": 1755,
      "schnei": 1756,
      "warten": 1757,
      "##hal": 1758,
      "##phon": 1759,
      "cheer": 1760,
      "##igarette": 1761,
      "hard": 1762,
      "lang": 1763,
      "was": 1764,
      "##ny": 1765,
      "wheel": 1766,
      "##ierten": 1767,
      "kleinkind": 1768,
      "leg": 1769,
      "roller": 1770,
      "##gang": 1771,
      "##band": 1772,
      "##kel": 1773,
      "##ase": 1774,
      "zwischen": 1775,
      "beg": 1776,
      "##ellen": 1777,
      "haus": 1778,
      "drum": 1779,
      "ready": 1780,
      "betrachtet": 1781,
      "kä": 1782,
      "mas": 1783,
      "pra": 1784,
      "##rän": 1785,
      "##sten": 1786,
      "##igt": 1787,
      "surfer": 1788,
      "cra": 1789,
      "blonde": 1790,
      "photogra": 1791,
      "party": 1792,
      "genie": 1793,
      "fis": 1794,
      "##oll": 1795,
      "smo": 1796,
      "fels": 1797,
      "snowboarder": 1798,
      "piece": 1799,
      "cor": 1800,
      "oben": 1801,
      "##ief": 1802,
      "spaz": 1803,
      "##este": 1804,
      "##utzt": 1805,
      "sweater": 1806,
      "painting": 1807,
      "seil": 1808,
      "öff": 1809,
      "##iend": 1810,
      "##ücke": 1811,
      "##ellt": 1812,
      "##ieden": 1813,
      "##utter": 1814,
      "##ook": 1815,
      "rode": 1816,
      "leuten": 1817,
      "bowling": 1818,
      "schläft": 1819,
      "pick": 1820,
      "zieht": 1821,
      "##ager": 1822,
      "##edeckten": 1823,
      "jug": 1824,
      "rut": 1825,
      "wander": 1826,
      "##amen": 1827,
      "##ogen": 1828,
      "##ults": 1829,
      "lake": 1830,
      "##immt": 1831,
      "##altung": 1832,
      "lila": 1833,
      "bauarbeiter": 1834,
      "mütze": 1835,
      "kon": 1836,
      "##bb": 1837,
      "##ds": 1838,
      "##wand": 1839,
      "##chten": 1840,
      "mitt": 1841,
      "##ste": 1842,
      "schul": 1843,
      "##hren": 1844,
      "##ooking": 1845,
      "worker": 1846,
      "above": 1847,
      "american": 1848,
      "##häut": 1849,
      "hot": 1850,
      "reitet": 1851,
      "##cre": 1852,
      "##ved": 1853,
      "brid": 1854,
      "dance": 1855,
      "african": 1856,
      "lehnt": 1857,
      "class": 1858,
      "gym": 1859,
      "##ebt": 1860,
      "dav": 1861,
      "adults": 1862,
      "going": 1863,
      "händen": 1864,
      "kne": 1865,
      "mil": 1866,
      "richt": 1867,
      "##gend": 1868,
      "##bar": 1869,
      "##fall": 1870,
      "##ane": 1871,
      "buck": 1872,
      "markt": 1873,
      "shopping": 1874,
      "beobachtet": 1875,
      "pr": 1876,
      "##ys": 1877,
      "##wing": 1878,
      "stone": 1879,
      "miteinander": 1880,
      "##stra": 1881,
      "herunter": 1882,
      "snowy": 1883,
      "renn": 1884,
      "vest": 1885,
      "##geh": 1886,
      "todd": 1887,
      "##achen": 1888,
      "männ": 1889,
      "wave": 1890,
      "instrument": 1891,
      "bäumen": 1892,
      "##braun": 1893,
      "subway": 1894,
      "surrounded": 1895,
      "rucksack": 1896,
      "bull": 1897,
      "kan": 1898,
      "tor": 1899,
      "onto": 1900,
      "##stück": 1901,
      "##eiter": 1902,
      "couch": 1903,
      "ihrer": 1904,
      "uniforms": 1905,
      "tanzt": 1906,
      "photo": 1907,
      "like": 1908,
      "##llt": 1909,
      "##auft": 1910,
      "##sc": 1911,
      "ste": 1912,
      "roll": 1913,
      "outdoors": 1914,
      "radfahrer": 1915,
      "bott": 1916,
      "bü": 1917,
      "##mm": 1918,
      "##det": 1919,
      "umge": 1920,
      "convers": 1921,
      "schneeb": 1922,
      "lächeln": 1923,
      "gewä": 1924,
      "turn": 1925,
      "zaun": 1926,
      "event": 1927,
      "cr": 1928,
      "##zeit": 1929,
      "##fl": 1930,
      "##ents": 1931,
      "##cks": 1932,
      "crowded": 1933,
      "##mann": 1934,
      "beside": 1935,
      "verschieden": 1936,
      "smiles": 1937,
      "ca": 1938,
      "gear": 1939,
      "##schine": 1940,
      "pole": 1941,
      "phone": 1942,
      "schwimmbecken": 1943,
      "teenager": 1944,
      "end": 1945,
      "form": 1946,
      "jog": 1947,
      "pat": 1948,
      "vom": 1949,
      "rain": 1950,
      "swim": 1951,
      "schiebt": 1952,
      "rodeo": 1953,
      "haben": 1954,
      "##ork": 1955,
      "schein": 1956,
      "house": 1957,
      "make": 1958,
      "befinden": 1959,
      "drinking": 1960,
      "##bahn": 1961,
      "fotograf": 1962,
      "einkauf": 1963,
      "##oot": 1964,
      "##sk": 1965,
      "##room": 1966,
      "orangefarben": 1967,
      "poin": 1968,
      "bikini": 1969,
      "##haarige": 1970,
      "family": 1971,
      "##ings": 1972,
      "##ral": 1973,
      "beaut": 1974,
      "##arkt": 1975,
      "küche": 1976,
      "rücken": 1977,
      "bade": 1978,
      "hit": 1979,
      "jo": 1980,
      "kr": 1981,
      "seite": 1982,
      "friend": 1983,
      "sprung": 1984,
      "flip": 1985,
      "skateboarder": 1986,
      "police": 1987,
      "schlag": 1988,
      "zuschauer": 1989,
      "toddler": 1990,
      "pit": 1991,
      "ru": 1992,
      "##tr": 1993,
      "##els": 1994,
      "mitten": 1995,
      "##stre": 1996,
      "##ables": 1997,
      "leap": 1998,
      "##iful": 1999,
      "fountain": 2000,
      "door": 2001,
      "beton": 2002,
      "guys": 2003,
      "gathered": 2004,
      "beautiful": 2005,
      "bad": 2006,
      "ey": 2007,
      "tro": 2008,
      "welle": 2009,
      "##ome": 2010,
      "kurzen": 2011,
      "hanging": 2012,
      "kap": 2013,
      "qu": 2014,
      "##suit": 2015,
      "##erin": 2016,
      "##orb": 2017,
      "asiatische": 2018,
      "arms": 2019,
      "flowers": 2020,
      "##feld": 2021,
      "bridge": 2022,
      "away": 2023,
      "kre": 2024,
      "##dition": 2025,
      "##uz": 2026,
      "##arf": 2027,
      "short": 2028,
      "skirt": 2029,
      "tradition": 2030,
      "treppe": 2031,
      "preparing": 2032,
      "umgeben": 2033,
      "farben": 2034,
      "not": 2035,
      "##hne": 2036,
      "##ats": 2037,
      "##iges": 2038,
      "squ": 2039,
      "wet": 2040,
      "##tes": 2041,
      "##aking": 2042,
      "##ko": 2043,
      "##za": 2044,
      "##anst": 2045,
      "##esten": 2046,
      "##owing": 2047,
      "##ime": 2048,
      "leaning": 2049,
      "ballo": 2050,
      "brun": 2051,
      "lapt": 2052,
      "##sport": 2053,
      "offic": 2054,
      "after": 2055,
      "sleeping": 2056,
      "verkauft": 2057,
      "familie": 2058,
      "costume": 2059,
      "object": 2060,
      "##ffee": 2061,
      "fing": 2062,
      "rau": 2063,
      "##ac": 2064,
      "##äd": 2065,
      "steps": 2066,
      "##ests": 2067,
      "##aten": 2068,
      "offen": 2069,
      "wagen": 2070,
      "machine": 2071,
      "take": 2072,
      "geträn": 2073,
      "##athon": 2074,
      "##ious": 2075,
      "attem": 2076,
      "gerade": 2077,
      "fishing": 2078,
      "fangen": 2079,
      "glass": 2080,
      "##ütze": 2081,
      "##fa": 2082,
      "tour": 2083,
      "forest": 2084,
      "trail": 2085,
      "does": 2086,
      "appear": 2087,
      "großer": 2088,
      "trinkt": 2089,
      "versammelt": 2090,
      "kämp": 2091,
      "caf": 2092,
      "lab": 2093,
      "rope": 2094,
      "ser": 2095,
      "tau": 2096,
      "##sm": 2097,
      "##jack": 2098,
      "plaid": 2099,
      "shoes": 2100,
      "adult": 2101,
      "papier": 2102,
      "equ": 2103,
      "##cl": 2104,
      "##uct": 2105,
      "inter": 2106,
      "station": 2107,
      "shirtless": 2108,
      "check": 2109,
      "##isches": 2110,
      "rosafarbenen": 2111,
      "marathon": 2112,
      "erwachsene": 2113,
      "schreibt": 2114,
      "court": 2115,
      "cur": 2116,
      "##ron": 2117,
      "##pan": 2118,
      "##ser": 2119,
      "sky": 2120,
      "##ittel": 2121,
      "ihn": 2122,
      "##ives": 2123,
      "autos": 2124,
      "##attoo": 2125,
      "hängt": 2126,
      "schneidet": 2127,
      "##anstaltung": 2128,
      "gent": 2129,
      "rel": 2130,
      "##uff": 2131,
      "platz": 2132,
      "##ife": 2133,
      "alle": 2134,
      "clown": 2135,
      "pose": 2136,
      "sonn": 2137,
      "rocks": 2138,
      "gleich": 2139,
      "hö": 2140,
      "jers": 2141,
      "kra": 2142,
      "##nel": 2143,
      "##zimmer": 2144,
      "##ins": 2145,
      "##ash": 2146,
      "obst": 2147,
      "telefoniert": 2148,
      "stairs": 2149,
      "padd": 2150,
      "gentle": 2151,
      "jersey": 2152,
      "cont": 2153,
      "mat": 2154,
      "tall": 2155,
      "vide": 2156,
      "##ress": 2157,
      "##eten": 2158,
      "chines": 2159,
      "rote": 2160,
      "fore": 2161,
      "drink": 2162,
      "##gruppe": 2163,
      "schwimmt": 2164,
      "belebten": 2165,
      "cup": 2166,
      "fish": 2167,
      "gl": 2168,
      "malt": 2169,
      "tattoo": 2170,
      "wett": 2171,
      "##bedeck": 2172,
      "##ians": 2173,
      "ange": 2174,
      "##schr": 2175,
      "##olf": 2176,
      "weißes": 2177,
      "sunny": 2178,
      "balan": 2179,
      "bunten": 2180,
      "rasen": 2181,
      "selling": 2182,
      "pract": 2183,
      "spazieren": 2184,
      "hal": 2185,
      "hood": 2186,
      "match": 2187,
      "nimmt": 2188,
      "tun": 2189,
      "vend": 2190,
      "##ric": 2191,
      "##lead": 2192,
      "##ird": 2193,
      "##iem": 2194,
      "gep": 2195,
      "racing": 2196,
      "dock": 2197,
      "fußballspieler": 2198,
      "view": 2199,
      "setting": 2200,
      "reihe": 2201,
      "##üstung": 2202,
      "gewässer": 2203,
      "opp": 2204,
      "tür": 2205,
      "##mel": 2206,
      "##out": 2207,
      "##ügen": 2208,
      "##wn": 2209,
      "##alen": 2210,
      "##achten": 2211,
      "##ugen": 2212,
      "##immel": 2213,
      "blicken": 2214,
      "cheerlead": 2215,
      "equip": 2216,
      "ban": 2217,
      "no": 2218,
      "##fr": 2219,
      "##ching": 2220,
      "denen": 2221,
      "freiem": 2222,
      "kopfbedeck": 2223,
      "chairs": 2224,
      "zeitung": 2225,
      "vielen": 2226,
      "schneebedeckten": 2227,
      "himmel": 2228,
      "mutter": 2229,
      "putting": 2230,
      "##du": 2231,
      "##ält": 2232,
      "##ene": 2233,
      "##chs": 2234,
      "stop": 2235,
      "strol": 2236,
      "##orn": 2237,
      "##irr": 2238,
      "##ute": 2239,
      "##ikum": 2240,
      "##eller": 2241,
      "tasche": 2242,
      "##ycles": 2243,
      "schlägt": 2244,
      "both": 2245,
      "corner": 2246,
      "bart": 2247,
      "cam": 2248,
      "dist": 2249,
      "glo": 2250,
      "home": 2251,
      "kiss": 2252,
      "ramp": 2253,
      "##bank": 2254,
      "##rat": 2255,
      "chas": 2256,
      "brücke": 2257,
      "gebäudes": 2258,
      "hände": 2259,
      "throwing": 2260,
      "feuerw": 2261,
      "ausseh": 2262,
      "school": 2263,
      "pushing": 2264,
      "sonnigen": 2265,
      "ak": 2266,
      "din": 2267,
      "fisch": 2268,
      "kampf": 2269,
      "listen": 2270,
      "ve": 2271,
      "vi": 2272,
      "##ace": 2273,
      "##äf": 2274,
      "##zogen": 2275,
      "##fe": 2276,
      "##flä": 2277,
      "##iting": 2278,
      "##schuhen": 2279,
      "##olin": 2280,
      "##ughing": 2281,
      "lea": 2282,
      "have": 2283,
      "orangen": 2284,
      "##ween": 2285,
      "ladies": 2286,
      "between": 2287,
      "slide": 2288,
      "public": 2289,
      "publikum": 2290,
      "fliegt": 2291,
      "##straße": 2292,
      "##jacke": 2293,
      "equipment": 2294,
      "best": 2295,
      "hebt": 2296,
      "veh": 2297,
      "wr": 2298,
      "wä": 2299,
      "##rüstung": 2300,
      "##öpf": 2301,
      "##ches": 2302,
      "##ehmen": 2303,
      "##eder": 2304,
      "##ally": 2305,
      "fruit": 2306,
      "hinauf": 2307,
      "hemden": 2308,
      "laughing": 2309,
      "rail": 2310,
      "sofa": 2311,
      "flower": 2312,
      "displa": 2313,
      "geländer": 2314,
      "richtung": 2315,
      "kämpfen": 2316,
      "vehic": 2317,
      "emp": 2318,
      "golf": 2319,
      "##kom": 2320,
      "##stuhl": 2321,
      "happ": 2322,
      "ref": 2323,
      "works": 2324,
      "##ühlen": 2325,
      "pictures": 2326,
      "dunklen": 2327,
      "grünem": 2328,
      "typ": 2329,
      "instruments": 2330,
      "##fläche": 2331,
      "bel": 2332,
      "weste": 2333,
      "##ma": 2334,
      "##gles": 2335,
      "##lage": 2336,
      "##ival": 2337,
      "base": 2338,
      "tenniss": 2339,
      "shoul": 2340,
      "öffent": 2341,
      "bro": 2342,
      "med": 2343,
      "##sel": 2344,
      "##are": 2345,
      "##stein": 2346,
      "##osen": 2347,
      "skier": 2348,
      "repar": 2349,
      "hohen": 2350,
      "teams": 2351,
      "woods": 2352,
      "schutzhel": 2353,
      "plastic": 2354,
      "augen": 2355,
      "hil": 2356,
      "mult": 2357,
      "nack": 2358,
      "vio": 2359,
      "##gew": 2360,
      "which": 2361,
      "playground": 2362,
      "spielplatz": 2363,
      "umar": 2364,
      "reach": 2365,
      "##lassen": 2366,
      "freund": 2367,
      "blondes": 2368,
      "poses": 2369,
      "concre": 2370,
      "asiatischer": 2371,
      "aged": 2372,
      "number": 2373,
      "photograph": 2374,
      "##ädt": 2375,
      "kopfbedeckung": 2376,
      "concrete": 2377,
      "bier": 2378,
      "dire": 2379,
      "guck": 2380,
      "hals": 2381,
      "mon": 2382,
      "var": 2383,
      "##markt": 2384,
      "##na": 2385,
      "##lie": 2386,
      "##uen": 2387,
      "##stler": 2388,
      "schirm": 2389,
      "##illed": 2390,
      "alte": 2391,
      "überqueren": 2392,
      "##phones": 2393,
      "aud": 2394,
      "deck": 2395,
      "ed": 2396,
      "just": 2397,
      "leben": 2398,
      "yard": 2399,
      "##hü": 2400,
      "##asche": 2401,
      "##wei": 2402,
      "##ese": 2403,
      "##ates": 2404,
      "mannes": 2405,
      "##ems": 2406,
      "##ise": 2407,
      "tritt": 2408,
      "hof": 2409,
      "bikes": 2410,
      "midair": 2411,
      "##ärt": 2412,
      "hellbraun": 2413,
      "gemü": 2414,
      "break": 2415,
      "jugend": 2416,
      "mittler": 2417,
      "veget": 2418,
      "dach": 2419,
      "ries": 2420,
      "##rt": 2421,
      "##iding": 2422,
      "blaue": 2423,
      "##ical": 2424,
      "herr": 2425,
      "proje": 2426,
      "shovel": 2427,
      "boots": 2428,
      "spect": 2429,
      "zuschauen": 2430,
      "##haariger": 2431,
      "konz": 2432,
      "attemp": 2433,
      "cro": 2434,
      "ja": 2435,
      "kha": 2436,
      "##hut": 2437,
      "##pl": 2438,
      "##lar": 2439,
      "##tem": 2440,
      "##set": 2441,
      "##fest": 2442,
      "schö": 2443,
      "anim": 2444,
      "mensch": 2445,
      "seated": 2446,
      "##ience": 2447,
      "bereiten": 2448,
      "##ängt": 2449,
      "davon": 2450,
      "bucket": 2451,
      "khak": 2452,
      "roo": 2453,
      "sei": 2454,
      "six": 2455,
      "##hemd": 2456,
      "##ely": 2457,
      "städt": 2458,
      "##ators": 2459,
      "shore": 2460,
      "##ampe": 2461,
      "ath": 2462,
      "bereit": 2463,
      "schaukel": 2464,
      "paint": 2465,
      "karierten": 2466,
      "kunststück": 2467,
      "dunkelhäut": 2468,
      "genießt": 2469,
      "gymn": 2470,
      "laptop": 2471,
      "distance": 2472,
      "apr": 2473,
      "##hör": 2474,
      "##fla": 2475,
      "##ven": 2476,
      "##itz": 2477,
      "stück": 2478,
      "beer": 2479,
      "overall": 2480,
      "reads": 2481,
      "decke": 2482,
      "toward": 2483,
      "attire": 2484,
      "indian": 2485,
      "mauer": 2486,
      "##geschäft": 2487,
      "cream": 2488,
      "feuerwehr": 2489,
      "mittleren": 2490,
      "cooking": 2491,
      "lacht": 2492,
      "pot": 2493,
      "##ban": 2494,
      "##ony": 2495,
      "schür": 2496,
      "##ows": 2497,
      "what": 2498,
      "where": 2499,
      "sechs": 2500,
      "left": 2501,
      "##ctor": 2502,
      "zuschauern": 2503,
      "pfl": 2504,
      "cutting": 2505,
      "hug": 2506,
      "vests": 2507,
      "##gner": 2508,
      "##eigt": 2509,
      "##laster": 2510,
      "spre": 2511,
      "blä": 2512,
      "blank": 2513,
      "##endes": 2514,
      "gef": 2515,
      "##spap": 2516,
      "rider": 2517,
      "##untry": 2518,
      "laden": 2519,
      "scre": 2520,
      "benutzt": 2521,
      "surfboard": 2522,
      "alters": 2523,
      "smoking": 2524,
      "##schrift": 2525,
      "bur": 2526,
      "ear": 2527,
      "fer": 2528,
      "fle": 2529,
      "filled": 2530,
      "glas": 2531,
      "har": 2532,
      "tent": 2533,
      "wel": 2534,
      "wrest": 2535,
      "##mas": 2536,
      "##bild": 2537,
      "##aks": 2538,
      "##innen": 2539,
      "anz": 2540,
      "plat": 2541,
      "menge": 2542,
      "##ugt": 2543,
      "##imer": 2544,
      "alten": 2545,
      "cliff": 2546,
      "##spr": 2547,
      "buildings": 2548,
      "prof": 2549,
      "baseballspieler": 2550,
      "##ammer": 2551,
      "pulling": 2552,
      "bags": 2553,
      "bowl": 2554,
      "newspap": 2555,
      "lined": 2556,
      "ziegel": 2557,
      "but": 2558,
      "fä": 2559,
      "mart": 2560,
      "ter": 2561,
      "einigen": 2562,
      "gelber": 2563,
      "concer": 2564,
      "unterhält": 2565,
      "##rädern": 2566,
      "großes": 2567,
      "lebensm": 2568,
      "mund": 2569,
      "ring": 2570,
      "res": 2571,
      "##oc": 2572,
      "##ters": 2573,
      "bein": 2574,
      "##iker": 2575,
      "armen": 2576,
      "bubb": 2577,
      "##head": 2578,
      "soft": 2579,
      "##ußer": 2580,
      "fotos": 2581,
      "##haus": 2582,
      "zusieht": 2583,
      "geschäf": 2584,
      "goal": 2585,
      "##brett": 2586,
      "##werk": 2587,
      "appears": 2588,
      "practic": 2589,
      "concert": 2590,
      "außer": 2591,
      "hei": 2592,
      "saf": 2593,
      "ur": 2594,
      "##rich": 2595,
      "##ty": 2596,
      "##anten": 2597,
      "##iten": 2598,
      "mitte": 2599,
      "##ungs": 2600,
      "schal": 2601,
      "##ersk": 2602,
      "sha": 2603,
      "weihn": 2604,
      "nebeneinander": 2605,
      "fußg": 2606,
      "few": 2607,
      "zuschaut": 2608,
      "mountains": 2609,
      "horses": 2610,
      "nahe": 2611,
      "reifen": 2612,
      "crossing": 2613,
      "showing": 2614,
      "bearded": 2615,
      "friends": 2616,
      "edge": 2617,
      "spectators": 2618,
      "blanket": 2619,
      "dig": 2620,
      "right": 2621,
      "trom": 2622,
      "zelt": 2623,
      "schauf": 2624,
      "ang": 2625,
      "##oph": 2626,
      "verw": 2627,
      "tramp": 2628,
      "lässt": 2629,
      "cars": 2630,
      "close": 2631,
      "struct": 2632,
      "mother": 2633,
      "nachts": 2634,
      "scarf": 2635,
      "bett": 2636,
      "bicyclist": 2637,
      "##ights": 2638,
      "kurz": 2639,
      "##ikanische": 2640,
      "sax": 2641,
      "trinken": 2642,
      "schlagzeug": 2643,
      "structure": 2644,
      "fix": 2645,
      "ga": 2646,
      "ker": 2647,
      "nat": 2648,
      "sup": 2649,
      "##pfen": 2650,
      "##look": 2651,
      "##inn": 2652,
      "##igk": 2653,
      "##auer": 2654,
      "##boot": 2655,
      "braune": 2656,
      "driving": 2657,
      "nearby": 2658,
      "nacht": 2659,
      "zusehen": 2660,
      "performs": 2661,
      "voll": 2662,
      "gegenstand": 2663,
      "kniet": 2664,
      "elect": 2665,
      "hula": 2666,
      "##halb": 2667,
      "einkaufs": 2668,
      "cla": 2669,
      "hall": 2670,
      "oper": 2671,
      "pile": 2672,
      "sä": 2673,
      "ufer": 2674,
      "zigarette": 2675,
      "##richt": 2676,
      "##iking": 2677,
      "##issen": 2678,
      "##od": 2679,
      "##ous": 2680,
      "##kampf": 2681,
      "##uhe": 2682,
      "##fro": 2683,
      "##enen": 2684,
      "##chter": 2685,
      "##under": 2686,
      "##achts": 2687,
      "##ifen": 2688,
      "coffee": 2689,
      "hinten": 2690,
      "mob": 2691,
      "braut": 2692,
      "versuchen": 2693,
      "produ": 2694,
      "carries": 2695,
      "acc": 2696,
      "gestreift": 2697,
      "mask": 2698,
      "tunnel": 2699,
      "apron": 2700,
      "gog": 2701,
      "gibt": 2702,
      "kla": 2703,
      "pier": 2704,
      "rug": 2705,
      "##sent": 2706,
      "##vol": 2707,
      "##itzt": 2708,
      "##ifahr": 2709,
      "country": 2710,
      "orient": 2711,
      "rec": 2712,
      "hoop": 2713,
      "fahrzeug": 2714,
      "##uchten": 2715,
      "##rennen": 2716,
      "mehreren": 2717,
      "sonne": 2718,
      "treten": 2719,
      "talks": 2720,
      "karate": 2721,
      "verschn": 2722,
      "beobachten": 2723,
      "nummer": 2724,
      "kostüm": 2725,
      "scheint": 2726,
      "leaves": 2727,
      "display": 2728,
      "cigarette": 2729,
      "mud": 2730,
      "##ax": 2731,
      "##vor": 2732,
      "##ery": 2733,
      "##ush": 2734,
      "##aub": 2735,
      "rotes": 2736,
      "handt": 2737,
      "veranstaltung": 2738,
      "rep": 2739,
      "parked": 2740,
      "biker": 2741,
      "outfits": 2742,
      "pfad": 2743,
      "students": 2744,
      "farbenfro": 2745,
      "gentleman": 2746,
      "vendor": 2747,
      "various": 2748,
      "bärt": 2749,
      "fängt": 2750,
      "mem": 2751,
      "time": 2752,
      "wur": 2753,
      "##zu": 2754,
      "##int": 2755,
      "##eling": 2756,
      "stange": 2757,
      "##stelle": 2758,
      "##uts": 2759,
      "spra": 2760,
      "sports": 2761,
      "shot": 2762,
      "younger": 2763,
      "gegner": 2764,
      "##iffer": 2765,
      "beige": 2766,
      "beide": 2767,
      "railing": 2768,
      "painted": 2769,
      "slee": 2770,
      "flagge": 2771,
      "trikots": 2772,
      "garten": 2773,
      "raucht": 2774,
      "vehicle": 2775,
      "öffentlichen": 2776,
      "martial": 2777,
      "weihnachts": 2778,
      "goggles": 2779,
      "oriental": 2780,
      "fei": 2781,
      "lit": 2782,
      "nicht": 2783,
      "pack": 2784,
      "sal": 2785,
      "##bers": 2786,
      "##ders": 2787,
      "##land": 2788,
      "stufen": 2789,
      "##urs": 2790,
      "##umes": 2791,
      "unbe": 2792,
      "spring": 2793,
      "flying": 2794,
      "alley": 2795,
      "dresses": 2796,
      "##ivid": 2797,
      "##ppen": 2798,
      "bare": 2799,
      "afro": 2800,
      "besch": 2801,
      "betrachten": 2802,
      "drums": 2803,
      "bottle": 2804,
      "gemüse": 2805,
      "schürze": 2806,
      "ferne": 2807,
      "verschneiten": 2808,
      "hind": 2809,
      "lying": 2810,
      "rampe": 2811,
      "weit": 2812,
      "##heit": 2813,
      "##ped": 2814,
      "##esch": 2815,
      "##ety": 2816,
      "##urch": 2817,
      "gehsteig": 2818,
      "arts": 2819,
      "rocky": 2820,
      "führen": 2821,
      "liegen": 2822,
      "parking": 2823,
      "flags": 2824,
      "beleucht": 2825,
      "kicking": 2826,
      "bathing": 2827,
      "wanderer": 2828,
      "eyes": 2829,
      "relax": 2830,
      "##ifahrer": 2831,
      "cal": 2832,
      "diese": 2833,
      "differ": 2834,
      "ir": 2835,
      "kö": 2836,
      "key": 2837,
      "mu": 2838,
      "sort": 2839,
      "##dr": 2840,
      "##aff": 2841,
      "eins": 2842,
      "##atte": 2843,
      "onlook": 2844,
      "spie": 2845,
      "##olgt": 2846,
      "##uring": 2847,
      "waves": 2848,
      "teles": 2849,
      "mod": 2850,
      "blonden": 2851,
      "jackets": 2852,
      "##änzer": 2853,
      "##ighting": 2854,
      "kün": 2855,
      "##ession": 2856,
      "##gebung": 2857,
      "swinging": 2858,
      "erwachsener": 2859,
      "prepares": 2860,
      "conversation": 2861,
      "gymnast": 2862,
      "newspaper": 2863,
      "lebensmittel": 2864,
      "softball": 2865,
      "safety": 2866,
      "fell": 2867,
      "ke": 2868,
      "log": 2869,
      "lachen": 2870,
      "wein": 2871,
      "##mütze": 2872,
      "##cal": 2873,
      "##hund": 2874,
      "##öff": 2875,
      "einander": 2876,
      "bew": 2877,
      "vorder": 2878,
      "##immen": 2879,
      "heraus": 2880,
      "gele": 2881,
      "unten": 2882,
      "flug": 2883,
      "##inkt": 2884,
      "geld": 2885,
      "gesich": 2886,
      "##anzen": 2887,
      "scoot": 2888,
      "##itary": 2889,
      "tennisball": 2890,
      "chef": 2891,
      "##hof": 2892,
      "bunch": 2893,
      "costumes": 2894,
      "oppos": 2895,
      "gloves": 2896,
      "roof": 2897,
      "practicing": 2898,
      "außerhalb": 2899,
      "different": 2900,
      "au": 2901,
      "cir": 2902,
      "kay": 2903,
      "mö": 2904,
      "tie": 2905,
      "wild": 2906,
      "##ps": 2907,
      "##ena": 2908,
      "##schaf": 2909,
      "##ading": 2910,
      "##ogel": 2911,
      "ausgest": 2912,
      "läufer": 2913,
      "skateboarding": 2914,
      "ladder": 2915,
      "##untergang": 2916,
      "basketballspieler": 2917,
      "sonnenuntergang": 2918,
      "uses": 2919,
      "drinks": 2920,
      "cleaning": 2921,
      "competition": 2922,
      "plastik": 2923,
      "kostümen": 2924,
      "listening": 2925,
      "fußgänger": 2926,
      "bem": 2927,
      "cyclist": 2928,
      "fun": 2929,
      "les": 2930,
      "mom": 2931,
      "##geln": 2932,
      "##rand": 2933,
      "##tion": 2934,
      "##äufer": 2935,
      "##iness": 2936,
      "##ormen": 2937,
      "reden": 2938,
      "leuchten": 2939,
      "##entr": 2940,
      "##ctive": 2941,
      "greift": 2942,
      "##liches": 2943,
      "scene": 2944,
      "arme": 2945,
      "items": 2946,
      "dass": 2947,
      "schlaf": 2948,
      "individ": 2949,
      "staring": 2950,
      "musiker": 2951,
      "artist": 2952,
      "zurück": 2953,
      "rutscht": 2954,
      "männliche": 2955,
      "video": 2956,
      "onlookers": 2957,
      "individu": 2958,
      "giving": 2959,
      "korb": 2960,
      "ped": 2961,
      "wed": 2962,
      "##ged": 2963,
      "##test": 2964,
      "##ales": 2965,
      "##kor": 2966,
      "aufschrift": 2967,
      "##arden": 2968,
      "lawn": 2969,
      "##ips": 2970,
      "kleidern": 2971,
      "##farbener": 2972,
      "business": 2973,
      "desk": 2974,
      "protest": 2975,
      "eng": 2976,
      "ents": 2977,
      "bicycles": 2978,
      "meal": 2979,
      "hüten": 2980,
      "fotografiert": 2981,
      "balloon": 2982,
      "brunnen": 2983,
      "cafe": 2984,
      "empty": 2985,
      "hilft": 2986,
      "audience": 2987,
      "bärtiger": 2988,
      "circ": 2989,
      "damen": 2990,
      "fern": 2991,
      "hör": 2992,
      "klassen": 2993,
      "mop": 2994,
      "vogel": 2995,
      "##eibe": 2996,
      "##sto": 2997,
      "mannschaft": 2998,
      "angel": 2999,
      "##endet": 3000,
      "blaues": 3001,
      "skifahrer": 3002,
      "beiden": 3003,
      "balls": 3004,
      "among": 3005,
      "lauf": 3006,
      "gelbe": 3007,
      "##eins": 3008,
      "block": 3009,
      "grüner": 3010,
      "surft": 3011,
      "##ized": 3012,
      "##ages": 3013,
      "werfen": 3014,
      "gelbem": 3015,
      "polizist": 3016,
      "military": 3017,
      "leaps": 3018,
      "afroamer": 3019,
      "bird": 3020,
      "dun": 3021,
      "hammer": 3022,
      "jap": 3023,
      "leiter": 3024,
      "pal": 3025,
      "rand": 3026,
      "york": 3027,
      "##cting": 3028,
      "##hnen": 3029,
      "##kw": 3030,
      "##itet": 3031,
      "##lett": 3032,
      "##ram": 3033,
      "##atten": 3034,
      "##ständ": 3035,
      "maschine": 3036,
      "##äude": 3037,
      "hochzeit": 3038,
      "##pflaster": 3039,
      "haare": 3040,
      "obser": 3041,
      "sliding": 3042,
      "gathering": 3043,
      "##blauen": 3044,
      "silver": 3045,
      "polizisten": 3046,
      "überquert": 3047,
      "cake": 3048,
      "pointing": 3049,
      "kampfsport": 3050,
      "vegetables": 3051,
      "platform": 3052,
      "unbefest": 3053,
      "wedding": 3054,
      "japan": 3055,
      "cement": 3056,
      "fil": 3057,
      "fig": 3058,
      "jün": 3059,
      "say": 3060,
      "##mauer": 3061,
      "##cers": 3062,
      "##cts": 3063,
      "##yard": 3064,
      "einz": 3065,
      "##ower": 3066,
      "##urn": 3067,
      "legt": 3068,
      "counter": 3069,
      "##icket": 3070,
      "streets": 3071,
      "facing": 3072,
      "collar": 3073,
      "##tzen": 3074,
      "feet": 3075,
      "before": 3076,
      "suits": 3077,
      "kaj": 3078,
      "erwachsenen": 3079,
      "##ausrüstung": 3080,
      "disc": 3081,
      "versammeln": 3082,
      "competing": 3083,
      "kapu": 3084,
      "nacktem": 3085,
      "städtischen": 3086,
      "screen": 3087,
      "bedeck": 3088,
      "life": 3089,
      "nehmen": 3090,
      "pi": 3091,
      "talk": 3092,
      "är": 3093,
      "##ced": 3094,
      "##unge": 3095,
      "##otor": 3096,
      "weib": 3097,
      "rais": 3098,
      "neck": 3099,
      "post": 3100,
      "blonder": 3101,
      "speaking": 3102,
      "helmets": 3103,
      "gemeins": 3104,
      "silber": 3105,
      "huge": 3106,
      "getränk": 3107,
      "crouch": 3108,
      "geschäfts": 3109,
      "saxoph": 3110,
      "keyboard": 3111,
      "cust": 3112,
      "gla": 3113,
      "kl": 3114,
      "vater": 3115,
      "##gers": 3116,
      "##pet": 3117,
      "##av": 3118,
      "##ail": 3119,
      "##kar": 3120,
      "##äum": 3121,
      "##instr": 3122,
      "incl": 3123,
      "##unch": 3124,
      "schuhen": 3125,
      "##schla": 3126,
      "##ily": 3127,
      "leine": 3128,
      "clo": 3129,
      "durchs": 3130,
      "mag": 3131,
      "scul": 3132,
      "coming": 3133,
      "##ückt": 3134,
      "colle": 3135,
      "gets": 3136,
      "schlamm": 3137,
      "garb": 3138,
      "regenschirm": 3139,
      "kommt": 3140,
      "schmutz": 3141,
      "rutsche": 3142,
      "classroom": 3143,
      "##geht": 3144,
      "violin": 3145,
      "konzert": 3146,
      "gestreiftem": 3147,
      "ble": 3148,
      "balk": 3149,
      "eimer": 3150,
      "fighting": 3151,
      "gi": 3152,
      "garden": 3153,
      "leder": 3154,
      "westen": 3155,
      "##bl": 3156,
      "##cy": 3157,
      "##far": 3158,
      "##ining": 3159,
      "stellt": 3160,
      "##stell": 3161,
      "schle": 3162,
      "##uppen": 3163,
      "plate": 3164,
      "tran": 3165,
      "tries": 3166,
      "##vert": 3167,
      "bride": 3168,
      "lap": 3169,
      "last": 3170,
      "laugh": 3171,
      "##boden": 3172,
      "##ippe": 3173,
      "kopfhör": 3174,
      "##ktion": 3175,
      "deco": 3176,
      "shoot": 3177,
      "sings": 3178,
      "waren": 3179,
      "purse": 3180,
      "climbs": 3181,
      "müll": 3182,
      "surfing": 3183,
      "##führ": 3184,
      "wohn": 3185,
      "soldaten": 3186,
      "genießen": 3187,
      "##iefeln": 3188,
      "traditional": 3189,
      "tennisspiel": 3190,
      "guckt": 3191,
      "unbefestig": 3192,
      "bm": 3193,
      "cand": 3194,
      "chr": 3195,
      "father": 3196,
      "gei": 3197,
      "gut": 3198,
      "link": 3199,
      "mess": 3200,
      "sel": 3201,
      "tar": 3202,
      "tänzer": 3203,
      "wellen": 3204,
      "##ia": 3205,
      "##köpf": 3206,
      "##watte": 3207,
      "##öh": 3208,
      "##öcken": 3209,
      "stühlen": 3210,
      "##cker": 3211,
      "##schau": 3212,
      "touch": 3213,
      "leeren": 3214,
      "umgebung": 3215,
      "rein": 3216,
      "##ffen": 3217,
      "##farbenem": 3218,
      "##pped": 3219,
      "##ibb": 3220,
      "asiatischen": 3221,
      "verkehr": 3222,
      "musicians": 3223,
      "gelbes": 3224,
      "cano": 3225,
      "schüler": 3226,
      "badeanzug": 3227,
      "kissing": 3228,
      "chasing": 3229,
      "happy": 3230,
      "animal": 3231,
      "seifen": 3232,
      "rugby": 3233,
      "spiegel": 3234,
      "künstler": 3235,
      "lesen": 3236,
      "entspan": 3237,
      "##otorrad": 3238,
      "kaufen": 3239,
      "ohne": 3240,
      "same": 3241,
      "tack": 3242,
      "tät": 3243,
      "##mitten": 3244,
      "##bor": 3245,
      "##case": 3246,
      "##ton": 3247,
      "##top": 3248,
      "##äl": 3249,
      "inmitten": 3250,
      "##ary": 3251,
      "##ssel": 3252,
      "streckt": 3253,
      "clos": 3254,
      "runner": 3255,
      "pod": 3256,
      "skate": 3257,
      "skating": 3258,
      "overl": 3259,
      "gekleideten": 3260,
      "walkway": 3261,
      "females": 3262,
      "exam": 3263,
      "klettern": 3264,
      "mikrophon": 3265,
      "motorradfahrer": 3266,
      "geländem": 3267,
      "wobei": 3268,
      "washing": 3269,
      "rollerbla": 3270,
      "milit": 3271,
      "verschiedene": 3272,
      "ende": 3273,
      "stroller": 3274,
      "##nah": 3275,
      "sprechen": 3276,
      "electric": 3277,
      "irgend": 3278,
      "christ": 3279,
      "bath": 3280,
      "lkw": 3281,
      "row": 3282,
      "wra": 3283,
      "##ele": 3284,
      "##bes": 3285,
      "##iers": 3286,
      "##ca": 3287,
      "##hand": 3288,
      "##sa": 3289,
      "##foot": 3290,
      "indo": 3291,
      "stunt": 3292,
      "##oline": 3293,
      "##umb": 3294,
      "##icip": 3295,
      "schwingt": 3296,
      "sicher": 3297,
      "wass": 3298,
      "##ickt": 3299,
      "fast": 3300,
      "##ttern": 3301,
      "schauk": 3302,
      "grauem": 3303,
      "gegenüber": 3304,
      "werk": 3305,
      "waits": 3306,
      "sunset": 3307,
      "sled": 3308,
      "bald": 3309,
      "tricks": 3310,
      "kneeling": 3311,
      "writing": 3312,
      "##maschine": 3313,
      "shoulder": 3314,
      "schutzhelm": 3315,
      "riesigen": 3316,
      "urban": 3317,
      "barefoot": 3318,
      "scooter": 3319,
      "custom": 3320,
      "gun": 3321,
      "kat": 3322,
      "mirr": 3323,
      "port": 3324,
      "tire": 3325,
      "well": 3326,
      "##gehen": 3327,
      "##ecke": 3328,
      "##rie": 3329,
      "##ymp": 3330,
      "##kl": 3331,
      "##ens": 3332,
      "##chn": 3333,
      "##schn": 3334,
      "shad": 3335,
      "##ending": 3336,
      "seen": 3337,
      "##verk": 3338,
      "schwarzes": 3339,
      "waving": 3340,
      "gegend": 3341,
      "pause": 3342,
      "arena": 3343,
      "handschuhen": 3344,
      "flies": 3345,
      "fahrer": 3346,
      "grüne": 3347,
      "parkplatz": 3348,
      "sohn": 3349,
      "berü": 3350,
      "älteren": 3351,
      "##eckt": 3352,
      "uniformen": 3353,
      "schlagen": 3354,
      "singen": 3355,
      "anderes": 3356,
      "##llten": 3357,
      "jockey": 3358,
      "badeh": 3359,
      "chinese": 3360,
      "refle": 3361,
      "attempting": 3362,
      "##richter": 3363,
      "kajak": 3364,
      "gemeinsam": 3365,
      "militär": 3366,
      "christmas": 3367,
      "good": 3368,
      "##bst": 3369,
      "##bung": 3370,
      "##line": 3371,
      "##tte": 3372,
      "##uro": 3373,
      "##uster": 3374,
      "##amb": 3375,
      "blowing": 3376,
      "place": 3377,
      "##estr": 3378,
      "unters": 3379,
      "verkleidet": 3380,
      "##bewachsen": 3381,
      "makes": 3382,
      "kinderwagen": 3383,
      "bergen": 3384,
      "bereich": 3385,
      "pinkfarbenen": 3386,
      "gebäuden": 3387,
      "treppen": 3388,
      "straßenrand": 3389,
      "straßenecke": 3390,
      "signs": 3391,
      "particip": 3392,
      "starrt": 3393,
      "enjoy": 3394,
      "##halle": 3395,
      "photograp": 3396,
      "offenen": 3397,
      "balanc": 3398,
      "jugendlicher": 3399,
      "mobil": 3400,
      "hört": 3401,
      "cloud": 3402,
      "sculp": 3403,
      "tätow": 3404,
      "overlooking": 3405,
      "cele": 3406,
      "fans": 3407,
      "kir": 3408,
      "lights": 3409,
      "pul": 3410,
      "tables": 3411,
      "wunder": 3412,
      "zer": 3413,
      "##po": 3414,
      "##lin": 3415,
      "##lers": 3416,
      "##kten": 3417,
      "schatten": 3418,
      "ans": 3419,
      "##ides": 3420,
      "tool": 3421,
      "##umm": 3422,
      "##ics": 3423,
      "##icol": 3424,
      "chain": 3425,
      "way": 3426,
      "wasch": 3427,
      "streich": 3428,
      "##ular": 3429,
      "robe": 3430,
      "hole": 3431,
      "skater": 3432,
      "##anken": 3433,
      "##fahren": 3434,
      "abend": 3435,
      "advert": 3436,
      "baustelle": 3437,
      "plan": 3438,
      "schütt": 3439,
      "schoß": 3440,
      "course": 3441,
      "dieser": 3442,
      "schulter": 3443,
      "officer": 3444,
      "tourist": 3445,
      "multicol": 3446,
      "umarmt": 3447,
      "jagt": 3448,
      "bubbles": 3449,
      "says": 3450,
      "seifenbla": 3451,
      "geländemotorrad": 3452,
      "mirror": 3453,
      "advertis": 3454,
      "cut": 3455,
      "fin": 3456,
      "foll": 3457,
      "ganz": 3458,
      "kuchen": 3459,
      "sänger": 3460,
      "vis": 3461,
      "ziel": 3462,
      "##gn": 3463,
      "##kla": 3464,
      "##kap": 3465,
      "##enkt": 3466,
      "##lete": 3467,
      "##reich": 3468,
      "sty": 3469,
      "stro": 3470,
      "##lauf": 3471,
      "##laden": 3472,
      "##irmen": 3473,
      "##ierte": 3474,
      "bekom": 3475,
      "leans": 3476,
      "##ulpt": 3477,
      "jacken": 3478,
      "heav": 3479,
      "grasbewachsen": 3480,
      "fußballspiel": 3481,
      "brightly": 3482,
      "orangefarbener": 3483,
      "pitcher": 3484,
      "square": 3485,
      "balloons": 3486,
      "finger": 3487,
      "krawatte": 3488,
      "glück": 3489,
      "hoodie": 3490,
      "dunkelhäutiger": 3491,
      "terra": 3492,
      "fixing": 3493,
      "giant": 3494,
      "bmx": 3495,
      "celebra": 3496,
      "##ulptur": 3497,
      "fan": 3498,
      "made": 3499,
      "mix": 3500,
      "pet": 3501,
      "pud": 3502,
      "tier": 3503,
      "van": 3504,
      "##des": 3505,
      "##oon": 3506,
      "##ule": 3507,
      "##ward": 3508,
      "start": 3509,
      "##eigen": 3510,
      "##ator": 3511,
      "anh": 3512,
      "atten": 3513,
      "##ugg": 3514,
      "leather": 3515,
      "gepflaster": 3516,
      "##telefon": 3517,
      "alone": 3518,
      "vert": 3519,
      "reg": 3520,
      "rech": 3521,
      "##iste": 3522,
      "olymp": 3523,
      "helping": 3524,
      "faces": 3525,
      "cloth": 3526,
      "schnau": 3527,
      "hellhäut": 3528,
      "microsc": 3529,
      "nah": 3530,
      "##räder": 3531,
      "grünes": 3532,
      "teenage": 3533,
      "umbrellas": 3534,
      "netz": 3535,
      "brunette": 3536,
      "schreibtisch": 3537,
      "foreground": 3538,
      "repariert": 3539,
      "pflanzen": 3540,
      "vordergrund": 3541,
      "flugzeug": 3542,
      "discuss": 3543,
      "podium": 3544,
      "putzt": 3545,
      "rack": 3546,
      "##bike": 3547,
      "##ners": 3548,
      "##ness": 3549,
      "##hang": 3550,
      "##korb": 3551,
      "##que": 3552,
      "##chair": 3553,
      "inf": 3554,
      "##leep": 3555,
      "##schw": 3556,
      "##schuh": 3557,
      "spor": 3558,
      "site": 3559,
      "##olding": 3560,
      "asleep": 3561,
      "taschen": 3562,
      "motoc": 3563,
      "sandalen": 3564,
      "fahrradfahrer": 3565,
      "gekleidetes": 3566,
      "enter": 3567,
      "headphones": 3568,
      "stadium": 3569,
      "meat": 3570,
      "gegeneinander": 3571,
      "kurzer": 3572,
      "schlitten": 3573,
      "##füllten": 3574,
      "gelände": 3575,
      "legs": 3576,
      "jogging": 3577,
      "##strecke": 3578,
      "kreis": 3579,
      "khaki": 3580,
      "athlet": 3581,
      "einkaufswagen": 3582,
      "repair": 3583,
      "afroamerikan": 3584,
      "canoe": 3585,
      "sculpture": 3586,
      "motocross": 3587,
      "ass": 3588,
      "diving": 3589,
      "kunden": 3590,
      "“.": 3591,
      "##py": 3592,
      "##äun": 3593,
      "##vice": 3594,
      "##anne": 3595,
      "##ched": 3596,
      "stir": 3597,
      "stuff": 3598,
      "##orfen": 3599,
      "##eth": 3600,
      "##etz": 3601,
      "grocer": 3602,
      "wears": 3603,
      "dread": 3604,
      "leash": 3605,
      "round": 3606,
      "trash": 3607,
      "fahrrädern": 3608,
      "club": 3609,
      "##illen": 3610,
      "sandals": 3611,
      "office": 3612,
      "desert": 3613,
      "##deon": 3614,
      "dancers": 3615,
      "asiatisches": 3616,
      "footballspieler": 3617,
      "booth": 3618,
      "##lossen": 3619,
      "mikrosk": 3620,
      "baumst": 3621,
      "verkaufen": 3622,
      "toys": 3623,
      "schieds": 3624,
      "swings": 3625,
      "musical": 3626,
      "passing": 3627,
      "##führt": 3628,
      "afrikan": 3629,
      "sticks": 3630,
      "drawing": 3631,
      "golden": 3632,
      "jemandem": 3633,
      "fallen": 3634,
      "falling": 3635,
      "skiing": 3636,
      "lächelnde": 3637,
      "doorway": 3638,
      "officers": 3639,
      "angezogen": 3640,
      "##front": 3641,
      "super": 3642,
      "bedeckt": 3643,
      "##farb": 3644,
      "##stellung": 3645,
      "##führung": 3646,
      "photographer": 3647,
      "balanciert": 3648,
      "cat": 3649,
      "card": 3650,
      "dam": 3651,
      "kop": 3652,
      "lei": 3653,
      "nur": 3654,
      "winkt": 3655,
      "##port": 3656,
      "##weste": 3657,
      "##westen": 3658,
      "##iter": 3659,
      "innen": 3660,
      "stiefeln": 3661,
      "##aler": 3662,
      "##oten": 3663,
      "##raum": 3664,
      "##allow": 3665,
      "church": 3666,
      "beugt": 3667,
      "dreht": 3668,
      "##ischt": 3669,
      "traff": 3670,
      "teach": 3671,
      "poster": 3672,
      "erde": 3673,
      "arbeits": 3674,
      "##ppich": 3675,
      "performance": 3676,
      "bandan": 3677,
      "heads": 3678,
      "##utzen": 3679,
      "polo": 3680,
      "schlauch": 3681,
      "singer": 3682,
      "dirty": 3683,
      "pferden": 3684,
      "koch": 3685,
      "setzt": 3686,
      "##gebiet": 3687,
      "nav": 3688,
      "##hält": 3689,
      "##ordion": 3690,
      "ziehen": 3691,
      "büro": 3692,
      "##kostü": 3693,
      "akkor": 3694,
      "accordion": 3695,
      "weibliche": 3696,
      "badehose": 3697,
      "mobiltelefon": 3698,
      "multicolored": 3699,
      "schiedsrichter": 3700,
      "euro": 3701,
      "jong": 3702,
      "lift": 3703,
      "must": 3704,
      "ret": 3705,
      "reiten": 3706,
      "sus": 3707,
      "##dog": 3708,
      "##liert": 3709,
      "##reppe": 3710,
      "spa": 3711,
      "##ached": 3712,
      "##igem": 3713,
      "here": 3714,
      "waters": 3715,
      "##team": 3716,
      "handstand": 3717,
      "verf": 3718,
      "ausge": 3719,
      "##ughter": 3720,
      "males": 3721,
      "braunem": 3722,
      "##pping": 3723,
      "##wegs": 3724,
      "prote": 3725,
      "rollt": 3726,
      "speed": 3727,
      "##locks": 3728,
      "surfbrett": 3729,
      "teenag": 3730,
      "inspe": 3731,
      "festival": 3732,
      "throws": 3733,
      "elekt": 3734,
      "felswand": 3735,
      "picking": 3736,
      "orangefarbenem": 3737,
      "besteh": 3738,
      "reaching": 3739,
      "halsband": 3740,
      "hellbrauner": 3741,
      "fällt": 3742,
      "leuchtend": 3743,
      "klassenzimmer": 3744,
      "kapuzen": 3745,
      "includ": 3746,
      "magaz": 3747,
      "traffic": 3748,
      "akkordeon": 3749,
      "em": 3750,
      "fab": 3751,
      "fair": 3752,
      "hiking": 3753,
      "nap": 3754,
      "pup": 3755,
      "zimmer": 3756,
      "##ble": 3757,
      "##cope": 3758,
      "##park": 3759,
      "##pft": 3760,
      "##lung": 3761,
      "##assen": 3762,
      "##ker": 3763,
      "##kre": 3764,
      "##ünen": 3765,
      "##vie": 3766,
      "##atz": 3767,
      "schuhe": 3768,
      "##schö": 3769,
      "shallow": 3770,
      "##ugel": 3771,
      "##ught": 3772,
      "demon": 3773,
      "frisch": 3774,
      "straw": 3775,
      "laund": 3776,
      "tax": 3777,
      "pond": 3778,
      "##anzügen": 3779,
      "oberteilen": 3780,
      "dessen": 3781,
      "deep": 3782,
      "loch": 3783,
      "warm": 3784,
      "gerüst": 3785,
      "schläger": 3786,
      "even": 3787,
      "clean": 3788,
      "belebte": 3789,
      "farb": 3790,
      "davor": 3791,
      "kanu": 3792,
      "ruder": 3793,
      "##uzz": 3794,
      "höhe": 3795,
      "below": 3796,
      "violet": 3797,
      "overalls": 3798,
      "fleisch": 3799,
      "profession": 3800,
      "digging": 3801,
      "members": 3802,
      "relaxing": 3803,
      "außen": 3804,
      "ärm": 3805,
      "unbefestigten": 3806,
      "sicherheit": 3807,
      "act": 3808,
      "cas": 3809,
      "cast": 3810,
      "dish": 3811,
      "gives": 3812,
      "tub": 3813,
      "##ring": 3814,
      "##iben": 3815,
      "##pull": 3816,
      "##ube": 3817,
      "##wel": 3818,
      "##fern": 3819,
      "##its": 3820,
      "##ones": 3821,
      "##unnen": 3822,
      "##unks": 3823,
      "##eman": 3824,
      "spot": 3825,
      "##ama": 3826,
      "atop": 3827,
      "schwimmen": 3828,
      "redet": 3829,
      "stret": 3830,
      "seines": 3831,
      "##ivers": 3832,
      "upside": 3833,
      "##feren": 3834,
      "##ures": 3835,
      "##fahrzeug": 3836,
      "##tzt": 3837,
      "##läger": 3838,
      "##ttert": 3839,
      "##brunnen": 3840,
      "present": 3841,
      "küsst": 3842,
      "zeigen": 3843,
      "marsch": 3844,
      "pferde": 3845,
      "passes": 3846,
      "catching": 3847,
      "catches": 3848,
      "aussieht": 3849,
      "farm": 3850,
      "##zaun": 3851,
      "direction": 3852,
      "project": 3853,
      "hugging": 3854,
      "##schaften": 3855,
      "jünger": 3856,
      "lastwagen": 3857,
      "##nahme": 3858,
      "seifenblasen": 3859,
      "microscope": 3860,
      "mikroskop": 3861,
      "ecke": 3862,
      "fra": 3863,
      "ged": 3864,
      "tischen": 3865,
      "wüst": 3866,
      "##gere": 3867,
      "##gern": 3868,
      "##pro": 3869,
      "##part": 3870,
      "##fuß": 3871,
      "einge": 3872,
      "##orch": 3873,
      "##stad": 3874,
      "schaufen": 3875,
      "##utsche": 3876,
      "spei": 3877,
      "##inder": 3878,
      "sea": 3879,
      "bewe": 3880,
      "bekleidet": 3881,
      "brün": 3882,
      "move": 3883,
      "asiatisch": 3884,
      "shoe": 3885,
      "sweeping": 3886,
      "küssen": 3887,
      "kocht": 3888,
      "exc": 3889,
      "sleeps": 3890,
      "schlange": 3891,
      "verkauf": 3892,
      "appro": 3893,
      "prepare": 3894,
      "shows": 3895,
      "verschiedenen": 3896,
      "makeup": 3897,
      "kranken": 3898,
      "##tritt": 3899,
      "leaping": 3900,
      "bemalt": 3901,
      "wunderschö": 3902,
      "schnauze": 3903,
      "dreadlocks": 3904,
      "spaß": 3905,
      "bis": 3906,
      "cold": 3907,
      "gie": 3908,
      "how": 3909,
      "lö": 3910,
      "pan": 3911,
      "pill": 3912,
      "piz": 3913,
      "prä": 3914,
      "teich": 3915,
      "##genden": 3916,
      "##iot": 3917,
      "##pa": 3918,
      "##light": 3919,
      "##tain": 3920,
      "##kop": 3921,
      "##wich": 3922,
      "##wär": 3923,
      "##öl": 3924,
      "##enter": 3925,
      "##arm": 3926,
      "##eter": 3927,
      "##ssch": 3928,
      "##illt": 3929,
      "span": 3930,
      "splas": 3931,
      "##urt": 3932,
      "tochter": 3933,
      "spielfeld": 3934,
      "sees": 3935,
      "##bereich": 3936,
      "beam": 3937,
      "grim": 3938,
      "trunks": 3939,
      "passen": 3940,
      "tex": 3941,
      "teeth": 3942,
      "teppich": 3943,
      "string": 3944,
      "jean": 3945,
      "sandwich": 3946,
      "scaff": 3947,
      "luftball": 3948,
      "stadion": 3949,
      "geschm": 3950,
      "##ktor": 3951,
      "daughter": 3952,
      "coats": 3953,
      "bäume": 3954,
      "tanktop": 3955,
      "objekt": 3956,
      "lots": 3957,
      "lilafarbenen": 3958,
      "schultern": 3959,
      "rennstrecke": 3960,
      "männlicher": 3961,
      "conversing": 3962,
      "swimsuit": 3963,
      "contain": 3964,
      "violett": 3965,
      "schönen": 3966,
      "resting": 3967,
      "farbenfrohen": 3968,
      "hindern": 3969,
      "gesichts": 3970,
      "kayak": 3971,
      "ausgestre": 3972,
      "individuals": 3973,
      "pedestr": 3974,
      "##köpfiger": 3975,
      "grasbewachsenen": 3976,
      "stirn": 3977,
      "kopft": 3978,
      "splashing": 3979,
      "bill": 3980,
      "et": 3981,
      "eat": 3982,
      "hear": 3983,
      "hik": 3984,
      "lone": 3985,
      "puck": 3986,
      "sack": 3987,
      "tü": 3988,
      "town": 3989,
      "wine": 3990,
      "##bat": 3991,
      "##nung": 3992,
      "##nival": 3993,
      "##dach": 3994,
      "##hei": 3995,
      "##pit": 3996,
      "##pend": 3997,
      "##yl": 3998,
      "##ual": 3999,
      "##wards": 4000,
      "##öpfen": 4001,
      "these": 4002,
      "stack": 4003,
      "stap": 4004,
      "staub": 4005,
      "##anda": 4006,
      "##ummer": 4007,
      "hunden": 4008,
      "stream": 4009,
      "haufen": 4010,
      "##neath": 4011,
      "flü": 4012,
      "carnival": 4013,
      "tasse": 4014,
      "snack": 4015,
      "##key": 4016,
      "position": 4017,
      "##antel": 4018,
      "held": 4019,
      "##haw": 4020,
      "flasche": 4021,
      "##zene": 4022,
      "underneath": 4023,
      "kai": 4024,
      "balc": 4025,
      "##hou": 4026,
      "plants": 4027,
      "books": 4028,
      "silhou": 4029,
      "clear": 4030,
      "formal": 4031,
      "points": 4032,
      "kappe": 4033,
      "café": 4034,
      "dinner": 4035,
      "wrestling": 4036,
      "schaufel": 4037,
      "##igkeit": 4038,
      "sleeve": 4039,
      "mural": 4040,
      "telescope": 4041,
      "transport": 4042,
      "schaukelt": 4043,
      "customers": 4044,
      "kirche": 4045,
      "gepflasterten": 4046,
      "racket": 4047,
      "suspend": 4048,
      "violetten": 4049,
      "center": 4050,
      "don": 4051,
      "hiker": 4052,
      "jahr": 4053,
      "lach": 4054,
      "mer": 4055,
      "namen": 4056,
      "ruh": 4057,
      "zä": 4058,
      "##gem": 4059,
      "##dem": 4060,
      "##iage": 4061,
      "##cas": 4062,
      "##hose": 4063,
      "##ka": 4064,
      "##äck": 4065,
      "##fährt": 4066,
      "##ino": 4067,
      "##itor": 4068,
      "schuh": 4069,
      "without": 4070,
      "##opes": 4071,
      "chin": 4072,
      "strecke": 4073,
      "##icks": 4074,
      "sprink": 4075,
      "amp": 4076,
      "moving": 4077,
      "##bewer": 4078,
      "parkbank": 4079,
      "freunden": 4080,
      "unterwegs": 4081,
      "helmen": 4082,
      "bush": 4083,
      "geschlossen": 4084,
      "local": 4085,
      "grauer": 4086,
      "küste": 4087,
      "themsel": 4088,
      "schnur": 4089,
      "underw": 4090,
      "hellen": 4091,
      "exp": 4092,
      "flaggen": 4093,
      "landschaft": 4094,
      "cane": 4095,
      "firef": 4096,
      "meeres": 4097,
      "student": 4098,
      "##gestellt": 4099,
      "bedient": 4100,
      "links": 4101,
      "curly": 4102,
      "cheerleaders": 4103,
      "aussehende": 4104,
      "shoulders": 4105,
      "brot": 4106,
      "freunde": 4107,
      "button": 4108,
      "##igkeiten": 4109,
      "spray": 4110,
      "gegnerischen": 4111,
      "opposing": 4112,
      "moped": 4113,
      "##linie": 4114,
      "##kappe": 4115,
      "stroh": 4116,
      "including": 4117,
      "ärmell": 4118,
      "sicherheits": 4119,
      "themselves": 4120,
      "\".": 4121,
      "eish": 4122,
      "hur": 4123,
      "lunch": 4124,
      "put": 4125,
      "pian": 4126,
      "rett": 4127,
      "sachen": 4128,
      "tong": 4129,
      "vö": 4130,
      "wire": 4131,
      "##eum": 4132,
      "##llen": 4133,
      "##üm": 4134,
      "##älter": 4135,
      "##uge": 4136,
      "stö": 4137,
      "##ory": 4138,
      "##ads": 4139,
      "schwei": 4140,
      "paved": 4141,
      "ballerin": 4142,
      "verd": 4143,
      "taken": 4144,
      "##eilen": 4145,
      "runners": 4146,
      "mahl": 4147,
      "##ffer": 4148,
      "sieben": 4149,
      "museum": 4150,
      "##fahrt": 4151,
      "picn": 4152,
      "schwimmbrille": 4153,
      "rolling": 4154,
      "gegenständ": 4155,
      "schnell": 4156,
      "dunkler": 4157,
      "kaffee": 4158,
      "##gebäude": 4159,
      "##haariges": 4160,
      "steine": 4161,
      "crosswalk": 4162,
      "wooded": 4163,
      "sheet": 4164,
      "opening": 4165,
      "##prü": 4166,
      "schüssel": 4167,
      "maske": 4168,
      "pickn": 4169,
      "bullen": 4170,
      "rollersk": 4171,
      "crying": 4172,
      "eye": 4173,
      "wetsuit": 4174,
      "touristen": 4175,
      "matching": 4176,
      "cheerleader": 4177,
      "tennissch": 4178,
      "schutzhelmen": 4179,
      "umarmen": 4180,
      "##plane": 4181,
      "trampolin": 4182,
      "trampoline": 4183,
      "gasse": 4184,
      "produce": 4185,
      "beleuchteten": 4186,
      "circle": 4187,
      "film": 4188,
      "einzel": 4189,
      "geige": 4190,
      "##schaukel": 4191,
      "entspannt": 4192,
      "katze": 4193,
      "pulled": 4194,
      "infant": 4195,
      "damit": 4196,
      "kapuzenpull": 4197,
      "##stadt": 4198,
      "camp": 4199,
      "di": 4200,
      "fight": 4201,
      "nose": 4202,
      "ohr": 4203,
      "pin": 4204,
      "rub": 4205,
      "tief": 4206,
      "##gon": 4207,
      "##back": 4208,
      "##hnt": 4209,
      "##agen": 4210,
      "##kat": 4211,
      "##üne": 4212,
      "infla": 4213,
      "##ndon": 4214,
      "##red": 4215,
      "steigt": 4216,
      "##alter": 4217,
      "##etten": 4218,
      "aufb": 4219,
      "##isen": 4220,
      "##indet": 4221,
      "peace": 4222,
      "sewing": 4223,
      "seiten": 4224,
      "##ierter": 4225,
      "trä": 4226,
      "##veranstaltung": 4227,
      "gezogen": 4228,
      "hinab": 4229,
      "skis": 4230,
      "vergn": 4231,
      "tele": 4232,
      "##ehrt": 4233,
      "most": 4234,
      "##ameras": 4235,
      "entfer": 4236,
      "bass": 4237,
      "berge": 4238,
      "help": 4239,
      "fahnen": 4240,
      "näher": 4241,
      "performer": 4242,
      "dances": 4243,
      "##unkt": 4244,
      "##örm": 4245,
      "befest": 4246,
      "london": 4247,
      "feldweg": 4248,
      "hüpft": 4249,
      "zeichen": 4250,
      "holt": 4251,
      "kahl": 4252,
      "surface": 4253,
      "turner": 4254,
      "##fully": 4255,
      "amerikan": 4256,
      "langem": 4257,
      "wheelchair": 4258,
      "knee": 4259,
      "kreuz": 4260,
      "wettkampf": 4261,
      "skiern": 4262,
      "attempts": 4263,
      "athlete": 4264,
      "verwendet": 4265,
      "bicyclists": 4266,
      "springbrunnen": 4267,
      "moment": 4268,
      "##entrum": 4269,
      "balkon": 4270,
      "kopfhörer": 4271,
      "closed": 4272,
      "stuffed": 4273,
      "##kostüm": 4274,
      "jongliert": 4275,
      "teenagers": 4276,
      "##bewerb": 4277,
      "picnic": 4278,
      "apart": 4279,
      "bunt": 4280,
      "del": 4281,
      "east": 4282,
      "kil": 4283,
      "led": 4284,
      "pen": 4285,
      "sy": 4286,
      "sen": 4287,
      "sim": 4288,
      "tw": 4289,
      "##dress": 4290,
      "##ruck": 4291,
      "##hän": 4292,
      "##oben": 4293,
      "##ockey": 4294,
      "##teln": 4295,
      "##asse": 4296,
      "##kan": 4297,
      "##kon": 4298,
      "##äten": 4299,
      "##inen": 4300,
      "##ering": 4301,
      "##ered": 4302,
      "##itter": 4303,
      "##itzen": 4304,
      "inten": 4305,
      "third": 4306,
      "##elten": 4307,
      "sta": 4308,
      "theater": 4309,
      "mittel": 4310,
      "##omaten": 4311,
      "##schl": 4312,
      "derby": 4313,
      "##uren": 4314,
      "bever": 4315,
      "##icken": 4316,
      "umzug": 4317,
      "brus": 4318,
      "lays": 4319,
      "##gerät": 4320,
      "##bec": 4321,
      "blouse": 4322,
      "erd": 4323,
      "##auto": 4324,
      "sandy": 4325,
      "barfuß": 4326,
      "barbec": 4327,
      "##ustic": 4328,
      "himsel": 4329,
      "goes": 4330,
      "slope": 4331,
      "bilder": 4332,
      "kauft": 4333,
      "schießt": 4334,
      "motorcyclist": 4335,
      "studio": 4336,
      "##ünstler": 4337,
      "fallschirm": 4338,
      "boxes": 4339,
      "lächelnder": 4340,
      "komple": 4341,
      "pushes": 4342,
      "hotdog": 4343,
      "bottom": 4344,
      "##flug": 4345,
      "fotografieren": 4346,
      "reparieren": 4347,
      "anzügen": 4348,
      "klippe": 4349,
      "rollerblades": 4350,
      "rechts": 4351,
      "schaufenster": 4352,
      "hindernis": 4353,
      "pedestrians": 4354,
      "hikers": 4355,
      "balcony": 4356,
      "eishockey": 4357,
      "himself": 4358,
      "20": 4359,
      "bin": 4360,
      "bent": 4361,
      "eg": 4362,
      "gate": 4363,
      "heben": 4364,
      "horn": 4365,
      "min": 4366,
      "puts": 4367,
      "ringen": 4368,
      "reiter": 4369,
      "sü": 4370,
      "sol": 4371,
      "tut": 4372,
      "tile": 4373,
      "teller": 4374,
      "“-": 4375,
      "##mo": 4376,
      "##gs": 4377,
      "##glie": 4378,
      "##rier": 4379,
      "##lle": 4380,
      "##licht": 4381,
      "##zeigt": 4382,
      "##chern": 4383,
      "##ingeb": 4384,
      "##eister": 4385,
      "##oren": 4386,
      "##rock": 4387,
      "schr": 4388,
      "ship": 4389,
      "##ames": 4390,
      "##ica": 4391,
      "seven": 4392,
      "sitzende": 4393,
      "grillt": 4394,
      "geöff": 4395,
      "arch": 4396,
      "cond": 4397,
      "orang": 4398,
      "hockt": 4399,
      "ausrüstung": 4400,
      "##box": 4401,
      "waterfall": 4402,
      "neon": 4403,
      "##umpf": 4404,
      "##oney": 4405,
      "gesp": 4406,
      "geschen": 4407,
      "gesäum": 4408,
      "##ienen": 4409,
      "dry": 4410,
      "driver": 4411,
      "cons": 4412,
      "design": 4413,
      "asiate": 4414,
      "##seite": 4415,
      "device": 4416,
      "##ändern": 4417,
      "straßenk": 4418,
      "pulls": 4419,
      "hellblauen": 4420,
      "speaks": 4421,
      "stoff": 4422,
      "##stücke": 4423,
      "plant": 4424,
      "cowboyhut": 4425,
      "hängen": 4426,
      "staircase": 4427,
      "type": 4428,
      "instrumenten": 4429,
      "jugg": 4430,
      "wandert": 4431,
      "##baren": 4432,
      "##sca": 4433,
      "steep": 4434,
      "bücher": 4435,
      "ruht": 4436,
      "fingers": 4437,
      "banner": 4438,
      "chases": 4439,
      "aussehender": 4440,
      "##weise": 4441,
      "dunkelhäutige": 4442,
      "bläst": 4443,
      "goalie": 4444,
      "##inned": 4445,
      "wurf": 4446,
      "indoor": 4447,
      "berührt": 4448,
      "schüttelt": 4449,
      "bekommt": 4450,
      "verfolgt": 4451,
      "wüste": 4452,
      "kopftuch": 4453,
      "piano": 4454,
      "geöffnet": 4455,
      "aqu": 4456,
      "bir": 4457,
      "fro": 4458,
      "fash": 4459,
      "kab": 4460,
      "lif": 4461,
      "licht": 4462,
      "live": 4463,
      "nice": 4464,
      "nase": 4465,
      "pony": 4466,
      "samm": 4467,
      "will": 4468,
      "##gan": 4469,
      "##bogen": 4470,
      "##hol": 4471,
      "##osten": 4472,
      "##ls": 4473,
      "##tra": 4474,
      "##afen": 4475,
      "##äm": 4476,
      "##uert": 4477,
      "##zäun": 4478,
      "##vement": 4479,
      "##enten": 4480,
      "##alb": 4481,
      "##atting": 4482,
      "schä": 4483,
      "angeb": 4484,
      "##oth": 4485,
      "spla": 4486,
      "shar": 4487,
      "shaking": 4488,
      "##gegen": 4489,
      "##umn": 4490,
      "vorn": 4491,
      "vorüber": 4492,
      "trib": 4493,
      "cool": 4494,
      "coach": 4495,
      "##icker": 4496,
      "überfüllten": 4497,
      "veranda": 4498,
      "##ude": 4499,
      "travel": 4500,
      "personengruppe": 4501,
      "##ürde": 4502,
      "mound": 4503,
      "##iertem": 4504,
      "fresh": 4505,
      "##aufnahme": 4506,
      "drives": 4507,
      "##anta": 4508,
      "skateboards": 4509,
      "##ible": 4510,
      "essens": 4511,
      "gitarr": 4512,
      "##place": 4513,
      "##akes": 4514,
      "marching": 4515,
      "exper": 4516,
      "attra": 4517,
      "covering": 4518,
      "steinen": 4519,
      "enjoys": 4520,
      "amerikanische": 4521,
      "sportler": 4522,
      "instrumente": 4523,
      "teiln": 4524,
      "hotel": 4525,
      "swims": 4526,
      "gentlemen": 4527,
      "wäsche": 4528,
      "beinen": 4529,
      "native": 4530,
      "##richtung": 4531,
      "handtasche": 4532,
      "palm": 4533,
      "saxophone": 4534,
      "college": 4535,
      "decora": 4536,
      "linken": 4537,
      "reinigt": 4538,
      "##verkäufer": 4539,
      "heavy": 4540,
      "vertei": 4541,
      "grocery": 4542,
      "taxi": 4543,
      "evening": 4544,
      "approach": 4545,
      "geschlossenen": 4546,
      "mahlzeit": 4547,
      "##scape": 4548,
      "fashion": 4549,
      "auch": 4550,
      "bach": 4551,
      "cook": 4552,
      "dust": 4553,
      "fert": 4554,
      "fischer": 4555,
      "jub": 4556,
      "laub": 4557,
      "porch": 4558,
      "rem": 4559,
      "üben": 4560,
      "##mä": 4561,
      "##gl": 4562,
      "##bs": 4563,
      "##bad": 4564,
      "##hil": 4565,
      "##händ": 4566,
      "##table": 4567,
      "##üs": 4568,
      "##ited": 4569,
      "##itte": 4570,
      "##legen": 4571,
      "##reg": 4572,
      "##elf": 4573,
      "stark": 4574,
      "##ckten": 4575,
      "##scher": 4576,
      "##schirmen": 4577,
      "##uses": 4578,
      "##aden": 4579,
      "blatt": 4580,
      "cho": 4581,
      "chalk": 4582,
      "groom": 4583,
      "arr": 4584,
      "robes": 4585,
      "umher": 4586,
      "amüs": 4587,
      "neu": 4588,
      "##ister": 4589,
      "##eine": 4590,
      "wasserfall": 4591,
      "pouring": 4592,
      "untersch": 4593,
      "##farbene": 4594,
      "gebiet": 4595,
      "pinkfarbenem": 4596,
      "##läufer": 4597,
      "##ibr": 4598,
      "dancer": 4599,
      "asiatin": 4600,
      "asiaten": 4601,
      "guard": 4602,
      "##aged": 4603,
      "hüb": 4604,
      "bauen": 4605,
      "stool": 4606,
      "windows": 4607,
      "sheep": 4608,
      "kicks": 4609,
      "tracks": 4610,
      "garage": 4611,
      "##baum": 4612,
      "diesem": 4613,
      "hauses": 4614,
      "felsigen": 4615,
      "öffnet": 4616,
      "traditioneller": 4617,
      "curb": 4618,
      "foreign": 4619,
      "camo": 4620,
      "gucken": 4621,
      "##hügel": 4622,
      "##flasche": 4623,
      "##sprung": 4624,
      "shaving": 4625,
      "salto": 4626,
      "kön": 4627,
      "hochzeits": 4628,
      "##instrumen": 4629,
      "lederjacke": 4630,
      "tennisspieler": 4631,
      "wassers": 4632,
      "cloudy": 4633,
      "puddle": 4634,
      "protective": 4635,
      "laundry": 4636,
      "ethn": 4637,
      "zähne": 4638,
      "birds": 4639,
      "action": 4640,
      "emer": 4641,
      "lies": 4642,
      "lip": 4643,
      "lugg": 4644,
      "pop": 4645,
      "rä": 4646,
      "sale": 4647,
      "tuch": 4648,
      "##mon": 4649,
      "##muster": 4650,
      "##gitar": 4651,
      "##bart": 4652,
      "##day": 4653,
      "##ried": 4654,
      "##cent": 4655,
      "##hlen": 4656,
      "##pfer": 4657,
      "##üte": 4658,
      "##äut": 4659,
      "##zentrum": 4660,
      "##vis": 4661,
      "eingang": 4662,
      "auftritt": 4663,
      "##emon": 4664,
      "##schuhe": 4665,
      "##opren": 4666,
      "shap": 4667,
      "sec": 4668,
      "##bereitet": 4669,
      "grind": 4670,
      "gruppen": 4671,
      "fröh": 4672,
      "rothaarige": 4673,
      "denim": 4674,
      "pair": 4675,
      "brust": 4676,
      "lay": 4677,
      "lager": 4678,
      "ausz": 4679,
      "fahrräder": 4680,
      "##cted": 4681,
      "raft": 4682,
      "neopren": 4683,
      "tee": 4684,
      "teamm": 4685,
      "backyard": 4686,
      "poles": 4687,
      "blocks": 4688,
      "nachdem": 4689,
      "colors": 4690,
      "airplane": 4691,
      "abs": 4692,
      "##brillen": 4693,
      "polic": 4694,
      "lock": 4695,
      "##wasser": 4696,
      "küchen": 4697,
      "zeich": 4698,
      "attached": 4699,
      "##struktion": 4700,
      "##füß": 4701,
      "plane": 4702,
      "disk": 4703,
      "hangs": 4704,
      "zahl": 4705,
      "winterkleidung": 4706,
      "dieses": 4707,
      "soldiers": 4708,
      "schneiden": 4709,
      "langär": 4710,
      "kann": 4711,
      "pitch": 4712,
      "serv": 4713,
      "taucht": 4714,
      "checking": 4715,
      "paddling": 4716,
      "halb": 4717,
      "half": 4718,
      "wäscht": 4719,
      "reaches": 4720,
      "hellbraunen": 4721,
      "breakd": 4722,
      "shoveling": 4723,
      "blätter": 4724,
      "kerl": 4725,
      "##druck": 4726,
      "opposite": 4727,
      "ferns": 4728,
      "shooting": 4729,
      "wrapped": 4730,
      "werkzeug": 4731,
      "untersucht": 4732,
      "entertain": 4733,
      "##wärts": 4734,
      "aufblas": 4735,
      "ledge": 4736,
      "splash": 4737,
      "luggage": 4738,
      "bord": 4739,
      "doll": 4740,
      "ess": 4741,
      "fol": 4742,
      "fur": 4743,
      "free": 4744,
      "kuh": 4745,
      "kissen": 4746,
      "mc": 4747,
      "vac": 4748,
      "zunge": 4749,
      "übt": 4750,
      "##mantel": 4751,
      "##bro": 4752,
      "##cross": 4753,
      "##lern": 4754,
      "##tten": 4755,
      "##kol": 4756,
      "##usch": 4757,
      "##work": 4758,
      "##fts": 4759,
      "##inning": 4760,
      "##chte": 4761,
      "##inger": 4762,
      "##legt": 4763,
      "steigen": 4764,
      "##eile": 4765,
      "##uflage": 4766,
      "##road": 4767,
      "##ato": 4768,
      "##ete": 4769,
      "##stag": 4770,
      "schot": 4771,
      "##schild": 4772,
      "##ids": 4773,
      "##ichten": 4774,
      "##amas": 4775,
      "##icycle": 4776,
      "image": 4777,
      "chest": 4778,
      "sitzender": 4779,
      "you": 4780,
      "paj": 4781,
      "pavement": 4782,
      "##ickelt": 4783,
      "beieinander": 4784,
      "orn": 4785,
      "##ions": 4786,
      "bran": 4787,
      "flight": 4788,
      "amus": 4789,
      "care": 4790,
      "rast": 4791,
      "##zeuge": 4792,
      "##ively": 4793,
      "masch": 4794,
      "poss": 4795,
      "bikers": 4796,
      "##illing": 4797,
      "cones": 4798,
      "skateboardfahrer": 4799,
      "sword": 4800,
      "scen": 4801,
      "barfüß": 4802,
      "feed": 4803,
      "vollen": 4804,
      "comple": 4805,
      "mex": 4806,
      "fenced": 4807,
      "adj": 4808,
      "##änden": 4809,
      "loc": 4810,
      "schlafen": 4811,
      "werbung": 4812,
      "gewand": 4813,
      "jumpsuit": 4814,
      "kurve": 4815,
      "##isse": 4816,
      "darunter": 4817,
      "gerät": 4818,
      "schießen": 4819,
      "passanten": 4820,
      "apple": 4821,
      "##arbeiten": 4822,
      "sail": 4823,
      "bunte": 4824,
      "kickt": 4825,
      "##pritzt": 4826,
      "soldier": 4827,
      "##helm": 4828,
      "prin": 4829,
      "rollstuhl": 4830,
      "skirts": 4831,
      "getränke": 4832,
      "taucher": 4833,
      "allein": 4834,
      "jerseys": 4835,
      "balancing": 4836,
      "oppon": 4837,
      "multip": 4838,
      "burg": 4839,
      "recei": 4840,
      "wurde": 4841,
      "weitere": 4842,
      "gelegt": 4843,
      "fußgängerüber": 4844,
      "tarn": 4845,
      "tools": 4846,
      "finish": 4847,
      "terrasse": 4848,
      "baumstamm": 4849,
      "fabric": 4850,
      "frame": 4851,
      "gießt": 4852,
      "präsent": 4853,
      "tongue": 4854,
      "ballerina": 4855,
      "inflatable": 4856,
      "camouflage": 4857,
      "eats": 4858,
      "fau": 4859,
      "kam": 4860,
      "low": 4861,
      "lim": 4862,
      "lehr": 4863,
      "living": 4864,
      "ribb": 4865,
      "sar": 4866,
      "summer": 4867,
      "santa": 4868,
      "weiter": 4869,
      "zement": 4870,
      "##mark": 4871,
      "##gle": 4872,
      "##glas": 4873,
      "##nis": 4874,
      "##nitten": 4875,
      "##cial": 4876,
      "##hlt": 4877,
      "##sal": 4878,
      "##ws": 4879,
      "##ßer": 4880,
      "##inten": 4881,
      "##err": 4882,
      "##itze": 4883,
      "##arter": 4884,
      "##unif": 4885,
      "##etter": 4886,
      "##schü": 4887,
      "##schein": 4888,
      "##oping": 4889,
      "##urf": 4890,
      "##usk": 4891,
      "##igam": 4892,
      "seat": 4893,
      "char": 4894,
      "becher": 4895,
      "grand": 4896,
      "##estelle": 4897,
      "gezeigt": 4898,
      "hinaus": 4899,
      "skinned": 4900,
      "orch": 4901,
      "bringt": 4902,
      "bräut": 4903,
      "fly": 4904,
      "flops": 4905,
      "verz": 4906,
      "lacross": 4907,
      "tractor": 4908,
      "rac": 4909,
      "backstein": 4910,
      "hinterher": 4911,
      "moves": 4912,
      "buying": 4913,
      "riders": 4914,
      "erh": 4915,
      "helfen": 4916,
      "##ücken": 4917,
      "##fahrern": 4918,
      "tops": 4919,
      "headsc": 4920,
      "walls": 4921,
      "meet": 4922,
      "##altestelle": 4923,
      "karten": 4924,
      "married": 4925,
      "floating": 4926,
      "floral": 4927,
      "geworfen": 4928,
      "nassen": 4929,
      "musician": 4930,
      "escal": 4931,
      "##attle": 4932,
      "bread": 4933,
      "motorcycles": 4934,
      "cowboys": 4935,
      "hockeyspieler": 4936,
      "kommen": 4937,
      "rasiert": 4938,
      "spazier": 4939,
      "trop": 4940,
      "laptops": 4941,
      "courtyard": 4942,
      "höl": 4943,
      "gepäck": 4944,
      "railroad": 4945,
      "happily": 4946,
      "refere": 4947,
      "konzentr": 4948,
      "bubble": 4949,
      "vollführt": 4950,
      "feier": 4951,
      "teleskop": 4952,
      "cyclists": 4953,
      "##stoff": 4954,
      "pipe": 4955,
      "laughs": 4956,
      "magazine": 4957,
      "professional": 4958,
      "brünette": 4959,
      "pizza": 4960,
      "silhouette": 4961,
      "träger": 4962,
      "straßenkünstler": 4963,
      "juggling": 4964,
      "unterschied": 4965,
      "können": 4966,
      "bräutigam": 4967,
      "bamb": 4968,
      "dot": 4969,
      "eith": 4970,
      "fit": 4971,
      "fir": 4972,
      "geben": 4973,
      "jet": 4974,
      "kart": 4975,
      "pil": 4976,
      "sla": 4977,
      "tim": 4978,
      "yog": 4979,
      "##gy": 4980,
      "##nch": 4981,
      "##don": 4982,
      "##cut": 4983,
      "##oustic": 4984,
      "##time": 4985,
      "##äbt": 4986,
      "##fte": 4987,
      "##ench": 4988,
      "##rein": 4989,
      "##stufen": 4990,
      "##statt": 4991,
      "##stühlen": 4992,
      "schub": 4993,
      "anle": 4994,
      "##sses": 4995,
      "shown": 4996,
      "plakat": 4997,
      "##ends": 4998,
      "sitzenden": 4999,
      "grö": 5000,
      "##ospiel": 5001,
      "##iment": 5002,
      "dreck": 5003,
      "ort": 5004,
      "überprü": 5005,
      "carpet": 5006,
      "backwards": 5007,
      "##ippt": 5008,
      "baut": 5009,
      "socks": 5010,
      "gebl": 5011,
      "benutzen": 5012,
      "barre": 5013,
      "carriage": 5014,
      "geschirr": 5015,
      "acoustic": 5016,
      "restaurants": 5017,
      "schwimmer": 5018,
      "paras": 5019,
      "besen": 5020,
      "karren": 5021,
      "boats": 5022,
      "german": 5023,
      "waldgebiet": 5024,
      "studenten": 5025,
      "marketplace": 5026,
      "drachen": 5027,
      "goldenen": 5028,
      "schreit": 5029,
      "gleitet": 5030,
      "polizei": 5031,
      "cheering": 5032,
      "begle": 5033,
      "begut": 5034,
      "fisher": 5035,
      "bucking": 5036,
      "##mmert": 5037,
      "john": 5038,
      "quarter": 5039,
      "fingern": 5040,
      "labor": 5041,
      "paddelt": 5042,
      "matte": 5043,
      "akust": 5044,
      "##gewicht": 5045,
      "schöne": 5046,
      "angelt": 5047,
      "closeup": 5048,
      "record": 5049,
      "model": 5050,
      "garbage": 5051,
      "touching": 5052,
      "goods": 5053,
      "tätowier": 5054,
      "glücklich": 5055,
      "hellhäutiger": 5056,
      "arbeitskleidung": 5057,
      "bandanna": 5058,
      "mustach": 5059,
      "demonstra": 5060,
      "texas": 5061,
      "scaffolding": 5062,
      "suspended": 5063,
      "schnurr": 5064,
      "hurdle": 5065,
      "barbecue": 5066,
      "201": 5067,
      "geschenk": 5068,
      "schäfer": 5069,
      "##hilfe": 5070,
      "##gitarre": 5071,
      "neoprenanzug": 5072,
      "mcdon": 5073,
      "pajamas": 5074,
      "adjust": 5075,
      "multiple": 5076,
      "orchest": 5077,
      "either": 5078,
      "yoga": 5079,
      "mcdonal": 5080,
      ".\"": 5081,
      "acht": 5082,
      "broom": 5083,
      "cab": 5084,
      "cau": 5085,
      "du": 5086,
      "dj": 5087,
      "dro": 5088,
      "got": 5089,
      "gas": 5090,
      "id": 5091,
      "kau": 5092,
      "körper": 5093,
      "kehrt": 5094,
      "mei": 5095,
      "mor": 5096,
      "money": 5097,
      "pige": 5098,
      "runden": 5099,
      "##eite": 5100,
      "##da": 5101,
      "##deck": 5102,
      "##rutsche": 5103,
      "##pers": 5104,
      "##luft": 5105,
      "##kte": 5106,
      "##keboard": 5107,
      "##äcken": 5108,
      "##öhn": 5109,
      "##anze": 5110,
      "inform": 5111,
      "invol": 5112,
      "thumb": 5113,
      "step": 5114,
      "##onne": 5115,
      "##eichen": 5116,
      "theke": 5117,
      "##stat": 5118,
      "##ommen": 5119,
      "schaf": 5120,
      "schiff": 5121,
      "##ider": 5122,
      "shade": 5123,
      "##unde": 5124,
      "##asst": 5125,
      "boun": 5126,
      "plaza": 5127,
      "jungs": 5128,
      "spiels": 5129,
      "chop": 5130,
      "##bern": 5131,
      "schwer": 5132,
      "herab": 5133,
      "hundes": 5134,
      "mänteln": 5135,
      "redhead": 5136,
      "wakeboard": 5137,
      "hay": 5138,
      "rout": 5139,
      "flugh": 5140,
      "rechten": 5141,
      "##iven": 5142,
      "##gerüst": 5143,
      "##ipes": 5144,
      "skates": 5145,
      "braunhaarige": 5146,
      "heels": 5147,
      "berges": 5148,
      "##änner": 5149,
      "airport": 5150,
      "vorbeigehen": 5151,
      "flam": 5152,
      "##änder": 5153,
      "##ttform": 5154,
      "parach": 5155,
      "climber": 5156,
      "paints": 5157,
      "kochen": 5158,
      "float": 5159,
      "speak": 5160,
      "exer": 5161,
      "towel": 5162,
      "stove": 5163,
      "wandbild": 5164,
      "gemäl": 5165,
      "landscape": 5166,
      "##hound": 5167,
      "bahnsteig": 5168,
      "##füllt": 5169,
      "batter": 5170,
      "backpacks": 5171,
      "farbe": 5172,
      "drummer": 5173,
      "##steingeb": 5174,
      "kneels": 5175,
      "turnhalle": 5176,
      "cricket": 5177,
      "##mannschaft": 5178,
      "caught": 5179,
      "patient": 5180,
      "rauch": 5181,
      "serving": 5182,
      "alleine": 5183,
      "obstac": 5184,
      "chinesischen": 5185,
      "wettbewerb": 5186,
      "hooded": 5187,
      "türk": 5188,
      "dining": 5189,
      "##chester": 5190,
      "animals": 5191,
      "harness": 5192,
      "welding": 5193,
      "trommel": 5194,
      "operation": 5195,
      "handtuch": 5196,
      "sleeved": 5197,
      "weihnachtsbaum": 5198,
      "feiern": 5199,
      "japanese": 5200,
      "raised": 5201,
      "##ails": 5202,
      "candy": 5203,
      "selts": 5204,
      "irgendein": 5205,
      "advertisement": 5206,
      "style": 5207,
      "nahaufnahme": 5208,
      "leicht": 5209,
      "bewegt": 5210,
      "excited": 5211,
      "heart": 5212,
      "underwater": 5213,
      "ärmellosen": 5214,
      "tennisschläger": 5215,
      "kapuzenpulli": 5216,
      "vergnü": 5217,
      "entfernt": 5218,
      "befestigt": 5219,
      "##glieder": 5220,
      "##zäunten": 5221,
      "lacrosse": 5222,
      "escalator": 5223,
      "konzentriert": 5224,
      "trägerhemd": 5225,
      "schäferhund": 5226,
      "caucas": 5227,
      "flughafen": 5228,
      "bib": 5229,
      "bending": 5230,
      "cer": 5231,
      "cone": 5232,
      "dor": 5233,
      "duck": 5234,
      "dep": 5235,
      "folgt": 5236,
      "glä": 5237,
      "hor": 5238,
      "kalten": 5239,
      "ketten": 5240,
      "mini": 5241,
      "muzz": 5242,
      "neig": 5243,
      "power": 5244,
      "tube": 5245,
      "use": 5246,
      "wol": 5247,
      "##mat": 5248,
      "##gten": 5249,
      "##ech": 5250,
      "##biet": 5251,
      "##ique": 5252,
      "##cil": 5253,
      "##hood": 5254,
      "##pie": 5255,
      "##yhound": 5256,
      "##sern": 5257,
      "##äche": 5258,
      "##fting": 5259,
      "##öte": 5260,
      "##iner": 5261,
      "##inge": 5262,
      "##leucht": 5263,
      "thrown": 5264,
      "stab": 5265,
      "stones": 5266,
      "##robat": 5267,
      "aufs": 5268,
      "##steh": 5269,
      "schach": 5270,
      "spar": 5271,
      "##ooks": 5272,
      "segel": 5273,
      "seems": 5274,
      "bekleidung": 5275,
      "gräbt": 5276,
      "youth": 5277,
      "trump": 5278,
      "##auber": 5279,
      "gravel": 5280,
      "##ifarben": 5281,
      "skulptur": 5282,
      "rod": 5283,
      "ballon": 5284,
      "ballons": 5285,
      "brand": 5286,
      "fläche": 5287,
      "verlassen": 5288,
      "lassen": 5289,
      "greyhound": 5290,
      "##sperr": 5291,
      "entgegen": 5292,
      "freiz": 5293,
      "braunes": 5294,
      "drive": 5295,
      "##grünen": 5296,
      "##strand": 5297,
      "##epark": 5298,
      "##athers": 5299,
      "guitarist": 5300,
      "polka": 5301,
      "liqu": 5302,
      "##aterial": 5303,
      "koffer": 5304,
      "training": 5305,
      "trainiert": 5306,
      "müllt": 5307,
      "indische": 5308,
      "bahnhof": 5309,
      "afrikanische": 5310,
      "cello": 5311,
      "##gestelle": 5312,
      "eleph": 5313,
      "grilling": 5314,
      "jemanden": 5315,
      "lehnen": 5316,
      "lächelndes": 5317,
      "fliegen": 5318,
      "soldat": 5319,
      "geschäftigen": 5320,
      "schneebedeck": 5321,
      "quad": 5322,
      "offenem": 5323,
      "attempt": 5324,
      "checkered": 5325,
      "##uffy": 5326,
      "control": 5327,
      "vehicles": 5328,
      "jagen": 5329,
      "khakifarben": 5330,
      "##erski": 5331,
      "operating": 5332,
      "weihnachtsmann": 5333,
      "beschäft": 5334,
      "individual": 5335,
      "angelr": 5336,
      "neckla": 5337,
      "saxophon": 5338,
      "##schlag": 5339,
      "wohnzimmer": 5340,
      "examining": 5341,
      "participating": 5342,
      "athletic": 5343,
      "teacher": 5344,
      "rolltreppe": 5345,
      "stapel": 5346,
      "gegenstände": 5347,
      "brushing": 5348,
      "decorated": 5349,
      "shaped": 5350,
      "amusement": 5351,
      "##salon": 5352,
      "hölzer": 5353,
      "referee": 5354,
      "quarterback": 5355,
      "2012": 5356,
      "orchestra": 5357,
      "obstacle": 5358,
      "caucasian": 5359,
      "trumpet": 5360,
      "ast": 5361,
      "birt": 5362,
      "bud": 5363,
      "dom": 5364,
      "dump": 5365,
      "elter": 5366,
      "fischen": 5367,
      "gang": 5368,
      "hy": 5369,
      "nied": 5370,
      "oze": 5371,
      "py": 5372,
      "pel": 5373,
      "punk": 5374,
      "pär": 5375,
      "ropes": 5376,
      "sor": 5377,
      "song": 5378,
      "tem": 5379,
      "wide": 5380,
      "##mun": 5381,
      "##männer": 5382,
      "##bel": 5383,
      "##bör": 5384,
      "##ris": 5385,
      "##ipe": 5386,
      "##hosen": 5387,
      "##ora": 5388,
      "##los": 5389,
      "##tisch": 5390,
      "##uder": 5391,
      "##ustr": 5392,
      "##zeich": 5393,
      "##vent": 5394,
      "thin": 5395,
      "things": 5396,
      "##ragen": 5397,
      "stil": 5398,
      "strom": 5399,
      "steilen": 5400,
      "##lagen": 5401,
      "##order": 5402,
      "##roten": 5403,
      "##etra": 5404,
      "##etes": 5405,
      "only": 5406,
      "##stern": 5407,
      "mannschaften": 5408,
      "scheibe": 5409,
      "ant": 5410,
      "##utel": 5411,
      "##schm": 5412,
      "spitze": 5413,
      "shep": 5414,
      "##urg": 5415,
      "##inden": 5416,
      "atv": 5417,
      "jungle": 5418,
      "pee": 5419,
      "##iere": 5420,
      "stehenden": 5421,
      "beweg": 5422,
      "##ikes": 5423,
      "sicht": 5424,
      "try": 5425,
      "trip": 5426,
      "outstre": 5427,
      "herbst": 5428,
      "wagon": 5429,
      "leaf": 5430,
      "hafen": 5431,
      "häus": 5432,
      "bringen": 5433,
      "hocke": 5434,
      "lass": 5435,
      "traktor": 5436,
      "länd": 5437,
      "racer": 5438,
      "techn": 5439,
      "backsteingeb": 5440,
      "map": 5441,
      "skatepark": 5442,
      "freil": 5443,
      "heu": 5444,
      "##ighters": 5445,
      "##ured": 5446,
      "blondem": 5447,
      "##ycling": 5448,
      "mehrfarb": 5449,
      "jewel": 5450,
      "##uba": 5451,
      "ihres": 5452,
      "scuba": 5453,
      "##änken": 5454,
      "motorrädern": 5455,
      "behälter": 5456,
      "füßen": 5457,
      "haircut": 5458,
      "prob": 5459,
      "baseballkappe": 5460,
      "abge": 5461,
      "daneben": 5462,
      "compan": 5463,
      "##brücke": 5464,
      "deut": 5465,
      "daumen": 5466,
      "adm": 5467,
      "sonnenbrillen": 5468,
      "benches": 5469,
      "mountainbike": 5470,
      "sets": 5471,
      "exh": 5472,
      "bildschirm": 5473,
      "also": 5474,
      "pfütze": 5475,
      "pfosten": 5476,
      "snowboarding": 5477,
      "turban": 5478,
      "##asten": 5479,
      "appl": 5480,
      "kunststücke": 5481,
      "bearbeit": 5482,
      "firetr": 5483,
      "sticking": 5484,
      "dunkelhaarige": 5485,
      "zahn": 5486,
      "compete": 5487,
      "push": 5488,
      "begin": 5489,
      "begeister": 5490,
      "prü": 5491,
      "print": 5492,
      "patr": 5493,
      "pattern": 5494,
      "hitting": 5495,
      "trocken": 5496,
      "hören": 5497,
      "practice": 5498,
      "banjo": 5499,
      "photographs": 5500,
      "decken": 5501,
      "jugendliche": 5502,
      "projekt": 5503,
      "tromm": 5504,
      "trompet": 5505,
      "schaufelt": 5506,
      "gass": 5507,
      "hallway": 5508,
      "klat": 5509,
      "klav": 5510,
      "muddy": 5511,
      "kegel": 5512,
      "weint": 5513,
      "bewöl": 5514,
      "gelehnt": 5515,
      "##schafts": 5516,
      "dune": 5517,
      "silbernen": 5518,
      "crouches": 5519,
      "decorat": 5520,
      "bathroom": 5521,
      "##schnitt": 5522,
      "streichelt": 5523,
      "tourists": 5524,
      "presentation": 5525,
      "passengers": 5526,
      "jahrmarkt": 5527,
      "bushaltestelle": 5528,
      "firefighters": 5529,
      "picknickt": 5530,
      "nähert": 5531,
      "kahlköpfiger": 5532,
      "apartment": 5533,
      "komplett": 5534,
      "sharing": 5535,
      "opponent": 5536,
      "headscarf": 5537,
      "geblüm": 5538,
      "exerc": 5539,
      "gemälde": 5540,
      "horiz": 5541,
      "neigh": 5542,
      "freizeit": 5543,
      "hölzernen": 5544,
      "birth": 5545,
      "pärchen": 5546,
      "aber": 5547,
      "ahead": 5548,
      "ceil": 5549,
      "dün": 5550,
      "eight": 5551,
      "gumm": 5552,
      "hum": 5553,
      "hack": 5554,
      "hürde": 5555,
      "ich": 5556,
      "klass": 5557,
      "kisten": 5558,
      "klar": 5559,
      "ler": 5560,
      "lan": 5561,
      "mes": 5562,
      "material": 5563,
      "rowing": 5564,
      "rests": 5565,
      "sink": 5566,
      "sized": 5567,
      "topf": 5568,
      "web": 5569,
      "##met": 5570,
      "##girl": 5571,
      "##gelt": 5572,
      "##gende": 5573,
      "##ee": 5574,
      "##bow": 5575,
      "##bau": 5576,
      "##cess": 5577,
      "##lines": 5578,
      "##th": 5579,
      "##aschen": 5580,
      "##kü": 5581,
      "##kugel": 5582,
      "##ues": 5583,
      "##fig": 5584,
      "##förm": 5585,
      "##iny": 5586,
      "##inery": 5587,
      "inlines": 5588,
      "stier": 5589,
      "statt": 5590,
      "##alle": 5591,
      "##laufen": 5592,
      "##orter": 5593,
      "aufmer": 5594,
      "##stange": 5595,
      "toss": 5596,
      "##woh": 5597,
      "bean": 5598,
      "herd": 5599,
      "graben": 5600,
      "cola": 5601,
      "groups": 5602,
      "order": 5603,
      "organ": 5604,
      "orchester": 5605,
      "brush": 5606,
      "spritzt": 5607,
      "flan": 5608,
      "menschengruppe": 5609,
      "hoops": 5610,
      "##udio": 5611,
      "foc": 5612,
      "machinery": 5613,
      "text": 5614,
      "##isting": 5615,
      "entr": 5616,
      "##ffel": 5617,
      "socken": 5618,
      "dribb": 5619,
      "##ills": 5620,
      "motorrol": 5621,
      "treffen": 5622,
      "baseballspiel": 5623,
      "##quet": 5624,
      "##ibly": 5625,
      "feat": 5626,
      "guitars": 5627,
      "stadtstraße": 5628,
      "bauch": 5629,
      "##jekt": 5630,
      "trainings": 5631,
      "slides": 5632,
      "speech": 5633,
      "kletterer": 5634,
      "balance": 5635,
      "##haarigen": 5636,
      "##ption": 5637,
      "gestreif": 5638,
      "passag": 5639,
      "steinmauer": 5640,
      "graffitis": 5641,
      "brett": 5642,
      "computers": 5643,
      "##gings": 5644,
      "drag": 5645,
      "##coat": 5646,
      "cleans": 5647,
      "teilen": 5648,
      "langhaariger": 5649,
      "leggings": 5650,
      "rennwagen": 5651,
      "joggen": 5652,
      "joggt": 5653,
      "patio": 5654,
      "scheinen": 5655,
      "zuschauermenge": 5656,
      "##streifen": 5657,
      "getränken": 5658,
      "intervie": 5659,
      "relig": 5660,
      "clowns": 5661,
      "tattoos": 5662,
      "geparkt": 5663,
      "camping": 5664,
      "fruits": 5665,
      "##hüter": 5666,
      "hugs": 5667,
      "ears": 5668,
      "heiß": 5669,
      "heißen": 5670,
      "einkaufszentrum": 5671,
      "modell": 5672,
      "keep": 5673,
      "bewund": 5674,
      "##stock": 5675,
      "figure": 5676,
      "##instrument": 5677,
      "schmutzigen": 5678,
      "kopfhörern": 5679,
      "selbst": 5680,
      "##pool": 5681,
      "##reichen": 5682,
      "sporting": 5683,
      "navy": 5684,
      "jüngeren": 5685,
      "speisen": 5686,
      "krankenhaus": 5687,
      "wunderschönen": 5688,
      "luftballons": 5689,
      "ausgestreckten": 5690,
      "china": 5691,
      "rettungs": 5692,
      "süß": 5693,
      "experiment": 5694,
      "##händler": 5695,
      "ethnic": 5696,
      "policeman": 5697,
      "zeichnet": 5698,
      "feeding": 5699,
      "racetra": 5700,
      "first": 5701,
      "mustache": 5702,
      "schnurrbart": 5703,
      "routine": 5704,
      "gassi": 5705,
      "klavier": 5706,
      "birthday": 5707,
      "aufmerks": 5708,
      "racetrack": 5709,
      "eben": 5710,
      "fold": 5711,
      "gall": 5712,
      "gür": 5713,
      "gaz": 5714,
      "hers": 5715,
      "ju": 5716,
      "kont": 5717,
      "kies": 5718,
      "leb": 5719,
      "lamp": 5720,
      "lane": 5721,
      "mi": 5722,
      "mall": 5723,
      "nar": 5724,
      "nicker": 5725,
      "pump": 5726,
      "pine": 5727,
      "sam": 5728,
      "tug": 5729,
      "vil": 5730,
      "ähn": 5731,
      "##ection": 5732,
      "##belt": 5733,
      "##ior": 5734,
      "##hre": 5735,
      "##hmen": 5736,
      "##hmaschine": 5737,
      "##aster": 5738,
      "##kr": 5739,
      "##keit": 5740,
      "inters": 5741,
      "##ars": 5742,
      "##raut": 5743,
      "stol": 5744,
      "stellen": 5745,
      "##onen": 5746,
      "##ufe": 5747,
      "##rop": 5748,
      "aufgere": 5749,
      "##iehen": 5750,
      "##ssers": 5751,
      "##ils": 5752,
      "##rauen": 5753,
      "space": 5754,
      "##ament": 5755,
      "blow": 5756,
      "##eback": 5757,
      "schwach": 5758,
      "mädchens": 5759,
      "##elling": 5760,
      "rede": 5761,
      "rough": 5762,
      "bron": 5763,
      "##itteln": 5764,
      "great": 5765,
      "hinterhof": 5766,
      "modern": 5767,
      "buy": 5768,
      "##bekleidung": 5769,
      "erkl": 5770,
      "bikin": 5771,
      "##automaten": 5772,
      "##twagen": 5773,
      "jeep": 5774,
      "sandd": 5775,
      "älteres": 5776,
      "fass": 5777,
      "##änz": 5778,
      "bushes": 5779,
      "füße": 5780,
      "nähmaschine": 5781,
      "hospit": 5782,
      "baseballmütze": 5783,
      "##lässt": 5784,
      "baskets": 5785,
      "headband": 5786,
      "vorbeifährt": 5787,
      "army": 5788,
      "##ammlung": 5789,
      "gitarren": 5790,
      "def": 5791,
      "dead": 5792,
      "load": 5793,
      "rosafarbenem": 5794,
      "usa": 5795,
      "warn": 5796,
      "##afel": 5797,
      "horseback": 5798,
      "wea": 5799,
      "##loy": 5800,
      "nass": 5801,
      "knit": 5802,
      "knien": 5803,
      "newly": 5804,
      "swimmer": 5805,
      "hillside": 5806,
      "boardwalk": 5807,
      "typen": 5808,
      "schutzbrille": 5809,
      "sells": 5810,
      "smoke": 5811,
      "bowlingbahn": 5812,
      "##bble": 5813,
      "tattooed": 5814,
      "vendors": 5815,
      "banan": 5816,
      "stopped": 5817,
      "leaving": 5818,
      "medical": 5819,
      "##gewöhn": 5820,
      "direkt": 5821,
      "##bildschirm": 5822,
      "electron": 5823,
      "geldbör": 5824,
      "observe": 5825,
      "pira": 5826,
      "crouching": 5827,
      "##borhood": 5828,
      "indoors": 5829,
      "##reiche": 5830,
      "fancy": 5831,
      "petting": 5832,
      "discussion": 5833,
      "navig": 5834,
      "rudert": 5835,
      "stretching": 5836,
      "##ference": 5837,
      "container": 5838,
      "violettem": 5839,
      "flüss": 5840,
      "##hawk": 5841,
      "einzelner": 5842,
      "amerikanischen": 5843,
      "kreuzung": 5844,
      "eastern": 5845,
      "synch": 5846,
      "beverage": 5847,
      "gesäumten": 5848,
      "gitarrist": 5849,
      "neugeb": 5850,
      "rädern": 5851,
      "diskut": 5852,
      "possibly": 5853,
      "ribbon": 5854,
      "pilot": 5855,
      "anlegestelle": 5856,
      "dorf": 5857,
      "beschäftigt": 5858,
      "shepher": 5859,
      "neighborhood": 5860,
      "ceiling": 5861,
      "entrance": 5862,
      "aufmerksam": 5863,
      "herself": 5864,
      "narrow": 5865,
      "nickerchen": 5866,
      "intersection": 5867,
      "hospital": 5868,
      "brow": 5869,
      "butter": 5870,
      "bedeckten": 5871,
      "bänken": 5872,
      "dim": 5873,
      "dud": 5874,
      "dicht": 5875,
      "dinge": 5876,
      "fed": 5877,
      "furn": 5878,
      "folding": 5879,
      "hist": 5880,
      "kür": 5881,
      "kör": 5882,
      "kugel": 5883,
      "los": 5884,
      "neb": 5885,
      "odd": 5886,
      "röcken": 5887,
      "ton": 5888,
      "tight": 5889,
      "teig": 5890,
      "wach": 5891,
      "wife": 5892,
      "wänden": 5893,
      "##mus": 5894,
      "##gro": 5895,
      "##bet": 5896,
      "##beh": 5897,
      "##bus": 5898,
      "##rik": 5899,
      "##ially": 5900,
      "##ock": 5901,
      "##tly": 5902,
      "##tched": 5903,
      "##act": 5904,
      "##sä": 5905,
      "##sing": 5906,
      "##ünd": 5907,
      "##ähn": 5908,
      "##wanne": 5909,
      "##fot": 5910,
      "##anlage": 5911,
      "##chan": 5912,
      "##ites": 5913,
      "##aren": 5914,
      "##reten": 5915,
      "##raft": 5916,
      "stamm": 5917,
      "staff": 5918,
      "##ata": 5919,
      "mithilfe": 5920,
      "aufz": 5921,
      "##stehen": 5922,
      "##ieder": 5923,
      "schule": 5924,
      "##ehren": 5925,
      "angeh": 5926,
      "##tery": 5927,
      "##used": 5928,
      "toile": 5929,
      "blume": 5930,
      "seats": 5931,
      "chase": 5932,
      "##bert": 5933,
      "weig": 5934,
      "trans": 5935,
      "herz": 5936,
      "gehalten": 5937,
      "hawa": 5938,
      "verhei": 5939,
      "##boat": 5940,
      "strick": 5941,
      "mohawk": 5942,
      "soon": 5943,
      "helps": 5944,
      "conference": 5945,
      "factor": 5946,
      "scr": 5947,
      "protes": 5948,
      "uniformed": 5949,
      "flausch": 5950,
      "fencing": 5951,
      "loung": 5952,
      "##essel": 5953,
      "hütte": 5954,
      "gegens": 5955,
      "##aked": 5956,
      "kariertem": 5957,
      "maroon": 5958,
      "bauern": 5959,
      "windhund": 5960,
      "gewehr": 5961,
      "expl": 5962,
      "klettergerüst": 5963,
      "microphones": 5964,
      "stripes": 5965,
      "gericht": 5966,
      "tags": 5967,
      "steinigen": 5968,
      "kunstwerk": 5969,
      "kunststoff": 5970,
      "plü": 5971,
      "##cours": 5972,
      "regenschirmen": 5973,
      "crew": 5974,
      "rucksäcken": 5975,
      "fotografen": 5976,
      "wheels": 5977,
      "crafts": 5978,
      "bowlingkugel": 5979,
      "mittag": 5980,
      "bottles": 5981,
      "gewässers": 5982,
      "einkaufst": 5983,
      "squatting": 5984,
      "##öpfe": 5985,
      "##kommen": 5986,
      "buckets": 5987,
      "städtische": 5988,
      "feuerwehrmänner": 5989,
      "schlagzeuger": 5990,
      "clay": 5991,
      "mobile": 5992,
      "klapp": 5993,
      "##landschaft": 5994,
      "chefs": 5995,
      "plastikt": 5996,
      "funny": 5997,
      "engine": 5998,
      "dunkle": 5999,
      "balken": 6000,
      "berühren": 6001,
      "##ambur": 6002,
      "celebrating": 6003,
      "mixing": 6004,
      "anhat": 6005,
      "afrikanischer": 6006,
      "cardboard": 6007,
      "elektr": 6008,
      "puppy": 6009,
      "dishes": 6010,
      "marschiert": 6011,
      "lachend": 6012,
      "strohhut": 6013,
      "rubber": 6014,
      "mostly": 6015,
      "##konstruktion": 6016,
      "verteid": 6017,
      "choir": 6018,
      "amüsieren": 6019,
      "##vision": 6020,
      "aufblasbaren": 6021,
      "ornate": 6022,
      "kamel": 6023,
      "angelrute": 6024,
      "outstretched": 6025,
      "lasso": 6026,
      "freiluft": 6027,
      "exhib": 6028,
      "bearbeitet": 6029,
      "trompete": 6030,
      "geblümten": 6031,
      "inlinesk": 6032,
      "##wohner": 6033,
      "synchron": 6034,
      "shepherd": 6035,
      "histor": 6036,
      "hawai": 6037,
      "verheirat": 6038,
      "factory": 6039,
      "bund": 6040,
      "belt": 6041,
      "cong": 6042,
      "cigar": 6043,
      "dir": 6044,
      "fet": 6045,
      "hart": 6046,
      "job": 6047,
      "kaut": 6048,
      "lines": 6049,
      "löff": 6050,
      "libr": 6051,
      "maler": 6052,
      "name": 6053,
      "nieder": 6054,
      "patch": 6055,
      "pins": 6056,
      "rink": 6057,
      "rust": 6058,
      "rally": 6059,
      "san": 6060,
      "sem": 6061,
      "sow": 6062,
      "sucht": 6063,
      "tö": 6064,
      "tom": 6065,
      "trau": 6066,
      "wür": 6067,
      "##mod": 6068,
      "##ga": 6069,
      "##gender": 6070,
      "##een": 6071,
      "##bem": 6072,
      "##bag": 6073,
      "##blo": 6074,
      "##cc": 6075,
      "##cade": 6076,
      "##ole": 6077,
      "##ober": 6078,
      "##ld": 6079,
      "##tor": 6080,
      "##ahn": 6081,
      "##kun": 6082,
      "##uum": 6083,
      "##wen": 6084,
      "##zeichen": 6085,
      "##ften": 6086,
      "##fft": 6087,
      "##iture": 6088,
      "inner": 6089,
      "insp": 6090,
      "##leute": 6091,
      "##raht": 6092,
      "stür": 6093,
      "stift": 6094,
      "steckt": 6095,
      "##ets": 6096,
      "aufger": 6097,
      "##stab": 6098,
      "##studio": 6099,
      "schirmen": 6100,
      "##uting": 6101,
      "##ident": 6102,
      "##ilar": 6103,
      "spinning": 6104,
      "##allen": 6105,
      "##oween": 6106,
      "##urm": 6107,
      "##urity": 6108,
      "blows": 6109,
      "blazer": 6110,
      "plattform": 6111,
      "##ically": 6112,
      "spielkleidung": 6113,
      "becken": 6114,
      "schwenkt": 6115,
      "##imate": 6116,
      "##ika": 6117,
      "##eitig": 6118,
      "##benen": 6119,
      "blueje": 6120,
      "leot": 6121,
      "leading": 6122,
      "asph": 6123,
      "gefüllt": 6124,
      "##ulen": 6125,
      "hinein": 6126,
      "umhang": 6127,
      "brenn": 6128,
      "brief": 6129,
      "amid": 6130,
      "verb": 6131,
      "verst": 6132,
      "sommer": 6133,
      "carving": 6134,
      "fahrt": 6135,
      "tafel": 6136,
      "##ivit": 6137,
      "runter": 6138,
      "kleider": 6139,
      "frem": 6140,
      "##hek": 6141,
      "soda": 6142,
      "doctor": 6143,
      "gebe": 6144,
      "sandstrand": 6145,
      "scout": 6146,
      "schneesch": 6147,
      "füllt": 6148,
      "##kette": 6149,
      "näch": 6150,
      "abendes": 6151,
      "##ways": 6152,
      "kopfüber": 6153,
      "bars": 6154,
      "flachen": 6155,
      "lied": 6156,
      "item": 6157,
      "##ktur": 6158,
      "##ktive": 6159,
      "schwimmbad": 6160,
      "lob": 6161,
      "presen": 6162,
      "straßenhändler": 6163,
      "marin": 6164,
      "setzen": 6165,
      "bagp": 6166,
      "kaffe": 6167,
      "schlitt": 6168,
      "chee": 6169,
      "##räch": 6170,
      "storefront": 6171,
      "elmo": 6172,
      "turning": 6173,
      "industr": 6174,
      "stares": 6175,
      "coloring": 6176,
      "elef": 6177,
      "grillen": 6178,
      "dunkelblauen": 6179,
      "boxer": 6180,
      "boxing": 6181,
      "eisen": 6182,
      "zeitschrift": 6183,
      "pieces": 6184,
      "wheelie": 6185,
      "smokes": 6186,
      "konferen": 6187,
      "richtet": 6188,
      "##fallen": 6189,
      "rennauto": 6190,
      "##flie": 6191,
      "flipping": 6192,
      "rural": 6193,
      "noten": 6194,
      "offenbar": 6195,
      "gepark": 6196,
      "stroll": 6197,
      "employ": 6198,
      "vegetable": 6199,
      "riesige": 6200,
      "feuerwehrmann": 6201,
      "bowls": 6202,
      "##richten": 6203,
      "digit": 6204,
      "kerzen": 6205,
      "natur": 6206,
      "halloween": 6207,
      "##vollen": 6208,
      "member": 6209,
      "spraying": 6210,
      "beigefarbenen": 6211,
      "calf": 6212,
      "mög": 6213,
      "##rampe": 6214,
      "figur": 6215,
      "jüngere": 6216,
      "glatz": 6217,
      "reflective": 6218,
      "geländemotorradfahrer": 6219,
      "inspecting": 6220,
      "bestehende": 6221,
      "embra": 6222,
      "castle": 6223,
      "##sschild": 6224,
      "geschmink": 6225,
      "##heim": 6226,
      "sleeveless": 6227,
      "merch": 6228,
      "sprinkler": 6229,
      "kilt": 6230,
      "similar": 6231,
      "gespräch": 6232,
      "lippen": 6233,
      "security": 6234,
      "grinding": 6235,
      "vacuum": 6236,
      "schotter": 6237,
      "scenery": 6238,
      "lehrer": 6239,
      "schubkar": 6240,
      "begutachtet": 6241,
      "fisherman": 6242,
      "ident": 6243,
      "##luftball": 6244,
      "backsteingebäude": 6245,
      "firetruck": 6246,
      "picknicktisch": 6247,
      "heißluftball": 6248,
      "aufgeregt": 6249,
      "flüssigkeit": 6250,
      "dudels": 6251,
      "furniture": 6252,
      "gegenseitig": 6253,
      "library": 6254,
      "##kunft": 6255,
      "bluejeans": 6256,
      "abendessen": 6257,
      "10": 6258,
      "av": 6259,
      "bunter": 6260,
      "cop": 6261,
      "cuts": 6262,
      "dad": 6263,
      "ext": 6264,
      "findet": 6265,
      "hau": 6266,
      "kite": 6267,
      "küh": 6268,
      "kiste": 6269,
      "kalb": 6270,
      "lau": 6271,
      "malen": 6272,
      "naked": 6273,
      "ox": 6274,
      "ohren": 6275,
      "tied": 6276,
      "ticket": 6277,
      "wig": 6278,
      "wissen": 6279,
      "xyl": 6280,
      "zeb": 6281,
      "##min": 6282,
      "##gar": 6283,
      "##blä": 6284,
      "##biss": 6285,
      "##hin": 6286,
      "##haufen": 6287,
      "##town": 6288,
      "##ses": 6289,
      "##sicht": 6290,
      "##üten": 6291,
      "##wä": 6292,
      "##erous": 6293,
      "inline": 6294,
      "stom": 6295,
      "still": 6296,
      "story": 6297,
      "##lam": 6298,
      "mitarbeiter": 6299,
      "##stet": 6300,
      "##opol": 6301,
      "shakes": 6302,
      "##asium": 6303,
      "##wood": 6304,
      "bogen": 6305,
      "boul": 6306,
      "seem": 6307,
      "chor": 6308,
      "vorne": 6309,
      "schwert": 6310,
      "##osaur": 6311,
      "##gency": 6312,
      "walm": 6313,
      "tri": 6314,
      "herren": 6315,
      "lead": 6316,
      "leads": 6317,
      "univers": 6318,
      "ungewöhn": 6319,
      "##ney": 6320,
      "beißt": 6321,
      "##ontä": 6322,
      "downtown": 6323,
      "flur": 6324,
      "fluffy": 6325,
      "houses": 6326,
      "fahrgeschäft": 6327,
      "backs": 6328,
      "wasserflasche": 6329,
      "may": 6330,
      "enth": 6331,
      "##artigen": 6332,
      "parkt": 6333,
      "frei": 6334,
      "overhead": 6335,
      "##griff": 6336,
      "doors": 6337,
      "geburt": 6338,
      "conf": 6339,
      "jew": 6340,
      "fahne": 6341,
      "comf": 6342,
      "##ängern": 6343,
      "motorbike": 6344,
      "jeansjacke": 6345,
      "column": 6346,
      "füttert": 6347,
      "absperr": 6348,
      "bene": 6349,
      "barrier": 6350,
      "##ussell": 6351,
      "grasfläche": 6352,
      "fegt": 6353,
      "##izieren": 6354,
      "mechan": 6355,
      "fußballfeld": 6356,
      "basketballspiel": 6357,
      "deko": 6358,
      "dekor": 6359,
      "##ighter": 6360,
      "graue": 6361,
      "viewing": 6362,
      "trainieren": 6363,
      "wandern": 6364,
      "verkäufer": 6365,
      "balding": 6366,
      "ballett": 6367,
      "partially": 6368,
      "##etti": 6369,
      "frise": 6370,
      "starting": 6371,
      "musikinstrumen": 6372,
      "catcher": 6373,
      "altmod": 6374,
      "frisbeesch": 6375,
      "dunkelhaariger": 6376,
      "sportveranstaltung": 6377,
      "batman": 6378,
      "objects": 6379,
      "nighttime": 6380,
      "##kinder": 6381,
      "stairway": 6382,
      "surrounding": 6383,
      "paddle": 6384,
      "schmetter": 6385,
      "cray": 6386,
      "seilen": 6387,
      "torhüter": 6388,
      "converse": 6389,
      "crane": 6390,
      "formation": 6391,
      "rainy": 6392,
      "badewanne": 6393,
      "##acting": 6394,
      "tauben": 6395,
      "interess": 6396,
      "paddeln": 6397,
      "videospiel": 6398,
      "wettrennen": 6399,
      "balances": 6400,
      "gepunkt": 6401,
      "noch": 6402,
      "camel": 6403,
      "listens": 6404,
      "broken": 6405,
      "##steinen": 6406,
      "hilfe": 6407,
      "monopol": 6408,
      "gymnasium": 6409,
      "scream": 6410,
      "geschäften": 6411,
      "clad": 6412,
      "##richtet": 6413,
      "##volleyball": 6414,
      "farbenfroher": 6415,
      "feiert": 6416,
      "calm": 6417,
      "schlafanzug": 6418,
      "palmen": 6419,
      "raises": 6420,
      "geschäftskleidung": 6421,
      "transp": 6422,
      "tennisspielerin": 6423,
      "candles": 6424,
      "target": 6425,
      "reinigen": 6426,
      "entspannen": 6427,
      "jockeys": 6428,
      "untersuchen": 6429,
      "waschsalon": 6430,
      "planscht": 6431,
      "following": 6432,
      "sängerin": 6433,
      "discussing": 6434,
      "sportwagen": 6435,
      "europe": 6436,
      "grimasse": 6437,
      "express": 6438,
      "schweißt": 6439,
      "television": 6440,
      "turnerin": 6441,
      "intently": 6442,
      "approaching": 6443,
      "fertig": 6444,
      "emergency": 6445,
      "fernseh": 6446,
      "times": 6447,
      "barrel": 6448,
      "pigeons": 6449,
      "brandung": 6450,
      "elephant": 6451,
      "eltern": 6452,
      "##schmuck": 6453,
      "jewelry": 6454,
      "bewölkten": 6455,
      "süßigkeiten": 6456,
      "sanddüne": 6457,
      "geldbörse": 6458,
      "dimly": 6459,
      "asphalt": 6460,
      "xyloph": 6461,
      "geburtstag": 6462,
      "dekorat": 6463,
      "frisbeescheibe": 6464,
      "monopoly": 6465,
      "ais": 6466,
      "achter": 6467,
      "biet": 6468,
      "buff": 6469,
      "biking": 6470,
      "bückt": 6471,
      "deb": 6472,
      "hambur": 6473,
      "iro": 6474,
      "iron": 6475,
      "kim": 6476,
      "len": 6477,
      "lat": 6478,
      "lear": 6479,
      "lange": 6480,
      "later": 6481,
      "my": 6482,
      "mel": 6483,
      "piste": 6484,
      "sad": 6485,
      "sne": 6486,
      "sym": 6487,
      "trol": 6488,
      "wischt": 6489,
      "ört": 6490,
      "##mit": 6491,
      "##gu": 6492,
      "##gra": 6493,
      "##bed": 6494,
      "##bis": 6495,
      "##buch": 6496,
      "##bein": 6497,
      "##born": 6498,
      "##burg": 6499,
      "##nes": 6500,
      "##nten": 6501,
      "##rigen": 6502,
      "##car": 6503,
      "##ond": 6504,
      "##pre": 6505,
      "##pod": 6506,
      "##lish": 6507,
      "##tts": 6508,
      "##tag": 6509,
      "##treppe": 6510,
      "##ailing": 6511,
      "##kn": 6512,
      "##kal": 6513,
      "##sammen": 6514,
      "##sstand": 6515,
      "##ula": 6516,
      "##wed": 6517,
      "##wett": 6518,
      "##wurf": 6519,
      "##waren": 6520,
      "##viert": 6521,
      "##voll": 6522,
      "einrad": 6523,
      "##itzer": 6524,
      "##arium": 6525,
      "##leicht": 6526,
      "##reifen": 6527,
      "stangen": 6528,
      "stufe": 6529,
      "##estern": 6530,
      "##alung": 6531,
      "##eier": 6532,
      "##ature": 6533,
      "##etzt": 6534,
      "##iring": 6535,
      "##omb": 6536,
      "##oming": 6537,
      "##ehmer": 6538,
      "##sseln": 6539,
      "##schläger": 6540,
      "spü": 6541,
      "spoon": 6542,
      "##tered": 6543,
      "##ichts": 6544,
      "##usi": 6545,
      "##aman": 6546,
      "##ampen": 6547,
      "plates": 6548,
      "##ices": 6549,
      "##ugling": 6550,
      "stehende": 6551,
      "beine": 6552,
      "befahr": 6553,
      "zuhör": 6554,
      "trench": 6555,
      "##abel": 6556,
      "hispan": 6557,
      "schwarzwei": 6558,
      "unicycle": 6559,
      "coca": 6560,
      "cobble": 6561,
      "beisammen": 6562,
      "übergewicht": 6563,
      "verlässt": 6564,
      "rekla": 6565,
      "##ists": 6566,
      "world": 6567,
      "forward": 6568,
      "more": 6569,
      "##beweg": 6570,
      "mass": 6571,
      "##aps": 6572,
      "erk": 6573,
      "erleucht": 6574,
      "##farbenes": 6575,
      "dritte": 6576,
      "dough": 6577,
      "smaller": 6578,
      "##uckt": 6579,
      "scar": 6580,
      "motorräder": 6581,
      "desc": 6582,
      "treibt": 6583,
      "näht": 6584,
      "abz": 6585,
      "##länd": 6586,
      "engen": 6587,
      "barber": 6588,
      "##izin": 6589,
      "carry": 6590,
      "##eight": 6591,
      "obdach": 6592,
      "dazu": 6593,
      "lounge": 6594,
      "press": 6595,
      "##sho": 6596,
      "straßenmus": 6597,
      "mountainb": 6598,
      "weather": 6599,
      "bespritzt": 6600,
      "floß": 6601,
      "slight": 6602,
      "photos": 6603,
      "baumes": 6604,
      "knie": 6605,
      "schlend": 6606,
      "esel": 6607,
      "newborn": 6608,
      "crosses": 6609,
      "swimmers": 6610,
      "waldweg": 6611,
      "fireman": 6612,
      "saiten": 6613,
      "bergst": 6614,
      "schildern": 6615,
      "numerous": 6616,
      "festhält": 6617,
      "##werfer": 6618,
      "sportkleidung": 6619,
      "regenbogen": 6620,
      "blumenmuster": 6621,
      "eiscre": 6622,
      "bedruck": 6623,
      "vielleicht": 6624,
      "maulkorb": 6625,
      "papers": 6626,
      "nets": 6627,
      "schmuck": 6628,
      "mittages": 6629,
      "herunterge": 6630,
      "##braunen": 6631,
      "büschen": 6632,
      "turns": 6633,
      "##flü": 6634,
      "cape": 6635,
      "teenageralter": 6636,
      "rainbow": 6637,
      "scheinbar": 6638,
      "orangefarbene": 6639,
      "hits": 6640,
      "kran": 6641,
      "kricket": 6642,
      "##trick": 6643,
      "trock": 6644,
      "noteb": 6645,
      "notiz": 6646,
      "trailer": 6647,
      "##club": 6648,
      "gleichen": 6649,
      "dinosaur": 6650,
      "violine": 6651,
      "flowered": 6652,
      "medizin": 6653,
      "##geworfen": 6654,
      "shovels": 6655,
      "pottery": 6656,
      "spread": 6657,
      "welpen": 6658,
      "wrestle": 6659,
      "##maske": 6660,
      "ziegelmauer": 6661,
      "##ocular": 6662,
      "shaved": 6663,
      "säugling": 6664,
      "called": 6665,
      "köpfen": 6666,
      "logo": 6667,
      "engaged": 6668,
      "klassenraum": 6669,
      "amongst": 6670,
      "observing": 6671,
      "kapuze": 6672,
      "raising": 6673,
      "messer": 6674,
      "portra": 6675,
      "shades": 6676,
      "verkleidete": 6677,
      "participate": 6678,
      "advertising": 6679,
      "follows": 6680,
      "bekommen": 6681,
      "terrain": 6682,
      "afroamerikaner": 6683,
      "##etzten": 6684,
      "teaching": 6685,
      "ausgebre": 6686,
      "##kreuz": 6687,
      "demonstr": 6688,
      "marschieren": 6689,
      "directions": 6690,
      "eingezäunten": 6691,
      "billboard": 6692,
      "vögel": 6693,
      "pinata": 6694,
      "eishockeyspieler": 6695,
      "binocular": 6696,
      "##orenes": 6697,
      "lifting": 6698,
      "sammelt": 6699,
      "remo": 6700,
      "arrang": 6701,
      "teammate": 6702,
      "zahlreiche": 6703,
      "langärmel": 6704,
      "breakdan": 6705,
      "branch": 6706,
      "fußgängerüberweg": 6707,
      "faulen": 6708,
      "##uniform": 6709,
      "fitness": 6710,
      "überprüft": 6711,
      "parasailing": 6712,
      "akustik": 6713,
      "redheaded": 6714,
      "liquid": 6715,
      "necklace": 6716,
      "motorroller": 6717,
      "bewundert": 6718,
      "kontrol": 6719,
      "village": 6720,
      "electronic": 6721,
      "diskutieren": 6722,
      "##säge": 6723,
      "##foto": 6724,
      "protesting": 6725,
      "lounging": 6726,
      "##bemalung": 6727,
      "lobby": 6728,
      "elefanten": 6729,
      "schubkarre": 6730,
      "dudelsack": 6731,
      "zebra": 6732,
      "stomach": 6733,
      "walmart": 6734,
      "beneath": 6735,
      "mittagessen": 6736,
      "11": 6737,
      "ara": 6738,
      "bark": 6739,
      "bong": 6740,
      "cree": 6741,
      "cameras": 6742,
      "divers": 6743,
      "eier": 6744,
      "fack": 6745,
      "fog": 6746,
      "gown": 6747,
      "gift": 6748,
      "hom": 6749,
      "hier": 6750,
      "hab": 6751,
      "hud": 6752,
      "hip": 6753,
      "jen": 6754,
      "kameras": 6755,
      "rund": 6756,
      "rings": 6757,
      "sat": 6758,
      "szene": 6759,
      "tv": 6760,
      "ted": 6761,
      "tents": 6762,
      "vic": 6763,
      "webt": 6764,
      "wading": 6765,
      "wendet": 6766,
      "zöpfen": 6767,
      "##gung": 6768,
      "##eu": 6769,
      "##bä": 6770,
      "##bot": 6771,
      "##bäl": 6772,
      "##can": 6773,
      "##hle": 6774,
      "##how": 6775,
      "##hau": 6776,
      "##pren": 6777,
      "##pies": 6778,
      "##liot": 6779,
      "##tasche": 6780,
      "##aal": 6781,
      "##ahl": 6782,
      "##krä": 6783,
      "##kurs": 6784,
      "##üff": 6785,
      "##üchte": 6786,
      "##ux": 6787,
      "##wor": 6788,
      "##ören": 6789,
      "##öcke": 6790,
      "##inwand": 6791,
      "##itors": 6792,
      "##legten": 6793,
      "##racht": 6794,
      "state": 6795,
      "steel": 6796,
      "##oned": 6797,
      "##esting": 6798,
      "##une": 6799,
      "##ufern": 6800,
      "##atur": 6801,
      "mitglieder": 6802,
      "aufgeb": 6803,
      "aufführung": 6804,
      "##stem": 6805,
      "##sters": 6806,
      "##stone": 6807,
      "##stellt": 6808,
      "##eds": 6809,
      "##schutz": 6810,
      "##ott": 6811,
      "##ilt": 6812,
      "##ilst": 6813,
      "spark": 6814,
      "share": 6815,
      "shining": 6816,
      "whilst": 6817,
      "##ammenge": 6818,
      "##umin": 6819,
      "blur": 6820,
      "##ebe": 6821,
      "peering": 6822,
      "##endem": 6823,
      "##endraht": 6824,
      "stehender": 6825,
      "bevor": 6826,
      "##ikul": 6827,
      "zubereitet": 6828,
      "trunk": 6829,
      "##here": 6830,
      "gehende": 6831,
      "leop": 6832,
      "lect": 6833,
      "früh": 6834,
      "straight": 6835,
      "streifen": 6836,
      "rothaariges": 6837,
      "##ific": 6838,
      "arcade": 6839,
      "skim": 6840,
      "brit": 6841,
      "verle": 6842,
      "machines": 6843,
      "races": 6844,
      "neue": 6845,
      "tea": 6846,
      "greifen": 6847,
      "upon": 6848,
      "##spre": 6849,
      "##beutel": 6850,
      "poor": 6851,
      "##ipping": 6852,
      "##ameraman": 6853,
      "snowsuit": 6854,
      "snowsho": 6855,
      "entw": 6856,
      "##iertes": 6857,
      "erz": 6858,
      "erzeug": 6859,
      "##oodle": 6860,
      "overw": 6861,
      "##alken": 6862,
      "entlanggeht": 6863,
      "##ubs": 6864,
      "##äudes": 6865,
      "fahrrads": 6866,
      "fake": 6867,
      "sco": 6868,
      "scra": 6869,
      "come": 6870,
      "##gelassen": 6871,
      "airbor": 6872,
      "prop": 6873,
      "zusammenge": 6874,
      "abzu": 6875,
      "performers": 6876,
      "##decke": 6877,
      "vorbeigeht": 6878,
      "feather": 6879,
      "##izing": 6880,
      "##pfel": 6881,
      "asiatinnen": 6882,
      "##athed": 6883,
      "flaschen": 6884,
      "geschw": 6885,
      "rosar": 6886,
      "social": 6887,
      "love": 6888,
      "locken": 6889,
      "loading": 6890,
      "rosafarbene": 6891,
      "prett": 6892,
      "sonnenschirm": 6893,
      "gestikul": 6894,
      "parents": 6895,
      "##aker": 6896,
      "##akers": 6897,
      "bühnen": 6898,
      "trainer": 6899,
      "shops": 6900,
      "gewändern": 6901,
      "gewickelt": 6902,
      "tower": 6903,
      "stofft": 6904,
      "##merung": 6905,
      "ballet": 6906,
      "snowboardfahrer": 6907,
      "schieben": 6908,
      "radrennen": 6909,
      "indischer": 6910,
      "##kesen": 6911,
      "appar": 6912,
      "starren": 6913,
      "landet": 6914,
      "america": 6915,
      "kunstwer": 6916,
      "firemen": 6917,
      "bällen": 6918,
      "caps": 6919,
      "kickbox": 6920,
      "drinnen": 6921,
      "silly": 6922,
      "computerbildschirm": 6923,
      "skiers": 6924,
      "linie": 6925,
      "teilweise": 6926,
      "wheelbar": 6927,
      "craft": 6928,
      "corn": 6929,
      "##bare": 6930,
      "marktplatz": 6931,
      "##zeitig": 6932,
      "##trikot": 6933,
      "quick": 6934,
      "kreide": 6935,
      "interacting": 6936,
      "gleichzeitig": 6937,
      "glove": 6938,
      "homeless": 6939,
      "aussehenden": 6940,
      "photographed": 6941,
      "monument": 6942,
      "khakis": 6943,
      "blättern": 6944,
      "harmon": 6945,
      "wrestler": 6946,
      "##springen": 6947,
      "ringer": 6948,
      "reifenschaukel": 6949,
      "schaufeln": 6950,
      "nature": 6951,
      "gestreiftes": 6952,
      "pfadf": 6953,
      "salon": 6954,
      "hindurch": 6955,
      "köche": 6956,
      "muster": 6957,
      "einsamer": 6958,
      "ausgestellt": 6959,
      "fernglas": 6960,
      "afroamerikanische": 6961,
      "rande": 6962,
      "##karte": 6963,
      "bleach": 6964,
      "tackle": 6965,
      "##saw": 6966,
      "guns": 6967,
      "follow": 6968,
      "athletes": 6969,
      "repairs": 6970,
      "innenstadt": 6971,
      "bandana": 6972,
      "schlauchboot": 6973,
      "retrie": 6974,
      "##teams": 6975,
      "elektron": 6976,
      "farbigen": 6977,
      "casual": 6978,
      "bewegen": 6979,
      "pillow": 6980,
      "grimassen": 6981,
      "passenger": 6982,
      "ausgestreckt": 6983,
      "stirnband": 6984,
      "donkey": 6985,
      "ruhigen": 6986,
      "verdeckt": 6987,
      "##flugzeug": 6988,
      "oranges": 6989,
      "aquarium": 6990,
      "ponyt": 6991,
      "##ämmerung": 6992,
      "jubeln": 6993,
      "##glied": 6994,
      "lockigen": 6995,
      "splashes": 6996,
      "maschendraht": 6997,
      "receiving": 6998,
      "demonstration": 6999,
      "bibliot": 7000,
      "segelboot": 7001,
      "khakifarbenen": 7002,
      "hydr": 7003,
      "pyram": 7004,
      "häusern": 7005,
      "ländlichen": 7006,
      "admiring": 7007,
      "beginnt": 7008,
      "trommeln": 7009,
      "##förmigen": 7010,
      "beanie": 7011,
      "rettungswesten": 7012,
      "weaving": 7013,
      "neugeborenes": 7014,
      "congreg": 7015,
      "löffel": 7016,
      "##block": 7017,
      "nächsten": 7018,
      "glatzköpfiger": 7019,
      "wissenschaft": 7020,
      "enthusi": 7021,
      "aisle": 7022,
      "achterbahn": 7023,
      "irokesen": 7024,
      "kimon": 7025,
      "cobblestone": 7026,
      "slightly": 7027,
      "binoculars": 7028,
      "akustikgitarre": 7029,
      "jenga": 7030,
      "teddy": 7031,
      "airborne": 7032,
      "pretty": 7033,
      "wheelbarrow": 7034,
      "bibliothek": 7035,
      "brauen": 7036,
      "call": 7037,
      "dusk": 7038,
      "ever": 7039,
      "funk": 7040,
      "fänger": 7041,
      "feder": 7042,
      "hamm": 7043,
      "if": 7044,
      "kor": 7045,
      "lower": 7046,
      "mug": 7047,
      "nurs": 7048,
      "op": 7049,
      "own": 7050,
      "oven": 7051,
      "pun": 7052,
      "puppe": 7053,
      "pigt": 7054,
      "rü": 7055,
      "ricks": 7056,
      "su": 7057,
      "sauber": 7058,
      "tiger": 7059,
      "ult": 7060,
      "wange": 7061,
      "wings": 7062,
      "zigar": 7063,
      "##go": 7064,
      "##eind": 7065,
      "##hop": 7066,
      "##hammer": 7067,
      "##ofon": 7068,
      "##pel": 7069,
      "##kin": 7070,
      "##kunst": 7071,
      "##kasten": 7072,
      "##sitz": 7073,
      "##szene": 7074,
      "##ützen": 7075,
      "##ually": 7076,
      "##was": 7077,
      "##zelt": 7078,
      "##jung": 7079,
      "eingesch": 7080,
      "inj": 7081,
      "##recht": 7082,
      "manche": 7083,
      "tho": 7084,
      "stall": 7085,
      "stüh": 7086,
      "##onge": 7087,
      "##late": 7088,
      "##rohr": 7089,
      "aufges": 7090,
      "aufgestellt": 7091,
      "##stä": 7092,
      "##stisch": 7093,
      "##stuch": 7094,
      "scha": 7095,
      "##eht": 7096,
      "##emb": 7097,
      "##emony": 7098,
      "##ote": 7099,
      "sponge": 7100,
      "##gef": 7101,
      "##undy": 7102,
      "##unds": 7103,
      "blood": 7104,
      "bohr": 7105,
      "##ebla": 7106,
      "atm": 7107,
      "cher": 7108,
      "##ogie": 7109,
      "##uger": 7110,
      "##ierende": 7111,
      "stehend": 7112,
      "vortra": 7113,
      "vorbereitet": 7114,
      "##ims": 7115,
      "trü": 7116,
      "kindes": 7117,
      "leger": 7118,
      "leucht": 7119,
      "leckt": 7120,
      "streicht": 7121,
      "uns": 7122,
      "##menade": 7123,
      "coaster": 7124,
      "handle": 7125,
      "handschuh": 7126,
      "ord": 7127,
      "umr": 7128,
      "ump": 7129,
      "flute": 7130,
      "flöte": 7131,
      "carts": 7132,
      "waterway": 7133,
      "waterfront": 7134,
      "rafting": 7135,
      "bystand": 7136,
      "##istole": 7137,
      "sniff": 7138,
      "##klettern": 7139,
      "maj": 7140,
      "entfern": 7141,
      "asien": 7142,
      "##artment": 7143,
      "##lichem": 7144,
      "##lichkeit": 7145,
      "erw": 7146,
      "##heke": 7147,
      "drill": 7148,
      "##fenster": 7149,
      "commun": 7150,
      "schneeh": 7151,
      "##gelben": 7152,
      "musl": 7153,
      "desig": 7154,
      "hosent": 7155,
      "##läuft": 7156,
      "headed": 7157,
      "liefer": 7158,
      "dec": 7159,
      "loom": 7160,
      "rosafarbener": 7161,
      "autumn": 7162,
      "gestures": 7163,
      "##essor": 7164,
      "karte": 7165,
      "werfer": 7166,
      "bauarbeiten": 7167,
      "bilden": 7168,
      "pflaster": 7169,
      "mützen": 7170,
      "händchen": 7171,
      "händler": 7172,
      "radio": 7173,
      "radfahrern": 7174,
      "##ettes": 7175,
      "pferdesch": 7176,
      "gemuster": 7177,
      "landing": 7178,
      "cann": 7179,
      "sailing": 7180,
      "##house": 7181,
      "##hockey": 7182,
      "schilder": 7183,
      "studying": 7184,
      "##gestell": 7185,
      "versammlung": 7186,
      "schreiben": 7187,
      "##geschnitten": 7188,
      "farmer": 7189,
      "langhaarige": 7190,
      "praying": 7191,
      "craw": 7192,
      "##falls": 7193,
      "bulldo": 7194,
      "rollschuh": 7195,
      "##skulptur": 7196,
      "badezimmer": 7197,
      "krie": 7198,
      "flips": 7199,
      "schlagmann": 7200,
      "official": 7201,
      "labork": 7202,
      "papiere": 7203,
      "checks": 7204,
      "paddles": 7205,
      "contest": 7206,
      "cups": 7207,
      "halstuch": 7208,
      "golfball": 7209,
      "monitor": 7210,
      "auditor": 7211,
      "feuerwehrleute": 7212,
      "potato": 7213,
      "angem": 7214,
      "saxofon": 7215,
      "accom": 7216,
      "beleuchtung": 7217,
      "gymnastik": 7218,
      "lebensmittelgeschäft": 7219,
      "kayaks": 7220,
      "observes": 7221,
      "unbefestigte": 7222,
      "messy": 7223,
      "##schauen": 7224,
      "examines": 7225,
      "wasserski": 7226,
      "schaukeln": 7227,
      "werkstatt": 7228,
      "customer": 7229,
      "tires": 7230,
      "shadow": 7231,
      "reflekt": 7232,
      "chainsaw": 7233,
      "abends": 7234,
      "attention": 7235,
      "rechte": 7236,
      "olympischen": 7237,
      "entering": 7238,
      "groceries": 7239,
      "return": 7240,
      "spotted": 7241,
      "luftballon": 7242,
      "gesichtsbemalung": 7243,
      "namensschild": 7244,
      "telephone": 7245,
      "##hängen": 7246,
      "hotdogs": 7247,
      "eggs": 7248,
      "consisting": 7249,
      "tribüne": 7250,
      "jubelt": 7251,
      "popc": 7252,
      "barfüßige": 7253,
      "burgundy": 7254,
      "meeting": 7255,
      "tropical": 7256,
      "größ": 7257,
      "information": 7258,
      "thumbs": 7259,
      "ceremony": 7260,
      "kettensäge": 7261,
      "mülltonne": 7262,
      "ozean": 7263,
      "##loser": 7264,
      "bewegung": 7265,
      "company": 7266,
      "klatscht": 7267,
      "klasse": 7268,
      "lantern": 7269,
      "browsing": 7270,
      "strickmütze": 7271,
      "plastiktüte": 7272,
      "inlineskates": 7273,
      "verheiratetes": 7274,
      "semi": 7275,
      "sowie": 7276,
      "töpfer": 7277,
      "leotard": 7278,
      "marinebla": 7279,
      "geparkten": 7280,
      "##wäsche": 7281,
      "friseur": 7282,
      "screaming": 7283,
      "debris": 7284,
      "sneakers": 7285,
      "##haube": 7286,
      "overweight": 7287,
      "gestikuliert": 7288,
      "bleachers": 7289,
      "rickshaw": 7290,
      "ultimate": 7291,
      "stühle": 7292,
      "vortrag": 7293,
      "bystanders": 7294,
      "pferdeschw": 7295,
      "auditorium": 7296,
      "ax": 7297,
      "ado": 7298,
      "awa": 7299,
      "apfel": 7300,
      "bite": 7301,
      "bul": 7302,
      "crown": 7303,
      "cooks": 7304,
      "ere": 7305,
      "eim": 7306,
      "fal": 7307,
      "fat": 7308,
      "filling": 7309,
      "give": 7310,
      "games": 7311,
      "haltung": 7312,
      "jud": 7313,
      "kell": 7314,
      "kette": 7315,
      "köpfe": 7316,
      "leit": 7317,
      "late": 7318,
      "lens": 7319,
      "mos": 7320,
      "occ": 7321,
      "ping": 7322,
      "putzen": 7323,
      "rik": 7324,
      "range": 7325,
      "suchen": 7326,
      "sides": 7327,
      "tas": 7328,
      "tell": 7329,
      "uhr": 7330,
      "zomb": 7331,
      "##mint": 7332,
      "##gä": 7333,
      "##bett": 7334,
      "##nisse": 7335,
      "##ios": 7336,
      "##hat": 7337,
      "##ham": 7338,
      "##hill": 7339,
      "##halt": 7340,
      "##putz": 7341,
      "##lit": 7342,
      "##ligen": 7343,
      "##tre": 7344,
      "##ked": 7345,
      "##kul": 7346,
      "##kopf": 7347,
      "##kör": 7348,
      "##kuchen": 7349,
      "##shing": 7350,
      "##ucting": 7351,
      "##ford": 7352,
      "##feier": 7353,
      "##val": 7354,
      "##öt": 7355,
      "##enk": 7356,
      "##enken": 7357,
      "einheim": 7358,
      "##anien": 7359,
      "##anke": 7360,
      "##nder": 7361,
      "##arn": 7362,
      "##lei": 7363,
      "##leas": 7364,
      "##elte": 7365,
      "##elbe": 7366,
      "stä": 7367,
      "stern": 7368,
      "stops": 7369,
      "##onnen": 7370,
      "##ester": 7371,
      "##eige": 7372,
      "##eiger": 7373,
      "##ckter": 7374,
      "##ately": 7375,
      "##attered": 7376,
      "##andise": 7377,
      "schuss": 7378,
      "##ehör": 7379,
      "##ehraut": 7380,
      "aneinander": 7381,
      "anwei": 7382,
      "##utt": 7383,
      "##uten": 7384,
      "##ility": 7385,
      "##rauß": 7386,
      "spä": 7387,
      "##opter": 7388,
      "##olen": 7389,
      "shr": 7390,
      "##ami": 7391,
      "##ishing": 7392,
      "blind": 7393,
      "blasen": 7394,
      "boards": 7395,
      "placing": 7396,
      "places": 7397,
      "imbiss": 7398,
      "shirted": 7399,
      "##ildet": 7400,
      "sele": 7401,
      "seas": 7402,
      "seco": 7403,
      "seattle": 7404,
      "chess": 7405,
      "chicken": 7406,
      "##bereiten": 7407,
      "been": 7408,
      "trucks": 7409,
      "##ably": 7410,
      "watet": 7411,
      "wahr": 7412,
      "waschen": 7413,
      "legen": 7414,
      "unord": 7415,
      "arzt": 7416,
      "##icking": 7417,
      "##uld": 7418,
      "##neite": 7419,
      "handing": 7420,
      "handra": 7421,
      "rost": 7422,
      "##angehör": 7423,
      "bräun": 7424,
      "sprüh": 7425,
      "recl": 7426,
      "hocker": 7427,
      "laut": 7428,
      "watermel": 7429,
      "##renn": 7430,
      "rap": 7431,
      "tape": 7432,
      "dreirad": 7433,
      "teal": 7434,
      "backd": 7435,
      "wassermel": 7436,
      "##spark": 7437,
      "##klettert": 7438,
      "fort": 7439,
      "##immed": 7440,
      "movie": 7441,
      "##ipfel": 7442,
      "##arth": 7443,
      "skaters": 7444,
      "##romat": 7445,
      "##ienten": 7446,
      "jackett": 7447,
      "sandigen": 7448,
      "wirbelt": 7449,
      "score": 7450,
      "science": 7451,
      "comes": 7452,
      "##geländer": 7453,
      "collie": 7454,
      "process": 7455,
      "treiben": 7456,
      "##quo": 7457,
      "engel": 7458,
      "bandmit": 7459,
      "heading": 7460,
      "headdress": 7461,
      "##lings": 7462,
      "##iziert": 7463,
      "volks": 7464,
      "##pfad": 7465,
      "complete": 7466,
      "##brush": 7467,
      "schneeanzug": 7468,
      "acrobat": 7469,
      "##ational": 7470,
      "##agieren": 7471,
      "paare": 7472,
      "schwimmweste": 7473,
      "sweeps": 7474,
      "booten": 7475,
      "kümmert": 7476,
      "autob": 7477,
      "hüte": 7478,
      "schnitzt": 7479,
      "wares": 7480,
      "herumstehen": 7481,
      "purch": 7482,
      "suitcase": 7483,
      "##ished": 7484,
      "winds": 7485,
      "shoppers": 7486,
      "hellro": 7487,
      "##gebunden": 7488,
      "knei": 7489,
      "knife": 7490,
      "knöpfen": 7491,
      "cheese": 7492,
      "geräten": 7493,
      "cowgirl": 7494,
      "verschw": 7495,
      "verschneite": 7496,
      "spielerisch": 7497,
      "stare": 7498,
      "highway": 7499,
      "bahngle": 7500,
      "bälle": 7501,
      "computern": 7502,
      "altes": 7503,
      "schüsseln": 7504,
      "aussehen": 7505,
      "falls": 7506,
      "rückwärts": 7507,
      "boxen": 7508,
      "bricks": 7509,
      "paperwork": 7510,
      "##pieler": 7511,
      "wash": 7512,
      "crash": 7513,
      "knees": 7514,
      "männliches": 7515,
      "##brauner": 7516,
      "##mannschaften": 7517,
      "badeanzügen": 7518,
      "sprungbrett": 7519,
      "betonwand": 7520,
      "badmint": 7521,
      "traditionellen": 7522,
      "##zahl": 7523,
      "##uctor": 7524,
      "kragen": 7525,
      "forehead": 7526,
      "glänz": 7527,
      "feuerwehraut": 7528,
      "fischern": 7529,
      "beladen": 7530,
      "broad": 7531,
      "freundin": 7532,
      "burning": 7533,
      "welpe": 7534,
      "professor": 7535,
      "newspapers": 7536,
      "terrier": 7537,
      "heim": 7538,
      "blankets": 7539,
      "clapping": 7540,
      "säulen": 7541,
      "produkte": 7542,
      "countryside": 7543,
      "packt": 7544,
      "alleyway": 7545,
      "gymnastics": 7546,
      "##öffnung": 7547,
      "gesichtern": 7548,
      "scooters": 7549,
      "bemalten": 7550,
      "##ständer": 7551,
      "schleife": 7552,
      "tänzerin": 7553,
      "touches": 7554,
      "verkehrs": 7555,
      "tackling": 7556,
      "rollerblading": 7557,
      "wrap": 7558,
      "katzen": 7559,
      "porträ": 7560,
      "shadows": 7561,
      "fliesen": 7562,
      "reflection": 7563,
      "treppenhaus": 7564,
      "treppenstufen": 7565,
      "ansieht": 7566,
      "waschbecken": 7567,
      "visiting": 7568,
      "celebration": 7569,
      "pudel": 7570,
      "attending": 7571,
      "olympics": 7572,
      "hellhäutige": 7573,
      "repairing": 7574,
      "assist": 7575,
      "inspects": 7576,
      "fabrik": 7577,
      "puppies": 7578,
      "pillows": 7579,
      "spanish": 7580,
      "scaffold": 7581,
      "türen": 7582,
      "staubsa": 7583,
      "wires": 7584,
      "rollerskates": 7585,
      "stahl": 7586,
      "beverages": 7587,
      "tutu": 7588,
      "oranger": 7589,
      "designs": 7590,
      "geöffneten": 7591,
      "fashioned": 7592,
      "langärm": 7593,
      "breakdance": 7594,
      "##brocken": 7595,
      "location": 7596,
      "tarnkleidung": 7597,
      "präsentation": 7598,
      "spaziergang": 7599,
      "bambus": 7600,
      "bamboo": 7601,
      "begleitet": 7602,
      "tätowierung": 7603,
      "tätowierungen": 7604,
      "mcdonald": 7605,
      "mcdonalds": 7606,
      "##statue": 7607,
      "schafe": 7608,
      "türkis": 7609,
      "vergnügung": 7610,
      "domino": 7611,
      "applying": 7612,
      "prüft": 7613,
      "patterned": 7614,
      "exercise": 7615,
      "horizont": 7616,
      "human": 7617,
      "lernt": 7618,
      "##küche": 7619,
      "tossing": 7620,
      "trainingsanzug": 7621,
      "gestreifter": 7622,
      "juice": 7623,
      "miami": 7624,
      "bikinis": 7625,
      "kürbis": 7626,
      "nebel": 7627,
      "sooners": 7628,
      "dunklem": 7629,
      "exhibit": 7630,
      "dirig": 7631,
      "aufgerei": 7632,
      "gebeugt": 7633,
      "scouts": 7634,
      "bagpipes": 7635,
      "konferenz": 7636,
      "merchandise": 7637,
      "heißluftballon": 7638,
      "boulder": 7639,
      "##ontäne": 7640,
      "gepunkteten": 7641,
      "hamburger": 7642,
      "trolley": 7643,
      "mountainbiker": 7644,
      "arab": 7645,
      "##üffelt": 7646,
      "lecture": 7647,
      "kunstwerke": 7648,
      "pfadfinder": 7649,
      "maschendrahtzaun": 7650,
      "pigtails": 7651,
      "umpire": 7652,
      "lieferwagen": 7653,
      "accompan": 7654,
      "popcorn": 7655,
      "kellner": 7656,
      "anweis": 7657,
      "second": 7658,
      "autobahn": 7659,
      "badminton": 7660,
      "glänzenden": 7661,
      "vergnügungspark": 7662,
      "biting": 7663,
      "border": 7664,
      "cans": 7665,
      "case": 7666,
      "dol": 7667,
      "diver": 7668,
      "dives": 7669,
      "ela": 7670,
      "eas": 7671,
      "eiss": 7672,
      "fram": 7673,
      "gä": 7674,
      "gathers": 7675,
      "husk": 7676,
      "ill": 7677,
      "ipod": 7678,
      "jeder": 7679,
      "lack": 7680,
      "mind": 7681,
      "moo": 7682,
      "mower": 7683,
      "ny": 7684,
      "pon": 7685,
      "pig": 7686,
      "rif": 7687,
      "rice": 7688,
      "ruhen": 7689,
      "rows": 7690,
      "sid": 7691,
      "soll": 7692,
      "tights": 7693,
      "tiny": 7694,
      "tux": 7695,
      "uf": 7696,
      "urein": 7697,
      "ven": 7698,
      "val": 7699,
      "wen": 7700,
      "wad": 7701,
      "welt": 7702,
      "wette": 7703,
      "woll": 7704,
      "yarn": 7705,
      "zyl": 7706,
      "übers": 7707,
      "##mut": 7708,
      "##mob": 7709,
      "##glasses": 7710,
      "##glä": 7711,
      "##ees": 7712,
      "##eled": 7713,
      "##bol": 7714,
      "##bungen": 7715,
      "##bändern": 7716,
      "##rid": 7717,
      "##ritt": 7718,
      "##iest": 7719,
      "##ize": 7720,
      "##con": 7721,
      "##cot": 7722,
      "##come": 7723,
      "##hem": 7724,
      "##hten": 7725,
      "##horts": 7726,
      "##lust": 7727,
      "##tet": 7728,
      "##turn": 7729,
      "##yed": 7730,
      "##kart": 7731,
      "##üge": 7732,
      "##uquet": 7733,
      "##wol": 7734,
      "##where": 7735,
      "##zw": 7736,
      "##ination": 7737,
      "##ingang": 7738,
      "##unehmen": 7739,
      "##eilt": 7740,
      "##eiden": 7741,
      "##ufangen": 7742,
      "##roffen": 7743,
      "##aters": 7744,
      "##sty": 7745,
      "##station": 7746,
      "##stanien": 7747,
      "##iefel": 7748,
      "##oma": 7749,
      "##emen": 7750,
      "##schaut": 7751,
      "##scheibe": 7752,
      "##ersby": 7753,
      "spär": 7754,
      "spider": 7755,
      "##ichte": 7756,
      "##ising": 7757,
      "too": 7758,
      "##ummel": 7759,
      "blut": 7760,
      "blaug": 7761,
      "bock": 7762,
      "boogie": 7763,
      "bouquet": 7764,
      "##igan": 7765,
      "placed": 7766,
      "playfully": 7767,
      "section": 7768,
      "separ": 7769,
      "chatting": 7770,
      "##bereit": 7771,
      "vorders": 7772,
      "schwebt": 7773,
      "kleineren": 7774,
      "##genommen": 7775,
      "zucker": 7776,
      "weil": 7777,
      "tricycle": 7778,
      "##ischem": 7779,
      "##abe": 7780,
      "gehender": 7781,
      "redner": 7782,
      "waffe": 7783,
      "leinwand": 7784,
      "früchte": 7785,
      "gefüllten": 7786,
      "unus": 7787,
      "papp": 7788,
      "artw": 7789,
      "cock": 7790,
      "coast": 7791,
      "covers": 7792,
      "handschuhe": 7793,
      "skin": 7794,
      "rohr": 7795,
      "überall": 7796,
      "##entlichen": 7797,
      "smart": 7798,
      "hoher": 7799,
      "hohe": 7800,
      "tray": 7801,
      "##ctors": 7802,
      "rahmen": 7803,
      "need": 7804,
      "neong": 7805,
      "wasserrutsche": 7806,
      "strange": 7807,
      "strumpf": 7808,
      "busch": 7809,
      "##gery": 7810,
      "##gericht": 7811,
      "pock": 7812,
      "blocken": 7813,
      "##ansammlung": 7814,
      "larger": 7815,
      "bast": 7816,
      "freude": 7817,
      "soap": 7818,
      "braunhaariger": 7819,
      "untergrund": 7820,
      "gespr": 7821,
      "##fert": 7822,
      "oberen": 7823,
      "##auten": 7824,
      "drückt": 7825,
      "watched": 7826,
      "nachbar": 7827,
      "pinkfarbener": 7828,
      "surfen": 7829,
      "surgery": 7830,
      "facil": 7831,
      "babys": 7832,
      "##ängen": 7833,
      "motorized": 7834,
      "beachvolleyball": 7835,
      "perlen": 7836,
      "workout": 7837,
      "führ": 7838,
      "descent": 7839,
      "tablett": 7840,
      "prog": 7841,
      "treat": 7842,
      "abgeb": 7843,
      "abgestellt": 7844,
      "abgeworfen": 7845,
      "helme": 7846,
      "##unkelten": 7847,
      "liegest": 7848,
      "meas": 7849,
      "fußballdress": 7850,
      "geschnitten": 7851,
      "polit": 7852,
      "dahin": 7853,
      "straßenverkäufer": 7854,
      "##ttet": 7855,
      "schnap": 7856,
      "paralle": 7857,
      "weap": 7858,
      "couples": 7859,
      "karussell": 7860,
      "march": 7861,
      "floats": 7862,
      "sunlight": 7863,
      "kastanien": 7864,
      "nagel": 7865,
      "knall": 7866,
      "holzbank": 7867,
      "attack": 7868,
      "##räger": 7869,
      "##rägern": 7870,
      "turquo": 7871,
      "passenden": 7872,
      "passersby": 7873,
      "indem": 7874,
      "frisur": 7875,
      "news": 7876,
      "crossed": 7877,
      "gemacht": 7878,
      "bretts": 7879,
      "saw": 7880,
      "opens": 7881,
      "hockeyspiel": 7882,
      "swimmingpool": 7883,
      "elev": 7884,
      "grills": 7885,
      "drawn": 7886,
      "aussicht": 7887,
      "volleyballspieler": 7888,
      "telefonz": 7889,
      "eiswa": 7890,
      "##licherweise": 7891,
      "lighted": 7892,
      "hänge": 7893,
      "##netz": 7894,
      "netze": 7895,
      "##llig": 7896,
      "schminkt": 7897,
      "kleinkinder": 7898,
      "felsvor": 7899,
      "picks": 7900,
      "rutschen": 7901,
      "rennfahrer": 7902,
      "männlichen": 7903,
      "kante": 7904,
      "turnschuhen": 7905,
      "verschiedenfarb": 7906,
      "einkaufstü": 7907,
      "joy": 7908,
      "serves": 7909,
      "marathonläufer": 7910,
      "##pannt": 7911,
      "skyline": 7912,
      "obststand": 7913,
      "contra": 7914,
      "angele": 7915,
      "##schriften": 7916,
      "türöffnung": 7917,
      "##feuer": 7918,
      "belong": 7919,
      "medium": 7920,
      "jugendlichen": 7921,
      "##plies": 7922,
      "shoreline": 7923,
      "gefle": 7924,
      "lebensmitteln": 7925,
      "##werker": 7926,
      "practices": 7927,
      "fußgängern": 7928,
      "verwenden": 7929,
      "kerle": 7930,
      "supplies": 7931,
      "säu": 7932,
      "piercing": 7933,
      "orientalische": 7934,
      "einsatz": 7935,
      "logs": 7936,
      "auge": 7937,
      "kayaking": 7938,
      "möbel": 7939,
      "leuchtenden": 7940,
      "##gedre": 7941,
      "japanischen": 7942,
      "silberfarbenen": 7943,
      "crouched": 7944,
      "##schlauch": 7945,
      "candle": 7946,
      "closely": 7947,
      "##cake": 7948,
      "##klippe": 7949,
      "planting": 7950,
      "schütteln": 7951,
      "visible": 7952,
      "mixer": 7953,
      "tiere": 7954,
      "anhänger": 7955,
      "geländewagen": 7956,
      "afroamerikanischer": 7957,
      "assemb": 7958,
      "##etzte": 7959,
      "superman": 7960,
      "lifted": 7961,
      "besteht": 7962,
      "magazines": 7963,
      "laundromat": 7964,
      "jüngerer": 7965,
      "bekleidete": 7966,
      "bekleideter": 7967,
      "krankenschw": 7968,
      "wunderschöne": 7969,
      "löschen": 7970,
      "swimsuits": 7971,
      "snacks": 7972,
      "transportiert": 7973,
      "suspenders": 7974,
      "underwear": 7975,
      "firefighter": 7976,
      "rettung": 7977,
      "stöcke": 7978,
      "stößt": 7979,
      "gegenständen": 7980,
      "picknick": 7981,
      "rollerskating": 7982,
      "amerikanischer": 7983,
      "mittelalter": 7984,
      "motorcyclists": 7985,
      "egg": 7986,
      "lifts": 7987,
      "sammeln": 7988,
      "angeboten": 7989,
      "tribal": 7990,
      "traveling": 7991,
      "teilnehmer": 7992,
      "verteilt": 7993,
      "dusty": 7994,
      "##mäher": 7995,
      "chalkboard": 7996,
      "wasserspren": 7997,
      "serviert": 7998,
      "bordstein": 7999
    },
    "merges": [
      [
        "##i",
        "##n"
      ],
      [
        "##e",
        "##n"
      ],
      [
        "##e",
        "##r"
      ],
      [
        "e",
        "##in"
      ],
      [
        "##a",
        "##n"
      ],
      [
        "##c",
        "##h"
      ],
      [
        "##i",
        "##t"
      ],
      [
        "##in",
        "##g"
      ],
      [
        "i",
        "##n"
      ],
      [
        "ein",
        "##e"
      ],
      [
        "##n",
        "##d"
      ],
      [
        "##a",
        "##r"
      ],
      [
        "##l",
        "##e"
      ],
      [
        "##r",
        "##e"
      ],
      [
        "m",
        "##an"
      ],
      [
        "t",
        "##h"
      ],
      [
        "##r",
        "##a"
      ],
      [
        "##e",
        "##l"
      ],
      [
        "s",
        "##t"
      ],
      [
        "##o",
        "##n"
      ],
      [
        "eine",
        "##m"
      ],
      [
        "##e",
        "##s"
      ],
      [
        "##u",
        "##n"
      ],
      [
        "##a",
        "##l"
      ],
      [
        "##e",
        "##i"
      ],
      [
        "##u",
        "##f"
      ],
      [
        "##c",
        "##k"
      ],
      [
        "th",
        "##e"
      ],
      [
        "##l",
        "##a"
      ],
      [
        "##o",
        "##r"
      ],
      [
        "##r",
        "##o"
      ],
      [
        "##a",
        "##t"
      ],
      [
        "##e",
        "##t"
      ],
      [
        "m",
        "##it"
      ],
      [
        "o",
        "##n"
      ],
      [
        "u",
        "##nd"
      ],
      [
        "a",
        "##uf"
      ],
      [
        "##i",
        "##r"
      ],
      [
        "##s",
        "##t"
      ],
      [
        "a",
        "##nd"
      ],
      [
        "##un",
        "##g"
      ],
      [
        "##i",
        "##e"
      ],
      [
        "##o",
        "##m"
      ],
      [
        "man",
        "##n"
      ],
      [
        "##an",
        "##d"
      ],
      [
        "s",
        "##ch"
      ],
      [
        "i",
        "##s"
      ],
      [
        "##e",
        "##h"
      ],
      [
        "o",
        "##f"
      ],
      [
        "##e",
        "##m"
      ],
      [
        "a",
        "##n"
      ],
      [
        "##u",
        "##t"
      ],
      [
        "##s",
        "##s"
      ],
      [
        "##e",
        "##d"
      ],
      [
        "ein",
        "##er"
      ],
      [
        "##s",
        "##ch"
      ],
      [
        "##o",
        "##t"
      ],
      [
        "##i",
        "##d"
      ],
      [
        "##it",
        "##h"
      ],
      [
        "##i",
        "##l"
      ],
      [
        "w",
        "##ith"
      ],
      [
        "##ra",
        "##u"
      ],
      [
        "##er",
        "##s"
      ],
      [
        "s",
        "##p"
      ],
      [
        "##al",
        "##l"
      ],
      [
        "##o",
        "##p"
      ],
      [
        "##o",
        "##l"
      ],
      [
        "s",
        "##h"
      ],
      [
        "##o",
        "##w"
      ],
      [
        "##h",
        "##r"
      ],
      [
        "s",
        "##it"
      ],
      [
        "f",
        "##rau"
      ],
      [
        "##g",
        "##e"
      ],
      [
        "##t",
        "##er"
      ],
      [
        "d",
        "##er"
      ],
      [
        "##u",
        "##r"
      ],
      [
        "w",
        "##om"
      ],
      [
        "##u",
        "##nd"
      ],
      [
        "w",
        "##h"
      ],
      [
        "##i",
        "##ch"
      ],
      [
        "##a",
        "##s"
      ],
      [
        "##i",
        "##el"
      ],
      [
        "##u",
        "##s"
      ],
      [
        "##a",
        "##m"
      ],
      [
        "##i",
        "##s"
      ],
      [
        "t",
        "##o"
      ],
      [
        "m",
        "##ä"
      ],
      [
        "##a",
        "##d"
      ],
      [
        "z",
        "##w"
      ],
      [
        "##k",
        "##ing"
      ],
      [
        "##in",
        "##d"
      ],
      [
        "##a",
        "##ch"
      ],
      [
        "a",
        "##re"
      ],
      [
        "wom",
        "##an"
      ],
      [
        "d",
        "##ie"
      ],
      [
        "##w",
        "##o"
      ],
      [
        "##u",
        "##m"
      ],
      [
        "b",
        "##l"
      ],
      [
        "b",
        "##la"
      ],
      [
        "zw",
        "##ei"
      ],
      [
        "t",
        "##wo"
      ],
      [
        "b",
        "##o"
      ],
      [
        "##e",
        "##ar"
      ],
      [
        "##i",
        "##g"
      ],
      [
        "##t",
        "##en"
      ],
      [
        "##u",
        "##p"
      ],
      [
        "##ir",
        "##t"
      ],
      [
        "p",
        "##la"
      ],
      [
        "k",
        "##le"
      ],
      [
        "##e",
        "##b"
      ],
      [
        "ein",
        "##en"
      ],
      [
        "a",
        "##t"
      ],
      [
        "j",
        "##ung"
      ],
      [
        "m",
        "##en"
      ],
      [
        "p",
        "##e"
      ],
      [
        "##i",
        "##c"
      ],
      [
        "i",
        "##m"
      ],
      [
        "##op",
        "##le"
      ],
      [
        "pe",
        "##ople"
      ],
      [
        "##a",
        "##ck"
      ],
      [
        "##en",
        "##d"
      ],
      [
        "sh",
        "##irt"
      ],
      [
        "##o",
        "##o"
      ],
      [
        "pla",
        "##y"
      ],
      [
        "##il",
        "##d"
      ],
      [
        "sp",
        "##iel"
      ],
      [
        "s",
        "##e"
      ],
      [
        "c",
        "##h"
      ],
      [
        "##b",
        "##er"
      ],
      [
        "g",
        "##ro"
      ],
      [
        "##ch",
        "##en"
      ],
      [
        "##t",
        "##ing"
      ],
      [
        "##o",
        "##g"
      ],
      [
        "##u",
        "##g"
      ],
      [
        "##i",
        "##er"
      ],
      [
        "st",
        "##eh"
      ],
      [
        "b",
        "##e"
      ],
      [
        "##ers",
        "##on"
      ],
      [
        "p",
        "##erson"
      ],
      [
        "v",
        "##or"
      ],
      [
        "w",
        "##ear"
      ],
      [
        "sit",
        "##z"
      ],
      [
        "g",
        "##r"
      ],
      [
        "sch",
        "##w"
      ],
      [
        "wear",
        "##ing"
      ],
      [
        "st",
        "##and"
      ],
      [
        "##t",
        "##s"
      ],
      [
        "##id",
        "##e"
      ],
      [
        "##it",
        "##e"
      ],
      [
        "##ß",
        "##en"
      ],
      [
        "##o",
        "##s"
      ],
      [
        "kle",
        "##in"
      ],
      [
        "##i",
        "##m"
      ],
      [
        "y",
        "##o"
      ],
      [
        "##n",
        "##er"
      ],
      [
        "##i",
        "##k"
      ],
      [
        "##g",
        "##en"
      ],
      [
        "v",
        "##on"
      ],
      [
        "w",
        "##al"
      ],
      [
        "z",
        "##u"
      ],
      [
        "yo",
        "##ung"
      ],
      [
        "s",
        "##ich"
      ],
      [
        "d",
        "##re"
      ],
      [
        "w",
        "##ei"
      ],
      [
        "##l",
        "##t"
      ],
      [
        "##u",
        "##e"
      ],
      [
        "t",
        "##r"
      ],
      [
        "##i",
        "##le"
      ],
      [
        "##h",
        "##er"
      ],
      [
        "##e",
        "##it"
      ],
      [
        "##ä",
        "##hr"
      ],
      [
        "##i",
        "##sch"
      ],
      [
        "wh",
        "##ite"
      ],
      [
        "##ir",
        "##l"
      ],
      [
        "d",
        "##em"
      ],
      [
        "g",
        "##irl"
      ],
      [
        "##d",
        "##chen"
      ],
      [
        "##g",
        "##t"
      ],
      [
        "mä",
        "##dchen"
      ],
      [
        "##v",
        "##er"
      ],
      [
        "o",
        "##ut"
      ],
      [
        "##p",
        "##e"
      ],
      [
        "##a",
        "##b"
      ],
      [
        "h",
        "##er"
      ],
      [
        "d",
        "##og"
      ],
      [
        "##ar",
        "##d"
      ],
      [
        "##es",
        "##t"
      ],
      [
        "jung",
        "##e"
      ],
      [
        "##ol",
        "##d"
      ],
      [
        "h",
        "##und"
      ],
      [
        "bo",
        "##y"
      ],
      [
        "##n",
        "##en"
      ],
      [
        "##el",
        "##l"
      ],
      [
        "bla",
        "##ck"
      ],
      [
        "k",
        "##ind"
      ],
      [
        "h",
        "##is"
      ],
      [
        "##c",
        "##e"
      ],
      [
        "mä",
        "##n"
      ],
      [
        "##ß",
        "##e"
      ],
      [
        "##ar",
        "##z"
      ],
      [
        "schw",
        "##arz"
      ],
      [
        "wh",
        "##ile"
      ],
      [
        "g",
        "##eh"
      ],
      [
        "r",
        "##ed"
      ],
      [
        "w",
        "##at"
      ],
      [
        "##b",
        "##en"
      ],
      [
        "w",
        "##a"
      ],
      [
        "bl",
        "##ue"
      ],
      [
        "l",
        "##e"
      ],
      [
        "f",
        "##r"
      ],
      [
        "st",
        "##ra"
      ],
      [
        "##a",
        "##u"
      ],
      [
        "män",
        "##ner"
      ],
      [
        "a",
        "##s"
      ],
      [
        "st",
        "##re"
      ],
      [
        "##a",
        "##hr"
      ],
      [
        "steh",
        "##t"
      ],
      [
        "h",
        "##a"
      ],
      [
        "g",
        "##e"
      ],
      [
        "r",
        "##ot"
      ],
      [
        "##ar",
        "##k"
      ],
      [
        "g",
        "##ra"
      ],
      [
        "sit",
        "##ting"
      ],
      [
        "h",
        "##ä"
      ],
      [
        "##i",
        "##f"
      ],
      [
        "##ro",
        "##w"
      ],
      [
        "u",
        "##n"
      ],
      [
        "d",
        "##en"
      ],
      [
        "p",
        "##a"
      ],
      [
        "a",
        "##r"
      ],
      [
        "##m",
        "##en"
      ],
      [
        "c",
        "##o"
      ],
      [
        "##i",
        "##ck"
      ],
      [
        "bla",
        "##u"
      ],
      [
        "ch",
        "##ild"
      ],
      [
        "##ow",
        "##n"
      ],
      [
        "##u",
        "##l"
      ],
      [
        "se",
        "##in"
      ],
      [
        "##b",
        "##all"
      ],
      [
        "sitz",
        "##t"
      ],
      [
        "h",
        "##old"
      ],
      [
        "stand",
        "##ing"
      ],
      [
        "##t",
        "##e"
      ],
      [
        "##n",
        "##e"
      ],
      [
        "play",
        "##ing"
      ],
      [
        "gro",
        "##up"
      ],
      [
        "h",
        "##and"
      ],
      [
        "h",
        "##in"
      ],
      [
        "s",
        "##k"
      ],
      [
        "##n",
        "##t"
      ],
      [
        "b",
        "##ei"
      ],
      [
        "l",
        "##oo"
      ],
      [
        "##sch",
        "##en"
      ],
      [
        "stre",
        "##et"
      ],
      [
        "##h",
        "##t"
      ],
      [
        "##on",
        "##t"
      ],
      [
        "r",
        "##o"
      ],
      [
        "##er",
        "##e"
      ],
      [
        "o",
        "##r"
      ],
      [
        "##i",
        "##on"
      ],
      [
        "##up",
        "##pe"
      ],
      [
        "b",
        "##all"
      ],
      [
        "ü",
        "##ber"
      ],
      [
        "d",
        "##own"
      ],
      [
        "##en",
        "##t"
      ],
      [
        "u",
        "##m"
      ],
      [
        "stra",
        "##ße"
      ],
      [
        "##an",
        "##g"
      ],
      [
        "w",
        "##ähr"
      ],
      [
        "##em",
        "##d"
      ],
      [
        "währ",
        "##end"
      ],
      [
        "b",
        "##r"
      ],
      [
        "##re",
        "##e"
      ],
      [
        "##d",
        "##er"
      ],
      [
        "s",
        "##m"
      ],
      [
        "wal",
        "##king"
      ],
      [
        "sp",
        "##r"
      ],
      [
        "f",
        "##l"
      ],
      [
        "h",
        "##at"
      ],
      [
        "a",
        "##l"
      ],
      [
        "men",
        "##schen"
      ],
      [
        "a",
        "##m"
      ],
      [
        "gr",
        "##uppe"
      ],
      [
        "v",
        "##er"
      ],
      [
        "##k",
        "##s"
      ],
      [
        "spiel",
        "##t"
      ],
      [
        "h",
        "##emd"
      ],
      [
        "hä",
        "##lt"
      ],
      [
        "r",
        "##e"
      ],
      [
        "##ro",
        "##und"
      ],
      [
        "##f",
        "##t"
      ],
      [
        "h",
        "##o"
      ],
      [
        "fr",
        "##ont"
      ],
      [
        "l",
        "##a"
      ],
      [
        "d",
        "##as"
      ],
      [
        "##u",
        "##d"
      ],
      [
        "##it",
        "##t"
      ],
      [
        "hold",
        "##ing"
      ],
      [
        "f",
        "##o"
      ],
      [
        "##uf",
        "##t"
      ],
      [
        "##eb",
        "##en"
      ],
      [
        "t",
        "##ra"
      ],
      [
        "a",
        "##us"
      ],
      [
        "s",
        "##om"
      ],
      [
        "person",
        "##en"
      ],
      [
        "d",
        "##ur"
      ],
      [
        "j",
        "##ack"
      ],
      [
        "##b",
        "##o"
      ],
      [
        "l",
        "##ä"
      ],
      [
        "##ss",
        "##er"
      ],
      [
        "c",
        "##ar"
      ],
      [
        "##in",
        "##k"
      ],
      [
        "##or",
        "##m"
      ],
      [
        "f",
        "##ahr"
      ],
      [
        "c",
        "##l"
      ],
      [
        "wat",
        "##er"
      ],
      [
        "##an",
        "##ge"
      ],
      [
        "##u",
        "##ch"
      ],
      [
        "##c",
        "##t"
      ],
      [
        "m",
        "##ach"
      ],
      [
        "##er",
        "##n"
      ],
      [
        "##r",
        "##en"
      ],
      [
        "r",
        "##a"
      ],
      [
        "##d",
        "##en"
      ],
      [
        "##s",
        "##ide"
      ],
      [
        "dre",
        "##ss"
      ],
      [
        "n",
        "##e"
      ],
      [
        "t",
        "##a"
      ],
      [
        "dre",
        "##i"
      ],
      [
        "on",
        "##e"
      ],
      [
        "i",
        "##h"
      ],
      [
        "##h",
        "##ing"
      ],
      [
        "t",
        "##e"
      ],
      [
        "##z",
        "##e"
      ],
      [
        "##ü",
        "##r"
      ],
      [
        "##i",
        "##v"
      ],
      [
        "##um",
        "##p"
      ],
      [
        "b",
        "##as"
      ],
      [
        "g",
        "##re"
      ],
      [
        "##y",
        "##ing"
      ],
      [
        "b",
        "##y"
      ],
      [
        "g",
        "##el"
      ],
      [
        "##eh",
        "##r"
      ],
      [
        "##ei",
        "##l"
      ],
      [
        "th",
        "##ree"
      ],
      [
        "eine",
        "##s"
      ],
      [
        "u",
        "##p"
      ],
      [
        "n",
        "##eben"
      ],
      [
        "##i",
        "##st"
      ],
      [
        "wei",
        "##ßen"
      ],
      [
        "b",
        "##ack"
      ],
      [
        "##ing",
        "##t"
      ],
      [
        "r",
        "##un"
      ],
      [
        "blau",
        "##en"
      ],
      [
        "w",
        "##or"
      ],
      [
        "##e",
        "##in"
      ],
      [
        "frau",
        "##en"
      ],
      [
        "wa",
        "##sser"
      ],
      [
        "##on",
        "##e"
      ],
      [
        "st",
        "##r"
      ],
      [
        "hin",
        "##ter"
      ],
      [
        "##s",
        "##p"
      ],
      [
        "s",
        "##n"
      ],
      [
        "##w",
        "##e"
      ],
      [
        "##k",
        "##le"
      ],
      [
        "##b",
        "##eit"
      ],
      [
        "f",
        "##or"
      ],
      [
        "dur",
        "##ch"
      ],
      [
        "wom",
        "##en"
      ],
      [
        "##ug",
        "##h"
      ],
      [
        "##im",
        "##m"
      ],
      [
        "m",
        "##o"
      ],
      [
        "b",
        "##u"
      ],
      [
        "##ra",
        "##d"
      ],
      [
        "##g",
        "##er"
      ],
      [
        "rot",
        "##en"
      ],
      [
        "i",
        "##st"
      ],
      [
        "##ä",
        "##gt"
      ],
      [
        "##b",
        "##e"
      ],
      [
        "m",
        "##a"
      ],
      [
        "##i",
        "##es"
      ],
      [
        "j",
        "##ump"
      ],
      [
        "or",
        "##ange"
      ],
      [
        "##u",
        "##it"
      ],
      [
        "b",
        "##ra"
      ],
      [
        "wei",
        "##ß"
      ],
      [
        "gre",
        "##en"
      ],
      [
        "steh",
        "##en"
      ],
      [
        "p",
        "##o"
      ],
      [
        "##i",
        "##p"
      ],
      [
        "##kle",
        "##id"
      ],
      [
        "##am",
        "##er"
      ],
      [
        "sitz",
        "##en"
      ],
      [
        "l",
        "##itt"
      ],
      [
        "litt",
        "##le"
      ],
      [
        "##a",
        "##y"
      ],
      [
        "##ich",
        "##t"
      ],
      [
        "spiel",
        "##en"
      ],
      [
        "sn",
        "##ow"
      ],
      [
        "e",
        "##nt"
      ],
      [
        "##l",
        "##er"
      ],
      [
        "bl",
        "##o"
      ],
      [
        "##on",
        "##g"
      ],
      [
        "loo",
        "##king"
      ],
      [
        "##t",
        "##o"
      ],
      [
        "##an",
        "##s"
      ],
      [
        "##ar",
        "##ben"
      ],
      [
        "##ier",
        "##t"
      ],
      [
        "gr",
        "##ü"
      ],
      [
        "as",
        "##i"
      ],
      [
        "##f",
        "##f"
      ],
      [
        "##ähr",
        "##t"
      ],
      [
        "r",
        "##id"
      ],
      [
        "out",
        "##side"
      ],
      [
        "##la",
        "##ss"
      ],
      [
        "##ar",
        "##t"
      ],
      [
        "kind",
        "##er"
      ],
      [
        "##a",
        "##p"
      ],
      [
        "kle",
        "##id"
      ],
      [
        "##l",
        "##ich"
      ],
      [
        "geh",
        "##t"
      ],
      [
        "sk",
        "##at"
      ],
      [
        "l",
        "##ar"
      ],
      [
        "p",
        "##ark"
      ],
      [
        "##ro",
        "##m"
      ],
      [
        "tr",
        "##ägt"
      ],
      [
        "b",
        "##a"
      ],
      [
        "##el",
        "##t"
      ],
      [
        "lar",
        "##ge"
      ],
      [
        "##row",
        "##n"
      ],
      [
        "s",
        "##ide"
      ],
      [
        "f",
        "##re"
      ],
      [
        "f",
        "##ährt"
      ],
      [
        "e",
        "##r"
      ],
      [
        "##h",
        "##e"
      ],
      [
        "s",
        "##o"
      ],
      [
        "##ro",
        "##ugh"
      ],
      [
        "bra",
        "##un"
      ],
      [
        "th",
        "##rough"
      ],
      [
        "un",
        "##ter"
      ],
      [
        "h",
        "##e"
      ],
      [
        "o",
        "##t"
      ],
      [
        "g",
        "##es"
      ],
      [
        "##oo",
        "##d"
      ],
      [
        "##f",
        "##er"
      ],
      [
        "o",
        "##ver"
      ],
      [
        "b",
        "##rown"
      ],
      [
        "##in",
        "##e"
      ],
      [
        "y",
        "##ell"
      ],
      [
        "o",
        "##ber"
      ],
      [
        "##a",
        "##in"
      ],
      [
        "yell",
        "##ow"
      ],
      [
        "##ig",
        "##ht"
      ],
      [
        "le",
        "##ut"
      ],
      [
        "##amer",
        "##a"
      ],
      [
        "o",
        "##l"
      ],
      [
        "som",
        "##e"
      ],
      [
        "klein",
        "##es"
      ],
      [
        "b",
        "##ik"
      ],
      [
        "child",
        "##ren"
      ],
      [
        "##a",
        "##ut"
      ],
      [
        "r",
        "##en"
      ],
      [
        "##u",
        "##re"
      ],
      [
        "##f",
        "##arben"
      ],
      [
        "##le",
        "##s"
      ],
      [
        "blo",
        "##nd"
      ],
      [
        "##ck",
        "##e"
      ],
      [
        "##al",
        "##k"
      ],
      [
        "##i",
        "##en"
      ],
      [
        "##a",
        "##uf"
      ],
      [
        "mach",
        "##t"
      ],
      [
        "ar",
        "##beit"
      ],
      [
        "d",
        "##r"
      ],
      [
        "##y",
        "##c"
      ],
      [
        "ent",
        "##l"
      ],
      [
        "##g",
        "##r"
      ],
      [
        "spr",
        "##ingt"
      ],
      [
        "entl",
        "##ang"
      ],
      [
        "f",
        "##rom"
      ],
      [
        "i",
        "##hr"
      ],
      [
        "##s",
        "##en"
      ],
      [
        "schwarz",
        "##en"
      ],
      [
        "##f",
        "##en"
      ],
      [
        "##er",
        "##en"
      ],
      [
        "th",
        "##ei"
      ],
      [
        "thei",
        "##r"
      ],
      [
        "b",
        "##er"
      ],
      [
        "##x",
        "##t"
      ],
      [
        "##ss",
        "##en"
      ],
      [
        "##k",
        "##e"
      ],
      [
        "##ig",
        "##en"
      ],
      [
        "p",
        "##os"
      ],
      [
        "##i",
        "##re"
      ],
      [
        "d",
        "##o"
      ],
      [
        "in",
        "##to"
      ],
      [
        "##an",
        "##z"
      ],
      [
        "g",
        "##eb"
      ],
      [
        "##u",
        "##ß"
      ],
      [
        "klein",
        "##er"
      ],
      [
        "##n",
        "##ing"
      ],
      [
        "s",
        "##ie"
      ],
      [
        "##an",
        "##k"
      ],
      [
        "m",
        "##ot"
      ],
      [
        "wat",
        "##ch"
      ],
      [
        "##l",
        "##y"
      ],
      [
        "sm",
        "##all"
      ],
      [
        "##an",
        "##t"
      ],
      [
        "bu",
        "##ild"
      ],
      [
        "m",
        "##ehr"
      ],
[...]
