{
  "version": "1.0",
  "truncation": null,
  "padding": null,
  "added_tokens": [
    {
      "id": 0,
      "content": "[UNK]",
      "single_word": false,
      "lstrip": false,
      "rstrip": false,
      "normalized": false,
      "special": true
    },
    {
      "id": 1,
      "content": "[PAD]",
      "single_word": false,
      "lstrip": false,
      "rstrip": false,
      "normalized": false,
      "special": true
    },
    {
      "id": 2,
      "content": "[CLS]",
      "single_word": false,
      "lstrip": false,
      "rstrip": false,
      "normalized": false,
      "special": true
    },
    {
      "id": 3,
      "content": "[SEP]",
      "single_word": false,
      "lstrip": false,
      "rstrip": false,
      "normalized": false,
      "special": true
    },
    {
      "id": 4,
      "content": "[MASK]",
      "single_word": false,
      "lstrip": false,
      "rstrip": false,
      "normalized": false,
      "special": true
    }
  ],
  "normalizer": {
    "type": "BertNormalizer",
    "clean_text": true,
    "handle_chinese_chars": true,
    "strip_accents": true,
    "lowercase": true
  },
  "pre_tokenizer": {
    "type": "BertPreTokenizer"
  },
  "post_processor": null,
  "decoder": {
    "type": "WordPiece",
    "prefix": "##",
    "cleanup": true
  },
  "model": {
    "type": "WordPiece",
    "unk_token": "[UNK]",
    "continuing_subword_prefix": "##",
    "max_input_chars_per_word": 100,
    "vocab": {
      "[UNK]": 0,
      "[PAD]": 1,
      "[CLS]": 2,
      "[SEP]": 3,
      "[MASK]": 4,
      "!": 5,
      "\"": 6,
      "#": 7,
      "$": 8,
      "%": 9,
      "&": 10,
      "'": 11,
      "(": 12,
      ")": 13,
      "*": 14,
      "+": 15,
      ",": 16,
      "-": 17,
      ".": 18,
      "/": 19,
      "0": 20,
      "1": 21,
      "2": 22,
      "3": 23,
      "4": 24,
      "5": 25,
      "6": 26,
      "7": 27,
      "8": 28,
      "9": 29,
      ":": 30,
      ";": 31,
      "<": 32,
      "=": 33,
      ">": 34,
      "?": 35,
      "@": 36,
      "[": 37,
      "\\": 38,
      "]": 39,
      "^": 40,
      "_": 41,
      "`": 42,
      "a": 43,
      "b": 44,
      "c": 45,
      "d": 46,
      "e": 47,
      "f": 48,
      "g": 49,
      "h": 50,
      "i": 51,
      "j": 52,
      "k": 53,
      "l": 54,
      "m": 55,
      "n": 56,
      "o": 57,
      "p": 58,
      "q": 59,
      "r": 60,
      "s": 61,
      "t": 62,
      "u": 63,
      "v": 64,
      "w": 65,
      "x": 66,
      "y": 67,
      "z": 68,
      "|": 69,
      "}": 70,
      "~": 71,
      "¡": 72,
      "¢": 73,
      "£": 74,
      "¥": 75,
      "§": 76,
      "°": 77,
      "±": 78,
      "²": 79,
      "³": 80,
      "´": 81,
      "µ": 82,
      "·": 83,
      "º": 84,
      "½": 85,
      "¿": 86,
      "×": 87,
      "ß": 88,
      "æ": 89,
      "ð": 90,
      "ø": 91,
      "þ": 92,
      "đ": 93,
      "ħ": 94,
      "ı": 95,
      "ł": 96,
      "œ": 97,
      "ɐ": 98,
      "ɑ": 99,
      "ɒ": 100,
      "ɔ": 101,
      "ə": 102,
      "ɛ": 103,
      "ɜ": 104,
      "ɡ": 105,
      "ɢ": 106,
      "ɪ": 107,
      "ɫ": 108,
      "ɳ": 109,
      "ɽ": 110,
      "ɾ": 111,
      "ʁ": 112,
      "ʃ": 113,
      "ʊ": 114,
      "ʋ": 115,
      "ʒ": 116,
      "ʔ": 117,
      "ʕ": 118,
      "ʲ": 119,
      "ʻ": 120,
      "ʼ": 121,
      "ʾ": 122,
      "ʿ": 123,
      "ˈ": 124,
      "ˌ": 125,
      "ː": 126,
      "α": 127,
      "β": 128,
      "γ": 129,
      "δ": 130,
      "ε": 131,
      "η": 132,
      "θ": 133,
      "ι": 134,
      "κ": 135,
      "λ": 136,
      "μ": 137,
      "ν": 138,
      "ξ": 139,
      "ο": 140,
      "π": 141,
      "ρ": 142,
      "ς": 143,
      "σ": 144,
      "τ": 145,
      "υ": 146,
      "φ": 147,
      "χ": 148,
      "ψ": 149,
      "ω": 150,
      "а": 151,
      "б": 152,
      "в": 153,
      "г": 154,
      "д": 155,
      "е": 156,
      "ж": 157,
      "з": 158,
      "и": 159,
      "к": 160,
      "л": 161,
      "м": 162,
      "н": 163,
      "о": 164,
      "п": 165,
      "р": 166,
      "с": 167,
      "т": 168,
      "у": 169,
      "х": 170,
      "ц": 171,
      "ш": 172,
      "ъ": 173,
      "ы": 174,
      "ь": 175,
      "ю": 176,
      "я": 177,
      "є": 178,
      "א": 179,
      "ב": 180,
      "ג": 181,
      "ה": 182,
      "ו": 183,
      "ז": 184,
      "ח": 185,
      "י": 186,
      "ל": 187,
      "ם": 188,
      "מ": 189,
      "ן": 190,
      "נ": 191,
      "ס": 192,
      "ף": 193,
      "פ": 194,
      "צ": 195,
      "ר": 196,
      "ש": 197,
      "ת": 198,
      "ء": 199,
      "ا": 200,
      "ب": 201,
      "ة": 202,
      "ت": 203,
      "ث": 204,
      "ج": 205,
      "ح": 206,
      "خ": 207,
      "د": 208,
      "ذ": 209,
      "ر": 210,
      "س": 211,
      "ش": 212,
      "ص": 213,
      "ع": 214,
      "ف": 215,
      "ق": 216,
      "ك": 217,
      "ل": 218,
      "م": 219,
      "ن": 220,
      "ه": 221,
      "و": 222,
      "ي": 223,
      "ܐ": 224,
      "ܕ": 225,
      "ܗ": 226,
      "ܝ": 227,
      "ܠ": 228,
      "ܢ": 229,
      "ܬ": 230,
      "अ": 231,
      "ई": 232,
      "क": 233,
      "ग": 234,
      "ण": 235,
      "त": 236,
      "द": 237,
      "न": 238,
      "प": 239,
      "ब": 240,
      "म": 241,
      "य": 242,
      "र": 243,
      "ल": 244,
      "व": 245,
      "स": 246,
      "ह": 247,
      "ा": 248,
      "ि": 249,
      "আ": 250,
      "ল": 251,
      "হ": 252,
      "া": 253,
      "ਅ": 254,
      "ਲ": 255,
      "ਹ": 256,
      "ਾ": 257,
      "അ": 258,
      "ള": 259,
      "ഹ": 260,
      "ാ": 261,
      "ก": 262,
      "ค": 263,
      "ง": 264,
      "ช": 265,
      "ซ": 266,
      "ญ": 267,
      "ฐ": 268,
      "ณ": 269,
      "ด": 270,
      "ต": 271,
      "น": 272,
      "บ": 273,
      "ป": 274,
      "พ": 275,
      "ภ": 276,
      "ม": 277,
      "ย": 278,
      "ร": 279,
      "ล": 280,
      "ว": 281,
      "ศ": 282,
      "ษ": 283,
      "ส": 284,
      "ห": 285,
      "อ": 286,
      "ฮ": 287,
      "ะ": 288,
      "า": 289,
      "เ": 290,
      "แ": 291,
      "ไ": 292,
      "ა": 293,
      "ბ": 294,
      "გ": 295,
      "დ": 296,
      "ე": 297,
      "ვ": 298,
      "ზ": 299,
      "თ": 300,
      "ი": 301,
      "კ": 302,
      "ლ": 303,
      "მ": 304,
      "ნ": 305,
      "ო": 306,
      "პ": 307,
      "ჟ": 308,
      "რ": 309,
      "ს": 310,
      "ტ": 311,
      "უ": 312,
      "ფ": 313,
      "ქ": 314,
      "ღ": 315,
      "ყ": 316,
      "შ": 317,
      "ჩ": 318,
      "ც": 319,
      "ძ": 320,
      "წ": 321,
      "ჭ": 322,
      "ხ": 323,
      "ჯ": 324,
      "ჰ": 325,
      "ჱ": 326,
      "ჲ": 327,
      "ჳ": 328,
      "ჴ": 329,
      "ჵ": 330,
      "ჶ": 331,
      "ჷ": 332,
      "ჸ": 333,
      "ჹ": 334,
      "ჺ": 335,
      "჻": 336,
      "ᄃ": 337,
      "ᄅ": 338,
      "ᄇ": 339,
      "ᄋ": 340,
      "ᄌ": 341,
      "ᅡ": 342,
      "ᅢ": 343,
      "ᅦ": 344,
      "ᅧ": 345,
      "ᅩ": 346,
      "ᅮ": 347,
      "ᅵ": 348,
      "ᆨ": 349,
      "ᆫ": 350,
      "ᆯ": 351,
      "ᆸ": 352,
      "ᆼ": 353,
      "ᵻ": 354,
      "‐": 355,
      "‑": 356,
      "–": 357,
      "—": 358,
      "―": 359,
      "‘": 360,
      "’": 361,
      "“": 362,
      "”": 363,
      "„": 364,
      "†": 365,
      "‡": 366,
      "•": 367,
      "…": 368,
      "′": 369,
      "″": 370,
      "⁄": 371,
      "₣": 372,
      "₤": 373,
      "€": 374,
      "₹": 375,
      "⅓": 376,
      "⅔": 377,
      "→": 378,
      "−": 379,
      "≡": 380,
      "≤": 381,
      "①": 382,
      "☉": 383,
      "☫": 384,
      "♀": 385,
      "♭": 386,
      "♯": 387,
      "⚳": 388,
      "ⴀ": 389,
      "ⴂ": 390,
      "ⴃ": 391,
      "ⴈ": 392,
      "ⴌ": 393,
      "ⴕ": 394,
      "ⴟ": 395,
      "〈": 396,
      "〉": 397,
      "〜": 398,
      "あ": 399,
      "い": 400,
      "う": 401,
      "お": 402,
      "か": 403,
      "き": 404,
      "く": 405,
      "け": 406,
      "こ": 407,
      "さ": 408,
      "し": 409,
      "す": 410,
      "せ": 411,
      "た": 412,
      "ち": 413,
      "っ": 414,
      "つ": 415,
      "と": 416,
      "な": 417,
      "に": 418,
      "の": 419,
      "は": 420,
      "ひ": 421,
      "ふ": 422,
      "ほ": 423,
      "ま": 424,
      "み": 425,
      "め": 426,
      "も": 427,
      "ゃ": 428,
      "ゆ": 429,
      "ょ": 430,
      "ら": 431,
      "り": 432,
      "る": 433,
      "れ": 434,
      "わ": 435,
      "を": 436,
      "ん": 437,
      "ァ": 438,
      "ア": 439,
      "ィ": 440,
      "イ": 441,
      "ゥ": 442,
      "ウ": 443,
      "ェ": 444,
      "エ": 445,
      "ォ": 446,
      "オ": 447,
      "カ": 448,
      "キ": 449,
      "ク": 450,
      "ケ": 451,
      "コ": 452,
      "サ": 453,
      "シ": 454,
      "ス": 455,
      "セ": 456,
      "タ": 457,
      "チ": 458,
      "ッ": 459,
      "ツ": 460,
      "テ": 461,
      "ト": 462,
      "ナ": 463,
      "ニ": 464,
      "ネ": 465,
      "ノ": 466,
      "ハ": 467,
      "フ": 468,
      "ヘ": 469,
      "マ": 470,
      "ミ": 471,
      "ム": 472,
      "モ": 473,
      "ャ": 474,
      "ュ": 475,
      "ョ": 476,
      "ラ": 477,
      "リ": 478,
      "ル": 479,
      "レ": 480,
      "ロ": 481,
      "ン": 482,
      "・": 483,
      "ー": 484,
      "一": 485,
      "七": 486,
      "下": 487,
      "世": 488,
      "丙": 489,
      "中": 490,
      "主": 491,
      "乃": 492,
      "之": 493,
      "乙": 494,
      "九": 495,
      "二": 496,
      "云": 497,
      "人": 498,
      "今": 499,
      "付": 500,
      "作": 501,
      "侗": 502,
      "依": 503,
      "信": 504,
      "傳": 505,
      "儚": 506,
      "充": 507,
      "光": 508,
      "全": 509,
      "兵": 510,
      "其": 511,
      "具": 512,
      "円": 513,
      "再": 514,
      "出": 515,
      "判": 516,
      "前": 517,
      "剛": 518,
      "劇": 519,
      "劉": 520,
      "動": 521,
      "化": 522,
      "北": 523,
      "华": 524,
      "厂": 525,
      "去": 526,
      "古": 527,
      "可": 528,
      "台": 529,
      "史": 530,
      "同": 531,
      "名": 532,
      "君": 533,
      "吳": 534,
      "周": 535,
      "命": 536,
      "和": 537,
      "咲": 538,
      "善": 539,
      "四": 540,
      "國": 541,
      "園": 542,
      "圣": 543,
      "在": 544,
      "坂": 545,
      "堤": 546,
      "場": 547,
      "塘": 548,
      "夕": 549,
      "大": 550,
      "天": 551,
      "夫": 552,
      "女": 553,
      "妙": 554,
      "姚": 555,
      "子": 556,
      "孟": 557,
      "守": 558,
      "安": 559,
      "宋": 560,
      "完": 561,
      "宗": 562,
      "宝": 563,
      "宫": 564,
      "寝": 565,
      "寺": 566,
      "小": 567,
      "少": 568,
      "尾": 569,
      "山": 570,
      "岳": 571,
      "川": 572,
      "州": 573,
      "巳": 574,
      "市": 575,
      "師": 576,
      "平": 577,
      "广": 578,
      "庆": 579,
      "府": 580,
      "座": 581,
      "廬": 582,
      "建": 583,
      "式": 584,
      "張": 585,
      "彌": 586,
      "彩": 587,
      "彼": 588,
      "後": 589,
      "御": 590,
      "德": 591,
      "思": 592,
      "愛": 593,
      "憑": 594,
      "憶": 595,
      "應": 596,
      "懷": 597,
      "战": 598,
      "戦": 599,
      "扈": 600,
      "技": 601,
      "拉": 602,
      "拳": 603,
      "挑": 604,
      "揺": 605,
      "攻": 606,
      "放": 607,
      "政": 608,
      "散": 609,
      "斯": 610,
      "方": 611,
      "日": 612,
      "旦": 613,
      "旭": 614,
      "昌": 615,
      "明": 616,
      "星": 617,
      "春": 618,
      "晋": 619,
      "景": 620,
      "曦": 621,
      "月": 622,
      "望": 623,
      "未": 624,
      "本": 625,
      "李": 626,
      "村": 627,
      "杜": 628,
      "束": 629,
      "来": 630,
      "林": 631,
      "桜": 632,
      "梶": 633,
      "棘": 634,
      "椎": 635,
      "楊": 636,
      "楚": 637,
      "榮": 638,
      "橘": 639,
      "機": 640,
      "正": 641,
      "殻": 642,
      "殿": 643,
      "母": 644,
      "水": 645,
      "汉": 646,
      "沂": 647,
      "沙": 648,
      "河": 649,
      "泗": 650,
      "波": 651,
      "泣": 652,
      "洪": 653,
      "淹": 654,
      "清": 655,
      "湯": 656,
      "漢": 657,
      "澄": 658,
      "澤": 659,
      "火": 660,
      "灯": 661,
      "灵": 662,
      "灼": 663,
      "焼": 664,
      "熱": 665,
      "物": 666,
      "狐": 667,
      "狸": 668,
      "玄": 669,
      "王": 670,
      "玩": 671,
      "珂": 672,
      "珙": 673,
      "球": 674,
      "理": 675,
      "琦": 676,
      "琪": 677,
      "瓊": 678,
      "生": 679,
      "田": 680,
      "畢": 681,
      "番": 682,
      "瘡": 683,
      "白": 684,
      "皮": 685,
      "真": 686,
      "砲": 687,
      "礮": 688,
      "祈": 689,
      "神": 690,
      "祠": 691,
      "秋": 692,
      "空": 693,
      "立": 694,
      "精": 695,
      "約": 696,
      "絵": 697,
      "織": 698,
      "義": 699,
      "翠": 700,
      "者": 701,
      "耕": 702,
      "肖": 703,
      "胡": 704,
      "膀": 705,
      "臂": 706,
      "興": 707,
      "良": 708,
      "花": 709,
      "芳": 710,
      "芽": 711,
      "若": 712,
      "英": 713,
      "藕": 714,
      "藥": 715,
      "蘄": 716,
      "蘇": 717,
      "行": 718,
      "裁": 719,
      "規": 720,
      "覺": 721,
      "观": 722,
      "解": 723,
      "記": 724,
      "誓": 725,
      "誡": 726,
      "誰": 727,
      "謎": 728,
      "许": 729,
      "谭": 730,
      "豪": 731,
      "豫": 732,
      "費": 733,
      "贵": 734,
      "赤": 735,
      "趙": 736,
      "足": 737,
      "跡": 738,
      "転": 739,
      "辛": 740,
      "逆": 741,
      "遇": 742,
      "運": 743,
      "過": 744,
      "遠": 745,
      "選": 746,
      "邦": 747,
      "邱": 748,
      "部": 749,
      "郭": 750,
      "都": 751,
      "酈": 752,
      "里": 753,
      "野": 754,
      "金": 755,
      "銃": 756,
      "鋼": 757,
      "錄": 758,
      "錡": 759,
      "鍵": 760,
      "鐵": 761,
      "钱": 762,
      "铁": 763,
      "關": 764,
      "防": 765,
      "阿": 766,
      "陈": 767,
      "陳": 768,
      "陽": 769,
      "隊": 770,
      "階": 771,
      "集": 772,
      "雪": 773,
      "雲": 774,
      "霖": 775,
      "霹": 776,
      "靂": 777,
      "韓": 778,
      "願": 779,
      "顯": 780,
      "颜": 781,
      "马": 782,
      "高": 783,
      "龍": 784,
      "ﷲ": 785,
      "ﻋ": 786,
      "／": 787,
      "３": 788,
      "～": 789,
      "##o": 790,
      "##n": 791,
      "##s": 792,
      "##c": 793,
      "##r": 794,
      "##i": 795,
      "##p": 796,
      "##t": 797,
      "##a": 798,
      "##e": 799,
      "##u": 800,
      "##f": 801,
      "##g": 802,
      "##l": 803,
      "##4": 804,
      "##3": 805,
      "##d": 806,
      "##h": 807,
      "##m": 808,
      "##8": 809,
      "##2": 810,
      "##6": 811,
      "##y": 812,
      "##z": 813,
      "##w": 814,
      "##v": 815,
      "##j": 816,
      "##x": 817,
      "##b": 818,
      "##k": 819,
      "##9": 820,
      "##0": 821,
      "##5": 822,
      "##1": 823,
      "##q": 824,
      "##7": 825,
      "##ე": 826,
      "##ს": 827,
      "##უ": 828,
      "##ʻ": 829,
      "##ل": 830,
      "##ر": 831,
      "##و": 832,
      "##ح": 833,
      "##ッ": 834,
      "##ク": 835,
      "##マ": 836,
      "##ン": 837,
      "##º": 838,
      "##แ": 839,
      "##ก": 840,
      "##ツ": 841,
      "##ネ": 842,
      "##ル": 843,
      "##レ": 844,
      "##イ": 845,
      "##ø": 846,
      "##セ": 847,
      "##リ": 848,
      "##オ": 849,
      "##ス": 850,
      "##ხ": 851,
      "##ვ": 852,
      "##ი": 853,
      "##व": 854,
      "##ा": 855,
      "##द": 856,
      "##ł": 857,
      "##đ": 858,
      "##シ": 859,
      "##ョ": 860,
      "##ː": 861,
      "##ω": 862,
      "##и": 863,
      "##ш": 864,
      "##н": 865,
      "##е": 866,
      "##в": 867,
      "##ц": 868,
      "##ь": 869,
      "##к": 870,
      "##ל": 871,
      "##ה": 872,
      "##ق": 873,
      "##د": 874,
      "##س": 875,
      "##ا": 876,
      "##ب": 877,
      "##ˈ": 878,
      "##つ": 879,
      "##を": 880,
      "##æ": 881,
      "##ش": 882,
      "##ي": 883,
      "##خ": 884,
      "##た": 885,
      "##り": 886,
      "##の": 887,
      "##ʃ": 888,
      "##อ": 889,
      "##ว": 890,
      "##ร": 891,
      "##ო": 892,
      "##მ": 893,
      "##ლ": 894,
      "##ɑ": 895,
      "##ə": 896,
      "##い": 897,
      "##რ": 898,
      "##ტ": 899,
      "##ჲ": 900,
      "##ォ": 901,
      "##テ": 902,
      "##ν": 903,
      "##θ": 904,
      "##η": 905,
      "##μ": 906,
      "##ο": 907,
      "##ι": 908,
      "##α": 909,
      "##ɪ": 910,
      "##ð": 911,
      "##ك": 912,
      "##ら": 913,
      "##カ": 914,
      "##ラ": 915,
      "##ᅦ": 916,
      "##ᄃ": 917,
      "##ᅩ": 918,
      "##ᆨ": 919,
      "##ᄅ": 920,
      "##ᅵ": 921,
      "##ᆸ": 922,
      "##ᄇ": 923,
      "##ᅧ": 924,
      "##ᆼ": 925,
      "##ᄋ": 926,
      "##ᆫ": 927,
      "##ᅢ": 928,
      "##ن": 929,
      "##ാ": 930,
      "##ഹ": 931,
      "##χ": 932,
      "##ו": 933,
      "##פ": 934,
      "##พ": 935,
      "##ল": 936,
      "##ש": 937,
      "##מ": 938,
      "##צ": 939,
      "##ウ": 940,
      "##ァ": 941,
      "##キ": 942,
      "##ュ": 943,
      "##ア": 944,
      "##ნ": 945,
      "##ʿ": 946,
      "##נ": 947,
      "##а": 948,
      "##т": 949,
      "##р": 950,
      "##с": 951,
      "##з": 952,
      "##τ": 953,
      "##κ": 954,
      "##ρ": 955,
      "##ς": 956,
      "##ε": 957,
      "##י": 958,
      "##せ": 959,
      "##ん": 960,
      "##א": 961,
      "##ー": 962,
      "##フ": 963,
      "##し": 964,
      "##す": 965,
      "##き": 966,
      "##な": 967,
      "##ひ": 968,
      "##と": 969,
      "##は": 970,
      "##ψ": 971,
      "##ਲ": 972,
      "##ਾ": 973,
      "##ਹ": 974,
      "##ß": 975,
      "##л": 976,
      "##х": 977,
      "##დ": 978,
      "##ه": 979,
      "##ะ": 980,
      "##ช": 981,
      "##น": 982,
      "##ण": 983,
      "##ि": 984,
      "##ग": 985,
      "##о": 986,
      "##ع": 987,
      "##ة": 988,
      "##こ": 989,
      "##ف": 990,
      "##３": 991,
      "##ذ": 992,
      "##ภ": 993,
      "##า": 994,
      "##ด": 995,
      "##र": 996,
      "##გ": 997,
      "##ა": 998,
      "##ɽ": 999,
      "##ც": 1000,
      "##ई": 1001,
      "##я": 1002,
      "##ह": 1003,
      "##わ": 1004,
      "##ィ": 1005,
      "##π": 1006,
      "##ɔ": 1007,
      "##م": 1008,
      "##ɒ": 1009,
      "##ܕ": 1010,
      "##ܝ": 1011,
      "##ܢ": 1012,
      "##ܬ": 1013,
      "##ן": 1014,
      "##δ": 1015,
      "##タ": 1016,
      "##ム": 1017,
      "##チ": 1018,
      "##ェ": 1019,
      "##も": 1020,
      "##っ": 1021,
      "##д": 1022,
      "##ъ": 1023,
      "##ж": 1024,
      "##ま": 1025,
      "##る": 1026,
      "##ı": 1027,
      "##か": 1028,
      "##წ": 1029,
      "##ფ": 1030,
      "##ჳ": 1031,
      "##ɳ": 1032,
      "##お": 1033,
      "##ქ": 1034,
      "##ɾ": 1035,
      "##ʲ": 1036,
      "##ษ": 1037,
      "##ฐ": 1038,
      "##ᵻ": 1039,
      "##ʊ": 1040,
      "##ล": 1041,
      "##ย": 1042,
      "##ณ": 1043,
      "##ม": 1044,
      "##ต": 1045,
      "##ɛ": 1046,
      "##ト": 1047,
      "##ゥ": 1048,
      "##ナ": 1049,
      "##β": 1050,
      "##ב": 1051,
      "##ת": 1052,
      "##ノ": 1053,
      "##п": 1054,
      "##г": 1055,
      "##う": 1056,
      "##ث": 1057,
      "##ت": 1058,
      "##エ": 1059,
      "##ฮ": 1060,
      "##υ": 1061,
      "##ξ": 1062,
      "##ᅡ": 1063,
      "##ᆯ": 1064,
      "##サ": 1065,
      "##თ": 1066,
      "##є": 1067,
      "##λ": 1068,
      "##ы": 1069,
      "##ʒ": 1070,
      "##れ": 1071,
      "##ハ": 1072,
      "##ป": 1073,
      "##ャ": 1074,
      "##モ": 1075,
      "##क": 1076,
      "##ɫ": 1077,
      "##め": 1078,
      "##เ": 1079,
      "##く": 1080,
      "##あ": 1081,
      "##ჱ": 1082,
      "##ニ": 1083,
      "##ס": 1084,
      "##み": 1085,
      "##ɡ": 1086,
      "##ง": 1087,
      "##ไ": 1088,
      "##न": 1089,
      "##γ": 1090,
      "##ם": 1091,
      "##ю": 1092,
      "##ʔ": 1093,
      "##ち": 1094,
      "##ゃ": 1095,
      "##া": 1096,
      "##হ": 1097,
      "##ള": 1098,
      "##œ": 1099,
      "##ロ": 1100,
      "##ค": 1101,
      "##ซ": 1102,
      "##ף": 1103,
      "##у": 1104,
      "##ल": 1105,
      "##ء": 1106,
      "##σ": 1107,
      "##ɜ": 1108,
      "##ゆ": 1109,
      "##स": 1110,
      "##ᅮ": 1111,
      "##ص": 1112,
      "##ɐ": 1113,
      "##ょ": 1114,
      "##に": 1115,
      "##ר": 1116,
      "##ʁ": 1117,
      "##ˌ": 1118,
      "##ܠ": 1119,
      "##ܗ": 1120,
      "##ܐ": 1121,
      "##м": 1122,
      "##ミ": 1123,
      "th": 1124,
      "the": 1125,
      "##er": 1126,
      "##in": 1127,
      "##ed": 1128,
      "##on": 1129,
      "##nd": 1130,
      "##es": 1131,
      "##at": 1132,
      "##or": 1133,
      "##en": 1134,
      "##ar": 1135,
      "in": 1136,
      "of": 1137,
      "##an": 1138,
      "##al": 1139,
      "##it": 1140,
      "##ing": 1141,
      "##as": 1142,
      "and": 1143,
      "##is": 1144,
      "to": 1145,
      "##ic": 1146,
      "##ou": 1147,
      "##ion": 1148,
      "##re": 1149,
      "##om": 1150,
      "##el": 1151,
      "##il": 1152,
      "##ec": 1153,
      "##ent": 1154,
      "##th": 1155,
      "##st": 1156,
      "##am": 1157,
      "##ur": 1158,
      "##ad": 1159,
      "on": 1160,
      "##le": 1161,
      "##ac": 1162,
      "##ro": 1163,
      "was": 1164,
      "st": 1165,
      "##et": 1166,
      "for": 1167,
      "##ly": 1168,
      "##ol": 1169,
      "##ir": 1170,
      "as": 1171,
      "wh": 1172,
      "##iv": 1173,
      "##id": 1174,
      "##ter": 1175,
      "##ig": 1176,
      "re": 1177,
      "##ith": 1178,
      "##ow": 1179,
      "be": 1180,
      "al": 1181,
      "##ay": 1182,
      "##im": 1183,
      "##ch": 1184,
      "with": 1185,
      "that": 1186,
      "##ation": 1187,
      "is": 1188,
      "it": 1189,
      "##ut": 1190,
      "##ers": 1191,
      "##em": 1192,
      "con": 1193,
      "##ot": 1194,
      "fr": 1195,
      "by": 1196,
      "an": 1197,
      "at": 1198,
      "##us": 1199,
      "ch": 1200,
      "##ul": 1201,
      "##ce": 1202,
      "he": 1203,
      "##ver": 1204,
      "##os": 1205,
      "##and": 1206,
      "##est": 1207,
      "sh": 1208,
      "##ain": 1209,
      "##ag": 1210,
      "19": 1211,
      "##um": 1212,
      "com": 1213,
      "##av": 1214,
      "his": 1215,
      "##ere": 1216,
      "##od": 1217,
      "from": 1218,
      "su": 1219,
      "##ess": 1220,
      "se": 1221,
      "pro": 1222,
      "##op": 1223,
      "##ct": 1224,
      "de": 1225,
      "##ri": 1226,
      "##ap": 1227,
      "##ist": 1228,
      "20": 1229,
      "##ies": 1230,
      "##un": 1231,
      "##ect": 1232,
      "ne": 1233,
      "##igh": 1234,
      "or": 1235,
      "##if": 1236,
      "##ill": 1237,
      "were": 1238,
      "##ak": 1239,
      "##ab": 1240,
      "pl": 1241,
      "##all": 1242,
      "ar": 1243,
      "##ld": 1244,
      "##ich": 1245,
      "##ate": 1246,
      "##ong": 1247,
      "##ard": 1248,
      "ex": 1249,
      "##ort": 1250,
      "##oc": 1251,
      "##art": 1252,
      "un": 1253,
      "##ish": 1254,
      "##ther": 1255,
      "##ant": 1256,
      "##pp": 1257,
      "##ber": 1258,
      "##ud": 1259,
      "le": 1260,
      "##gh": 1261,
      "pr": 1262,
      "##ated": 1263,
      "sp": 1264,
      "tr": 1265,
      "##ity": 1266,
      "##se": 1267,
      "##ame": 1268,
      "are": 1269,
      "##ive": 1270,
      "en": 1271,
      "##ie": 1272,
      "##ore": 1273,
      "had": 1274,
      "##ack": 1275,
      "##ear": 1276,
      "##ough": 1277,
      "which": 1278,
      "##ov": 1279,
      "##ge": 1280,
      "##ell": 1281,
      "##ast": 1282,
      "not": 1283,
      "##ian": 1284,
      "##our": 1285,
      "##ound": 1286,
      "##ip": 1287,
      "##ally": 1288,
      "##ine": 1289,
      "##ord": 1290,
      "af": 1291,
      "##pt": 1292,
      "rec": 1293,
      "##ment": 1294,
      "##ia": 1295,
      "##ost": 1296,
      "##rit": 1297,
      "##ight": 1298,
      "her": 1299,
      "comp": 1300,
      "##ave": 1301,
      "##oun": 1302,
      "##ue": 1303,
      "fir": 1304,
      "##cc": 1305,
      "cl": 1306,
      "##ary": 1307,
      "this": 1308,
      "##ust": 1309,
      "ad": 1310,
      "but": 1311,
      "##ous": 1312,
      "200": 1313,
      "wor": 1314,
      "tw": 1315,
      "their": 1316,
      "##te": 1317,
      "inc": 1318,
      "##ach": 1319,
      "first": 1320,
      "bo": 1321,
      "ab": 1322,
      "##og": 1323,
      "sc": 1324,
      "its": 1325,
      "cont": 1326,
      "##so": 1327,
      "gr": 1328,
      "##ions": 1329,
      "man": 1330,
      "##qu": 1331,
      "##ould": 1332,
      "##ial": 1333,
      "##ure": 1334,
      "after": 1335,
      "##ath": 1336,
      "one": 1337,
      "all": 1338,
      "they": 1339,
      "##ome": 1340,
      "am": 1341,
      "##ical": 1342,
      "##ra": 1343,
      "int": 1344,
      "also": 1345,
      "res": 1346,
      "per": 1347,
      "##ub": 1348,
      "##ok": 1349,
      "##out": 1350,
      "##per": 1351,
      "##ide": 1352,
      "##ater": 1353,
      "rel": 1354,
      "ro": 1355,
      "tim": 1356,
      "mar": 1357,
      "new": 1358,
      "two": 1359,
      "us": 1360,
      "##ire": 1361,
      "fe": 1362,
      "##ass": 1363,
      "comm": 1364,
      "##oll": 1365,
      "##00": 1366,
      "##age": 1367,
      "##ign": 1368,
      "have": 1369,
      "##ru": 1370,
      "##own": 1371,
      "has": 1372,
      "##orm": 1373,
      "##ence": 1374,
      "##ree": 1375,
      "des": 1376,
      "app": 1377,
      "ser": 1378,
      "bec": 1379,
      "##ond": 1380,
      "been": 1381,
      "ag": 1382,
      "play": 1383,
      "part": 1384,
      "who": 1385,
      "dis": 1386,
      "go": 1387,
      "18": 1388,
      "##ry": 1389,
      "##ans": 1390,
      "##land": 1391,
      "##uring": 1392,
      "##ile": 1393,
      "##ted": 1394,
      "##ely": 1395,
      "im": 1396,
      "year": 1397,
      "she": 1398,
      "##pl": 1399,
      "me": 1400,
      "ev": 1401,
      "##iz": 1402,
      "car": 1403,
      "##ition": 1404,
      "##ance": 1405,
      "##ff": 1406,
      "##du": 1407,
      "##ade": 1408,
      "br": 1409,
      "##lud": 1410,
      "we": 1411,
      "##ations": 1412,
      "##ang": 1413,
      "##wn": 1414,
      "fin": 1415,
      "off": 1416,
      "over": 1417,
      "##ory": 1418,
      "201": 1419,
      "##ib": 1420,
      "co": 1421,
      "##ens": 1422,
      "out": 1423,
      "up": 1424,
      "other": 1425,
      "##ite": 1426,
      "pre": 1427,
      "##ult": 1428,
      "can": 1429,
      "fl": 1430,
      "##pr": 1431,
      "during": 1432,
      "##act": 1433,
      "##ric": 1434,
      "when": 1435,
      "cent": 1436,
      "nor": 1437,
      "includ": 1438,
      "ind": 1439,
      "dec": 1440,
      "##ke": 1441,
      "inter": 1442,
      "##urn": 1443,
      "time": 1444,
      "##ount": 1445,
      "##nder": 1446,
      "##ace": 1447,
      "##ember": 1448,
      "##ice": 1449,
      "po": 1450,
      "song": 1451,
      "ear": 1452,
      "##ents": 1453,
      "##ks": 1454,
      "##one": 1455,
      "##we": 1456,
      "into": 1457,
      "##ced": 1458,
      "att": 1459,
      "##ose": 1460,
      "##ail": 1461,
      "sec": 1462,
      "more": 1463,
      "bl": 1464,
      "te": 1465,
      "##ied": 1466,
      "would": 1467,
      "form": 1468,
      "##ward": 1469,
      "sou": 1470,
      "act": 1471,
      "##man": 1472,
      "##amp": 1473,
      "##port": 1474,
      "par": 1475,
      "##able": 1476,
      "##ason": 1477,
      "him": 1478,
      "char": 1479,
      "jo": 1480,
      "most": 1481,
      "##ited": 1482,
      "##ased": 1483,
      "##ings": 1484,
      "##rib": 1485,
      "##ces": 1486,
      "bet": 1487,
      "kn": 1488,
      "no": 1489,
      "##ix": 1490,
      "##ase": 1491,
      "##ild": 1492,
      "##ates": 1493,
      "mus": 1494,
      "##ious": 1495,
      "acc": 1496,
      "game": 1497,
      "high": 1498,
      "some": 1499,
      "##old": 1500,
      "##als": 1501,
      "##les": 1502,
      "while": 1503,
      "rem": 1504,
      "cons": 1505,
      "ass": 1506,
      "##way": 1507,
      "may": 1508,
      "##ake": 1509,
      "them": 1510,
      "##ors": 1511,
      "##iss": 1512,
      "reg": 1513,
      "thr": 1514,
      "only": 1515,
      "##ph": 1516,
      "there": 1517,
      "##lish": 1518,
      "how": 1519,
      "war": 1520,
      "##ts": 1521,
      "eng": 1522,
      "fil": 1523,
      "##fer": 1524,
      "under": 1525,
      "gen": 1526,
      "##gan": 1527,
      "##aus": 1528,
      "pe": 1529,
      "##vel": 1530,
      "record": 1531,
      "##form": 1532,
      "three": 1533,
      "##aw": 1534,
      "##ood": 1535,
      "##ved": 1536,
      "##gr": 1537,
      "min": 1538,
      "later": 1539,
      "about": 1540,
      "##ick": 1541,
      "##eld": 1542,
      "north": 1543,
      "so": 1544,
      "em": 1545,
      "##ollow": 1546,
      "through": 1547,
      "el": 1548,
      "##ween": 1549,
      "##reat": 1550,
      "between": 1551,
      "li": 1552,
      "work": 1553,
      "film": 1554,
      "again": 1555,
      "follow": 1556,
      "bu": 1557,
      "mon": 1558,
      "than": 1559,
      "##att": 1560,
      "season": 1561,
      "ac": 1562,
      "##ey": 1563,
      "qu": 1564,
      "end": 1565,
      "199": 1566,
      "##ered": 1567,
      "##ug": 1568,
      "day": 1569,
      "ma": 1570,
      "##ock": 1571,
      "writ": 1572,
      "sy": 1573,
      "##ular": 1574,
      "win": 1575,
      "rev": 1576,
      "##ational": 1577,
      "##ict": 1578,
      "num": 1579,
      "##ral": 1580,
      "##ft": 1581,
      "##hn": 1582,
      "##ction": 1583,
      "##ters": 1584,
      "##ons": 1585,
      "lar": 1586,
      "col": 1587,
      "produ": 1588,
      "pos": 1589,
      "sub": 1590,
      "spec": 1591,
      "south": 1592,
      "##ision": 1593,
      "##iew": 1594,
      "do": 1595,
      "##fore": 1596,
      "ret": 1597,
      "def": 1598,
      "mov": 1599,
      "##ames": 1600,
      "##eric": 1601,
      "second": 1602,
      "##hip": 1603,
      "rele": 1604,
      "gu": 1605,
      "bro": 1606,
      "##orn": 1607,
      "alb": 1608,
      "where": 1609,
      "sch": 1610,
      "four": 1611,
      "made": 1612,
      "pres": 1613,
      "ph": 1614,
      "##ury": 1615,
      "pub": 1616,
      "sa": 1617,
      "cap": 1618,
      "city": 1619,
      "such": 1620,
      "dr": 1621,
      "##ating": 1622,
      "##olog": 1623,
      "##end": 1624,
      "americ": 1625,
      "before": 1626,
      "world": 1627,
      "sur": 1628,
      "air": 1629,
      "##ery": 1630,
      "album": 1631,
      "##ived": 1632,
      "str": 1633,
      "call": 1634,
      "ep": 1635,
      "used": 1636,
      "##ual": 1637,
      "series": 1638,
      "##lic": 1639,
      "##ever": 1640,
      "##tern": 1641,
      "##ss": 1642,
      "sever": 1643,
      "##ific": 1644,
      "000": 1645,
      "supp": 1646,
      "##ily": 1647,
      "being": 1648,
      "gener": 1649,
      "sing": 1650,
      "both": 1651,
      "many": 1652,
      "pol": 1653,
      "these": 1654,
      "found": 1655,
      "sm": 1656,
      "op": 1657,
      "pop": 1658,
      "set": 1659,
      "##ning": 1660,
      "loc": 1661,
      "10": 1662,
      "years": 1663,
      "##urch": 1664,
      "##ected": 1665,
      "stud": 1666,
      "##red": 1667,
      "sim": 1668,
      "however": 1669,
      "count": 1670,
      "##ane": 1671,
      "##io": 1672,
      "add": 1673,
      "trans": 1674,
      "##ics": 1675,
      "##ird": 1676,
      "will": 1677,
      "##int": 1678,
      "dire": 1679,
      "well": 1680,
      "long": 1681,
      "div": 1682,
      "##ained": 1683,
      "star": 1684,
      "##ten": 1685,
      "number": 1686,
      "##ised": 1687,
      "12": 1688,
      "##air": 1689,
      "then": 1690,
      "bel": 1691,
      "##ause": 1692,
      "##ale": 1693,
      "ter": 1694,
      "##led": 1695,
      "##ode": 1696,
      "cro": 1697,
      "##ities": 1698,
      "##other": 1699,
      "##ier": 1700,
      "##ron": 1701,
      "arm": 1702,
      "##igin": 1703,
      "##ines": 1704,
      "mill": 1705,
      "inv": 1706,
      "back": 1707,
      "art": 1708,
      "epis": 1709,
      "batt": 1710,
      "several": 1711,
      "appear": 1712,
      "##ince": 1713,
      "origin": 1714,
      "##oy": 1715,
      "##atch": 1716,
      "##ement": 1717,
      "##ank": 1718,
      "##ise": 1719,
      "including": 1720,
      "16": 1721,
      "##ton": 1722,
      "##velop": 1723,
      "brit": 1724,
      "##ep": 1725,
      "main": 1726,
      "against": 1727,
      "##ife": 1728,
      "inst": 1729,
      "state": 1730,
      "##ve": 1731,
      "known": 1732,
      "##its": 1733,
      "##iver": 1734,
      "became": 1735,
      "##oup": 1736,
      "ob": 1737,
      "##ann": 1738,
      "charac": 1739,
      "port": 1740,
      "team": 1741,
      "music": 1742,
      "##ection": 1743,
      "##ins": 1744,
      "sl": 1745,
      "perform": 1746,
      "desc": 1747,
      "cre": 1748,
      "nov": 1749,
      "##ield": 1750,
      "direct": 1751,
      "est": 1752,
      "show": 1753,
      "met": 1754,
      "##ures": 1755,
      "inf": 1756,
      "mil": 1757,
      "##ful": 1758,
      "conc": 1759,
      "198": 1760,
      "##iet": 1761,
      "oper": 1762,
      "##ower": 1763,
      "develop": 1764,
      "##though": 1765,
      "although": 1766,
      "united": 1767,
      "hist": 1768,
      "15": 1769,
      "##are": 1770,
      "##til": 1771,
      "##els": 1772,
      "##uc": 1773,
      "early": 1774,
      "cr": 1775,
      "##ern": 1776,
      "11": 1777,
      "john": 1778,
      "rece": 1779,
      "##rop": 1780,
      "const": 1781,
      "century": 1782,
      "lead": 1783,
      "old": 1784,
      "dep": 1785,
      "land": 1786,
      "crit": 1787,
      "##any": 1788,
      "17": 1789,
      "following": 1790,
      "##yl": 1791,
      "##ool": 1792,
      "near": 1793,
      "bar": 1794,
      "dist": 1795,
      "sign": 1796,
      "though": 1797,
      "down": 1798,
      "contin": 1799,
      "##ork": 1800,
      "##uch": 1801,
      "##ative": 1802,
      "##up": 1803,
      "##ert": 1804,
      "run": 1805,
      "##0s": 1806,
      "##elf": 1807,
      "##ley": 1808,
      "like": 1809,
      "##vern": 1810,
      "comple": 1811,
      "##ather": 1812,
      "##sp": 1813,
      "dif": 1814,
      "194": 1815,
      "##ah": 1816,
      "var": 1817,
      "ste": 1818,
      "##der": 1819,
      "##son": 1820,
      "##ject": 1821,
      "##ually": 1822,
      "open": 1823,
      "began": 1824,
      "church": 1825,
      "##az": 1826,
      "along": 1827,
      "##iam": 1828,
      "##ized": 1829,
      "because": 1830,
      "disc": 1831,
      "ed": 1832,
      "lo": 1833,
      "##ains": 1834,
      "196": 1835,
      "could": 1836,
      "##emb": 1837,
      "prov": 1838,
      "govern": 1839,
      "did": 1840,
      "describ": 1841,
      "197": 1842,
      "##row": 1843,
      "called": 1844,
      "ever": 1845,
      "fam": 1846,
      "red": 1847,
      "episode": 1848,
      "ann": 1849,
      "peop": 1850,
      "six": 1851,
      "##une": 1852,
      "##ued": 1853,
      "##au": 1854,
      "##ession": 1855,
      "king": 1856,
      "##yp": 1857,
      "dam": 1858,
      "said": 1859,
      "until": 1860,
      "##ined": 1861,
      "##aking": 1862,
      "ship": 1863,
      "##aph": 1864,
      "##ope": 1865,
      "hel": 1866,
      "feat": 1867,
      "area": 1868,
      "##ivers": 1869,
      "##enn": 1870,
      "ger": 1871,
      "american": 1872,
      "states": 1873,
      "prev": 1874,
      "##ments": 1875,
      "group": 1876,
      "west": 1877,
      "people": 1878,
      "##itt": 1879,
      "##lished": 1880,
      "start": 1881,
      "exp": 1882,
      "##gest": 1883,
      "adv": 1884,
      "resp": 1885,
      "##ium": 1886,
      "aust": 1887,
      "##ull": 1888,
      "##ured": 1889,
      "since": 1890,
      "##ove": 1891,
      "any": 1892,
      "head": 1893,
      "##amed": 1894,
      "you": 1895,
      "##rol": 1896,
      "pass": 1897,
      "each": 1898,
      "pers": 1899,
      "##ind": 1900,
      "##ccess": 1901,
      "same": 1902,
      "return": 1903,
      "##eng": 1904,
      "##ange": 1905,
      "chr": 1906,
      "released": 1907,
      "design": 1908,
      "british": 1909,
      "##ided": 1910,
      "offic": 1911,
      "mod": 1912,
      "national": 1913,
      "##ruct": 1914,
      "own": 1915,
      "##ont": 1916,
      "##ially": 1917,
      "##ists": 1918,
      "around": 1919,
      "maj": 1920,
      "##oman": 1921,
      "##tend": 1922,
      "occ": 1923,
      "##cept": 1924,
      "##thern": 1925,
      "##oot": 1926,
      "book": 1927,
      "ju": 1928,
      "km": 1929,
      "##ele": 1930,
      "wee": 1931,
      "million": 1932,
      "##ty": 1933,
      "aug": 1934,
      "##osed": 1935,
      "##ible": 1936,
      "id": 1937,
      "##ouse": 1938,
      "13": 1939,
      "use": 1940,
      "five": 1941,
      "mag": 1942,
      "##ently": 1943,
      "##res": 1944,
      "best": 1945,
      "##ism": 1946,
      "august": 1947,
      "gre": 1948,
      "small": 1949,
      "eff": 1950,
      "miss": 1951,
      "support": 1952,
      "major": 1953,
      "road": 1954,
      "med": 1955,
      "##ash": 1956,
      "camp": 1957,
      "town": 1958,
      "school": 1959,
      "my": 1960,
      "##stem": 1961,
      "##ony": 1962,
      "command": 1963,
      "##uth": 1964,
      "company": 1965,
      "another": 1966,
      "##eer": 1967,
      "##ues": 1968,
      "##oss": 1969,
      "success": 1970,
      "##xt": 1971,
      "##anc": 1972,
      "final": 1973,
      "rep": 1974,
      "sept": 1975,
      "if": 1976,
      "##ets": 1977,
      "consid": 1978,
      "river": 1979,
      "bre": 1980,
      "just": 1981,
      "serv": 1982,
      "prot": 1983,
      "##ident": 1984,
      "eur": 1985,
      "##omin": 1986,
      "195": 1987,
      "imp": 1988,
      "character": 1989,
      "coll": 1990,
      "ra": 1991,
      "attack": 1992,
      "fur": 1993,
      "great": 1994,
      "##ales": 1995,
      "september": 1996,
      "system": 1997,
      "award": 1998,
      "conf": 1999,
      "line": 2000,
      "report": 2001,
      "##aining": 2002,
      "mid": 2003,
      "##app": 2004,
      "ext": 2005,
      "large": 2006,
      "what": 2007,
      "public": 2008,
      "tit": 2009,
      "##ina": 2010,
      "games": 2011,
      "hum": 2012,
      "austral": 2013,
      "cor": 2014,
      "arr": 2015,
      "class": 2016,
      "av": 2017,
      "gl": 2018,
      "##ys": 2019,
      "##ob": 2020,
      "##ked": 2021,
      "short": 2022,
      "black": 2023,
      "det": 2024,
      "tri": 2025,
      "storm": 2026,
      "due": 2027,
      "life": 2028,
      "child": 2029,
      "193": 2030,
      "la": 2031,
      "water": 2032,
      "ge": 2033,
      "##ms": 2034,
      "##ble": 2035,
      "rest": 2036,
      "##ient": 2037,
      "##ution": 2038,
      "##und": 2039,
      "arch": 2040,
      "##ired": 2041,
      "191": 2042,
      "##ural": 2043,
      "##ute": 2044,
      "##aced": 2045,
      "last": 2046,
      "now": 2047,
      "##ague": 2048,
      "##aving": 2049,
      "ent": 2050,
      "even": 2051,
      "##ored": 2052,
      "14": 2053,
      "june": 2054,
      "east": 2055,
      "ii": 2056,
      "oct": 2057,
      "late": 2058,
      "way": 2059,
      "##ately": 2060,
      "##ives": 2061,
      "jan": 2062,
      "##ats": 2063,
      "##dom": 2064,
      "##ilt": 2065,
      "name": 2066,
      "##ene": 2067,
      "partic": 2068,
      "turn": 2069,
      "german": 2070,
      "build": 2071,
      "reach": 2072,
      "received": 2073,
      "island": 2074,
      "government": 2075,
      "home": 2076,
      "review": 2077,
      "##cl": 2078,
      "accord": 2079,
      "much": 2080,
      "vers": 2081,
      "described": 2082,
      "univers": 2083,
      "dem": 2084,
      "har": 2085,
      "vide": 2086,
      "ins": 2087,
      "ant": 2088,
      "vis": 2089,
      "within": 2090,
      "gun": 2091,
      "christ": 2092,
      "incre": 2093,
      "##over": 2094,
      "cour": 2095,
      "##ech": 2096,
      "ele": 2097,
      "hal": 2098,
      "men": 2099,
      "march": 2100,
      "top": 2101,
      "god": 2102,
      "##ober": 2103,
      "##ages": 2104,
      "ke": 2105,
      "##uary": 2106,
      "##aged": 2107,
      "club": 2108,
      "del": 2109,
      "##ead": 2110,
      "##by": 2111,
      "sk": 2112,
      "species": 2113,
      "general": 2114,
      "october": 2115,
      "played": 2116,
      "according": 2117,
      "##ling": 2118,
      "sw": 2119,
      "took": 2120,
      "##gin": 2121,
      "##ified": 2122,
      "##ting": 2123,
      "times": 2124,
      "capt": 2125,
      "##aim": 2126,
      "##rote": 2127,
      "##empt": 2128,
      "##ively": 2129,
      "ref": 2130,
      "intern": 2131,
      "##ae": 2132,
      "##ody": 2133,
      "##erv": 2134,
      "25": 2135,
      "third": 2136,
      "death": 2137,
      "power": 2138,
      "typ": 2139,
      "july": 2140,
      "wrote": 2141,
      "##ants": 2142,
      "single": 2143,
      "won": 2144,
      "league": 2145,
      "##ility": 2146,
      "family": 2147,
      "##eal": 2148,
      "##iving": 2149,
      "track": 2150,
      "apr": 2151,
      "differ": 2152,
      "##ians": 2153,
      "soc": 2154,
      "event": 2155,
      "organ": 2156,
      "allow": 2157,
      "appro": 2158,
      "based": 2159,
      "control": 2160,
      "##ball": 2161,
      "stre": 2162,
      "sol": 2163,
      "white": 2164,
      "hur": 2165,
      "##ren": 2166,
      "dest": 2167,
      "##ner": 2168,
      "poss": 2169,
      "##ropical": 2170,
      "april": 2171,
      "##ven": 2172,
      "##ink": 2173,
      "progr": 2174,
      "##ology": 2175,
      "included": 2176,
      "tem": 2177,
      "##ides": 2178,
      "common": 2179,
      "story": 2180,
      "left": 2181,
      "val": 2182,
      "##ital": 2183,
      "bas": 2184,
      "##eder": 2185,
      "##ogr": 2186,
      "##iod": 2187,
      "##ai": 2188,
      "those": 2189,
      "belie": 2190,
      "estab": 2191,
      "division": 2192,
      "video": 2193,
      "named": 2194,
      "very": 2195,
      "##ically": 2196,
      "january": 2197,
      "addition": 2198,
      "##akes": 2199,
      "30": 2200,
      "attempt": 2201,
      "list": 2202,
      "york": 2203,
      "auth": 2204,
      "##ew": 2205,
      "england": 2206,
      "house": 2207,
      "##atter": 2208,
      "result": 2209,
      "hand": 2210,
      "previous": 2211,
      "##aur": 2212,
      "prom": 2213,
      "period": 2214,
      "eas": 2215,
      "vill": 2216,
      "expl": 2217,
      "foot": 2218,
      "conv": 2219,
      "##itch": 2220,
      "leg": 2221,
      "##ll": 2222,
      "##ention": 2223,
      "bus": 2224,
      "enter": 2225,
      "original": 2226,
      "far": 2227,
      "##itions": 2228,
      "##ought": 2229,
      "vict": 2230,
      "##ilar": 2231,
      "heav": 2232,
      "##ps": 2233,
      "##ham": 2234,
      "month": 2235,
      "november": 2236,
      "kill": 2237,
      "##ik": 2238,
      "##ared": 2239,
      "##ops": 2240,
      "place": 2241,
      "##ark": 2242,
      "cal": 2243,
      "mo": 2244,
      "##que": 2245,
      "##ature": 2246,
      "som": 2247,
      "##ulation": 2248,
      "##ances": 2249,
      "commun": 2250,
      "##ograph": 2251,
      "##med": 2252,
      "light": 2253,
      "##raft": 2254,
      "##ished": 2255,
      "europe": 2256,
      "built": 2257,
      "##ards": 2258,
      "field": 2259,
      "sug": 2260,
      "opp": 2261,
      "##bo": 2262,
      "champ": 2263,
      "december": 2264,
      "sent": 2265,
      "##ench": 2266,
      "real": 2267,
      "among": 2268,
      "##ience": 2269,
      "stand": 2270,
      "##mer": 2271,
      "192": 2272,
      "##let": 2273,
      "songs": 2274,
      "led": 2275,
      "repr": 2276,
      "make": 2277,
      "milit": 2278,
      "##ime": 2279,
      "similar": 2280,
      "init": 2281,
      "further": 2282,
      "match": 2283,
      "##ler": 2284,
      "100": 2285,
      "wind": 2286,
      "##iven": 2287,
      "player": 2288,
      "pat": 2289,
      "still": 2290,
      "requ": 2291,
      "mark": 2292,
      "local": 2293,
      "person": 2294,
      "##ense": 2295,
      "##ented": 2296,
      "cur": 2297,
      "law": 2298,
      "tropical": 2299,
      "##inc": 2300,
      "next": 2301,
      "bill": 2302,
      "view": 2303,
      "##ars": 2304,
      "youn": 2305,
      "##sc": 2306,
      "##iation": 2307,
      "##por": 2308,
      "##ger": 2309,
      "##br": 2310,
      "tot": 2311,
      "##ness": 2312,
      "##uss": 2313,
      "squ": 2314,
      "##gy": 2315,
      "tour": 2316,
      "pri": 2317,
      "##ences": 2318,
      "super": 2319,
      "trad": 2320,
      "##ison": 2321,
      "cle": 2322,
      "##sh": 2323,
      "##aster": 2324,
      "2009": 2325,
      "exper": 2326,
      "rock": 2327,
      "repl": 2328,
      "came": 2329,
      "iss": 2330,
      "brig": 2331,
      "2010": 2332,
      "tele": 2333,
      "##bs": 2334,
      "import": 2335,
      "every": 2336,
      "low": 2337,
      "2008": 2338,
      "right": 2339,
      "say": 2340,
      "band": 2341,
      "side": 2342,
      "role": 2343,
      "moved": 2344,
      "histor": 2345,
      "fre": 2346,
      "##line": 2347,
      "##min": 2348,
      "without": 2349,
      "plan": 2350,
      "university": 2351,
      "often": 2352,
      "##ott": 2353,
      "##aken": 2354,
      "history": 2355,
      "##ged": 2356,
      "love": 2357,
      "recorded": 2358,
      "few": 2359,
      "##ruction": 2360,
      "##aff": 2361,
      "##ival": 2362,
      "coun": 2363,
      "hurric": 2364,
      "##ush": 2365,
      "contr": 2366,
      "##ength": 2367,
      "##ories": 2368,
      "considered": 2369,
      "suggest": 2370,
      "mor": 2371,
      "caus": 2372,
      "rad": 2373,
      "##bert": 2374,
      "less": 2375,
      "memb": 2376,
      "military": 2377,
      "battal": 2378,
      "army": 2379,
      "beh": 2380,
      "order": 2381,
      "post": 2382,
      "see": 2383,
      "deb": 2384,
      "##ript": 2385,
      "level": 2386,
      "assoc": 2387,
      "polit": 2388,
      "tre": 2389,
      "effect": 2390,
      "park": 2391,
      "sold": 2392,
      "former": 2393,
      "cast": 2394,
      "##ister": 2395,
      "##elt": 2396,
      "##ady": 2397,
      "week": 2398,
      "english": 2399,
      "french": 2400,
      "2007": 2401,
      "prof": 2402,
      "wal": 2403,
      "claim": 2404,
      "point": 2405,
      "fire": 2406,
      "##thing": 2407,
      "take": 2408,
      "repres": 2409,
      "##ross": 2410,
      "##uted": 2411,
      "written": 2412,
      "published": 2413,
      "half": 2414,
      "different": 2415,
      "fun": 2416,
      "##ior": 2417,
      "spe": 2418,
      "##wards": 2419,
      "continued": 2420,
      "cy": 2421,
      "ang": 2422,
      "##wh": 2423,
      "##side": 2424,
      "##yle": 2425,
      "##ves": 2426,
      "##ico": 2427,
      "roy": 2428,
      "days": 2429,
      "project": 2430,
      "surv": 2431,
      "held": 2432,
      "##thers": 2433,
      "##ensive": 2434,
      "frie": 2435,
      "author": 2436,
      "refer": 2437,
      "strong": 2438,
      "ha": 2439,
      "desp": 2440,
      "##na": 2441,
      "##lu": 2442,
      "never": 2443,
      "21": 2444,
      "night": 2445,
      "##ada": 2446,
      "help": 2447,
      "##par": 2448,
      "feder": 2449,
      "pet": 2450,
      "press": 2451,
      "forces": 2452,
      "prop": 2453,
      "good": 2454,
      "obs": 2455,
      "nav": 2456,
      "force": 2457,
      "defe": 2458,
      "friend": 2459,
      "##ission": 2460,
      "find": 2461,
      "rou": 2462,
      "sound": 2463,
      "international": 2464,
      "cross": 2465,
      "having": 2466,
      "manag": 2467,
      "##estern": 2468,
      "##tended": 2469,
      "##ices": 2470,
      "##idge": 2471,
      "compet": 2472,
      "throughout": 2473,
      "23": 2474,
      "jack": 2475,
      "chang": 2476,
      "mount": 2477,
      "##itar": 2478,
      "hurricane": 2479,
      "##enc": 2480,
      "whe": 2481,
      "members": 2482,
      "gold": 2483,
      "##vision": 2484,
      "##ots": 2485,
      "become": 2486,
      "county": 2487,
      "particular": 2488,
      "##arn": 2489,
      "##raw": 2490,
      "total": 2491,
      "##augh": 2492,
      "champions": 2493,
      "##ret": 2494,
      "comb": 2495,
      "earl": 2496,
      "children": 2497,
      "ir": 2498,
      "##iter": 2499,
      "chart": 2500,
      "##erc": 2501,
      "2011": 2502,
      "##rodu": 2503,
      "grand": 2504,
      "title": 2505,
      "lost": 2506,
      "position": 2507,
      "##ize": 2508,
      "release": 2509,
      "roman": 2510,
      "##bru": 2511,
      "country": 2512,
      "rich": 2513,
      "##ple": 2514,
      "##ising": 2515,
      "##amb": 2516,
      "2006": 2517,
      "version": 2518,
      "24": 2519,
      "despite": 2520,
      "litt": 2521,
      "pal": 2522,
      "##roy": 2523,
      "sum": 2524,
      "popular": 2525,
      "26": 2526,
      "fem": 2527,
      "pa": 2528,
      "pur": 2529,
      "route": 2530,
      "don": 2531,
      "##ford": 2532,
      "22": 2533,
      "fle": 2534,
      "little": 2535,
      "want": 2536,
      "##ipp": 2537,
      "cover": 2538,
      "eight": 2539,
      "sit": 2540,
      "production": 2541,
      "##press": 2542,
      "reported": 2543,
      "program": 2544,
      "southern": 2545,
      "gave": 2546,
      "fort": 2547,
      "highway": 2548,
      "produced": 2549,
      "cult": 2550,
      "##ring": 2551,
      "##aces": 2552,
      "##ylan": 2553,
      "febru": 2554,
      "february": 2555,
      "dylan": 2556,
      "central": 2557,
      "stat": 2558,
      "ord": 2559,
      "critic": 2560,
      "geor": 2561,
      "ham": 2562,
      "##ailed": 2563,
      "free": 2564,
      "site": 2565,
      "##day": 2566,
      "once": 2567,
      "##iment": 2568,
      "given": 2569,
      "live": 2570,
      "##self": 2571,
      "##ests": 2572,
      "##ried": 2573,
      "television": 2574,
      "##apan": 2575,
      "battle": 2576,
      "human": 2577,
      "28": 2578,
      "##ened": 2579,
      "coast": 2580,
      "activ": 2581,
      "##iety": 2582,
      "mich": 2583,
      "career": 2584,
      "cath": 2585,
      "##ara": 2586,
      "sun": 2587,
      "young": 2588,
      "##ama": 2589,
      "ground": 2590,
      "2012": 2591,
      "northern": 2592,
      "president": 2593,
      "lab": 2594,
      "afric": 2595,
      "arg": 2596,
      "hor": 2597,
      "japan": 2598,
      "include": 2599,
      "equ": 2600,
      "region": 2601,
      "signific": 2602,
      "##ably": 2603,
      "invol": 2604,
      "western": 2605,
      "##xim": 2606,
      "hero": 2607,
      "mass": 2608,
      "##yn": 2609,
      "elect": 2610,
      "age": 2611,
      "ball": 2612,
      "lim": 2613,
      "fact": 2614,
      "##omen": 2615,
      "writing": 2616,
      "modern": 2617,
      "conn": 2618,
      "ve": 2619,
      "influ": 2620,
      "royal": 2621,
      "mi": 2622,
      "making": 2623,
      "vi": 2624,
      "should": 2625,
      "battalion": 2626,
      "##echn": 2627,
      "seven": 2628,
      "burn": 2629,
      "too": 2630,
      "away": 2631,
      "body": 2632,
      "##ches": 2633,
      "trav": 2634,
      "development": 2635,
      "eastern": 2636,
      "dou": 2637,
      "wood": 2638,
      "##atic": 2639,
      "dav": 2640,
      "ill": 2641,
      "##ress": 2642,
      "seen": 2643,
      "##ploy": 2644,
      "tor": 2645,
      "occur": 2646,
      "look": 2647,
      "exc": 2648,
      "aff": 2649,
      "stated": 2650,
      "ft": 2651,
      "hour": 2652,
      "present": 2653,
      "techn": 2654,
      "##ones": 2655,
      "2013": 2656,
      "returned": 2657,
      "fif": 2658,
      "ten": 2659,
      "instead": 2660,
      "service": 2661,
      "across": 2662,
      "established": 2663,
      "##con": 2664,
      "dev": 2665,
      "destroy": 2666,
      "##ese": 2667,
      "##ator": 2668,
      "##sequ": 2669,
      "using": 2670,
      "guitar": 2671,
      "tro": 2672,
      "##fic": 2673,
      "prim": 2674,
      "50": 2675,
      "struct": 2676,
      "ships": 2677,
      "bur": 2678,
      "son": 2679,
      "##inted": 2680,
      "full": 2681,
      "noted": 2682,
      "population": 2683,
      "announ": 2684,
      "##ades": 2685,
      "##ither": 2686,
      "##be": 2687,
      "##ape": 2688,
      "reached": 2689,
      "27": 2690,
      "cas": 2691,
      "mix": 2692,
      "america": 2693,
      "developed": 2694,
      "thought": 2695,
      "##ying": 2696,
      "190": 2697,
      "introdu": 2698,
      "##iec": 2699,
      "##iction": 2700,
      "broad": 2701,
      "ire": 2702,
      "##ki": 2703,
      "##play": 2704,
      "net": 2705,
      "##otion": 2706,
      "various": 2707,
      "building": 2708,
      "championship": 2709,
      "mean": 2710,
      "brigade": 2711,
      "significant": 2712,
      "lond": 2713,
      "##aint": 2714,
      "important": 2715,
      "players": 2716,
      "ireland": 2717,
      "##ef": 2718,
      "miles": 2719,
      "vir": 2720,
      "read": 2721,
      "engine": 2722,
      "william": 2723,
      "football": 2724,
      "civ": 2725,
      "##rew": 2726,
      "himself": 2727,
      "london": 2728,
      "father": 2729,
      "##used": 2730,
      "need": 2731,
      "bird": 2732,
      "pra": 2733,
      "##ne": 2734,
      "performed": 2735,
      "felt": 2736,
      "indust": 2737,
      "##ax": 2738,
      "front": 2739,
      "##omb": 2740,
      "construction": 2741,
      "kingdom": 2742,
      "fig": 2743,
      "##ket": 2744,
      "##ald": 2745,
      "official": 2746,
      "tur": 2747,
      "went": 2748,
      "##iness": 2749,
      "##idence": 2750,
      "areas": 2751,
      "feet": 2752,
      "cir": 2753,
      "put": 2754,
      "##co": 2755,
      "##work": 2756,
      "earth": 2757,
      "hy": 2758,
      "##get": 2759,
      "##most": 2760,
      "suff": 2761,
      "does": 2762,
      "brown": 2763,
      "fall": 2764,
      "mm": 2765,
      "ol": 2766,
      "od": 2767,
      "ver": 2768,
      "works": 2769,
      "decl": 2770,
      "##ological": 2771,
      "vol": 2772,
      "begin": 2773,
      "died": 2774,
      "mer": 2775,
      "##itive": 2776,
      "australia": 2777,
      "fac": 2778,
      "events": 2779,
      "bi": 2780,
      "bow": 2781,
      "bri": 2782,
      "range": 2783,
      "sett": 2784,
      "successful": 2785,
      "court": 2786,
      "cer": 2787,
      "rh": 2788,
      "##ief": 2789,
      "phil": 2790,
      "cup": 2791,
      "hom": 2792,
      "wall": 2793,
      "##osaur": 2794,
      "poem": 2795,
      "civil": 2796,
      "others": 2797,
      "##mp": 2798,
      "originally": 2799,
      "get": 2800,
      "let": 2801,
      "##unch": 2802,
      "upon": 2803,
      "##ino": 2804,
      "##oph": 2805,
      "sn": 2806,
      "##ges": 2807,
      "##ana": 2808,
      "##ster": 2809,
      "vo": 2810,
      "##craft": 2811,
      "##ael": 2812,
      "##field": 2813,
      "relations": 2814,
      "##reek": 2815,
      "started": 2816,
      "relig": 2817,
      "formed": 2818,
      "##me": 2819,
      "##vers": 2820,
      "##antic": 2821,
      "know": 2822,
      "##ucle": 2823,
      "gal": 2824,
      "james": 2825,
      "##ering": 2826,
      "##gether": 2827,
      "performance": 2828,
      "novel": 2829,
      "sal": 2830,
      "##lo": 2831,
      "ap": 2832,
      "base": 2833,
      "hot": 2834,
      "##iting": 2835,
      "style": 2836,
      "##ung": 2837,
      "cert": 2838,
      "lang": 2839,
      "##pression": 2840,
      "circ": 2841,
      "born": 2842,
      "women": 2843,
      "##ogn": 2844,
      "political": 2845,
      "##ints": 2846,
      "##ements": 2847,
      "stars": 2848,
      "caused": 2849,
      "##ration": 2850,
      "located": 2851,
      "eventually": 2852,
      "word": 2853,
      "scient": 2854,
      "special": 2855,
      "street": 2856,
      "hold": 2857,
      "##aign": 2858,
      "##ination": 2859,
      "proc": 2860,
      "director": 2861,
      "##iers": 2862,
      "pred": 2863,
      "campaign": 2864,
      "tradition": 2865,
      "created": 2866,
      "nar": 2867,
      "##aves": 2868,
      "prote": 2869,
      "able": 2870,
      "center": 2871,
      "characters": 2872,
      "hill": 2873,
      "critics": 2874,
      "entire": 2875,
      "sel": 2876,
      "##ization": 2877,
      "discover": 2878,
      "pen": 2879,
      "##ument": 2880,
      "enc": 2881,
      "##ney": 2882,
      "##af": 2883,
      "##fall": 2884,
      "##isted": 2885,
      "189": 2886,
      "ly": 2887,
      "##ox": 2888,
      "produc": 2889,
      "resear": 2890,
      "fight": 2891,
      "magaz": 2892,
      "ber": 2893,
      "##alth": 2894,
      "##ested": 2895,
      "2004": 2896,
      "research": 2897,
      "fav": 2898,
      "anim": 2899,
      "aud": 2900,
      "cop": 2901,
      "wr": 2902,
      "together": 2903,
      "2005": 2904,
      "mc": 2905,
      "##oming": 2906,
      "atl": 2907,
      "meet": 2908,
      "ide": 2909,
      "##arch": 2910,
      "##ality": 2911,
      "grow": 2912,
      "inn": 2913,
      "##asing": 2914,
      "tom": 2915,
      "cond": 2916,
      "##ample": 2917,
      "colon": 2918,
      "heavy": 2919,
      "bay": 2920,
      "diffic": 2921,
      "difficult": 2922,
      "stri": 2923,
      "##ects": 2924,
      "remained": 2925,
      "guns": 2926,
      "##itted": 2927,
      "##ille": 2928,
      "##epend": 2929,
      "nucle": 2930,
      "depart": 2931,
      "completed": 2932,
      "bir": 2933,
      "scored": 2934,
      "independ": 2935,
      "mother": 2936,
      "san": 2937,
      "##ries": 2938,
      "agre": 2939,
      "goal": 2940,
      "colle": 2941,
      "31": 2942,
      "##iated": 2943,
      "sex": 2944,
      "represent": 2945,
      "announced": 2946,
      "##king": 2947,
      "##enth": 2948,
      "australian": 2949,
      "voc": 2950,
      "##ids": 2951,
      "non": 2952,
      "almost": 2953,
      "peak": 2954,
      "sil": 2955,
      "nat": 2956,
      "##ament": 2957,
      "##ivid": 2958,
      "comment": 2959,
      "least": 2960,
      "damage": 2961,
      "behind": 2962,
      "den": 2963,
      "##ota": 2964,
      "ho": 2965,
      "##elling": 2966,
      "fourth": 2967,
      "##enced": 2968,
      "##anch": 2969,
      "reb": 2970,
      "sea": 2971,
      "added": 2972,
      "jour": 2973,
      "loss": 2974,
      "mem": 2975,
      "##ee": 2976,
      "##omp": 2977,
      "##ells": 2978,
      "territ": 2979,
      "29": 2980,
      "aver": 2981,
      "hon": 2982,
      "mad": 2983,
      "##less": 2984,
      "##aly": 2985,
      "party": 2986,
      "followed": 2987,
      "months": 2988,
      "killed": 2989,
      "appeared": 2990,
      "du": 2991,
      "hol": 2992,
      "pitch": 2993,
      "rail": 2994,
      "wife": 2995,
      "##li": 2996,
      "##ream": 2997,
      "##orts": 2998,
      "ident": 2999,
      "##ship": 3000,
      "##ray": 3001,
      "condom": 3002,
      "ru": 3003,
      "round": 3004,
      "chap": 3005,
      "hall": 3006,
      "key": 3007,
      "##cil": 3008,
      "inform": 3009,
      "##aper": 3010,
      "david": 3011,
      "process": 3012,
      "ach": 3013,
      "mach": 3014,
      "insp": 3015,
      "##omm": 3016,
      "flor": 3017,
      "jew": 3018,
      "sat": 3019,
      "station": 3020,
      "individ": 3021,
      "##ique": 3022,
      "40": 3023,
      "##den": 3024,
      "##osp": 3025,
      "##antry": 3026,
      "aircraft": 3027,
      "estim": 3028,
      "hard": 3029,
      "mac": 3030,
      "sour": 3031,
      "##ani": 3032,
      "appo": 3033,
      "squad": 3034,
      "kh": 3035,
      "trib": 3036,
      "taken": 3037,
      "relationship": 3038,
      "fa": 3039,
      "ul": 3040,
      "##tim": 3041,
      "185": 3042,
      "flight": 3043,
      "features": 3044,
      "bra": 3045,
      "der": 3046,
      "lack": 3047,
      "saw": 3048,
      "##ky": 3049,
      "ast": 3050,
      "##gn": 3051,
      "##mar": 3052,
      "playing": 3053,
      "quar": 3054,
      "fleet": 3055,
      "card": 3056,
      "fund": 3057,
      "##emy": 3058,
      "leading": 3059,
      "curr": 3060,
      "creat": 3061,
      "rank": 3062,
      "##esh": 3063,
      "parl": 3064,
      "impro": 3065,
      "either": 3066,
      "ur": 3067,
      "##dle": 3068,
      "recogn": 3069,
      "2003": 3070,
      "served": 3071,
      "action": 3072,
      "mater": 3073,
      "tal": 3074,
      "treat": 3075,
      "##ius": 3076,
      "##uit": 3077,
      "france": 3078,
      "separ": 3079,
      "interv": 3080,
      "##ways": 3081,
      "subsequ": 3082,
      "towards": 3083,
      "##ully": 3084,
      "##istic": 3085,
      "2015": 3086,
      "decided": 3087,
      "hen": 3088,
      "los": 3089,
      "##ming": 3090,
      "##etic": 3091,
      "proble": 3092,
      "wid": 3093,
      "##to": 3094,
      "close": 3095,
      "soon": 3096,
      "case": 3097,
      "past": 3098,
      "##ecut": 3099,
      "parliam": 3100,
      "ath": 3101,
      "draw": 3102,
      "##ze": 3103,
      "##ata": 3104,
      "##cted": 3105,
      "clos": 3106,
      "robert": 3107,
      "generally": 3108,
      "elements": 3109,
      "believed": 3110,
      "langu": 3111,
      "host": 3112,
      "##olution": 3113,
      "accept": 3114,
      "archae": 3115,
      "magazine": 3116,
      "er": 3117,
      "##ida": 3118,
      "prem": 3119,
      "##ency": 3120,
      "cost": 3121,
      "operations": 3122,
      "council": 3123,
      "##utes": 3124,
      "example": 3125,
      "##igned": 3126,
      "meas": 3127,
      "move": 3128,
      "cru": 3129,
      "di": 3130,
      "rose": 3131,
      "commission": 3132,
      "flood": 3133,
      "female": 3134,
      "gir": 3135,
      "##cent": 3136,
      "##go": 3137,
      "tow": 3138,
      "carey": 3139,
      "infantry": 3140,
      "##ped": 3141,
      "##ica": 3142,
      "saf": 3143,
      "weeks": 3144,
      "parliament": 3145,
      "rather": 3146,
      "##ned": 3147,
      "mex": 3148,
      "rul": 3149,
      "points": 3150,
      "records": 3151,
      "domin": 3152,
      "que": 3153,
      "regular": 3154,
      "awards": 3155,
      "##my": 3156,
      "stop": 3157,
      "outside": 3158,
      "recording": 3159,
      "transport": 3160,
      "opened": 3161,
      "cut": 3162,
      "foc": 3163,
      "##erm": 3164,
      "brought": 3165,
      "finished": 3166,
      "approach": 3167,
      "business": 3168,
      "35": 3169,
      "bal": 3170,
      "fly": 3171,
      "adm": 3172,
      "regard": 3173,
      "directed": 3174,
      "manager": 3175,
      "##oring": 3176,
      "##ential": 3177,
      "##acy": 3178,
      "beg": 3179,
      "##ceed": 3180,
      "##ption": 3181,
      "##rict": 3182,
      "study": 3183,
      "yard": 3184,
      "##odes": 3185,
      "commerc": 3186,
      "european": 3187,
      "##uter": 3188,
      "bey": 3189,
      "##ground": 3190,
      "##spec": 3191,
      "featured": 3192,
      "earlier": 3193,
      "mal": 3194,
      "ven": 3195,
      "wales": 3196,
      "##umb": 3197,
      "188": 3198,
      "blue": 3199,
      "respect": 3200,
      "launch": 3201,
      "achie": 3202,
      "edu": 3203,
      "mcc": 3204,
      "member": 3205,
      "rain": 3206,
      "##read": 3207,
      "##imes": 3208,
      "##oted": 3209,
      "teach": 3210,
      "esc": 3211,
      "viet": 3212,
      "inh": 3213,
      "express": 3214,
      "redu": 3215,
      "victory": 3216,
      "big": 3217,
      "ey": 3218,
      "mos": 3219,
      "condu": 3220,
      "##aps": 3221,
      "##ordan": 3222,
      "secret": 3223,
      "##board": 3224,
      "##nes": 3225,
      "##lin": 3226,
      "##ators": 3227,
      "stru": 3228,
      "prob": 3229,
      "federer": 3230,
      "##asion": 3231,
      "union": 3232,
      "priv": 3233,
      "provided": 3234,
      "##ole": 3235,
      "##wood": 3236,
      "indic": 3237,
      "working": 3238,
      "village": 3239,
      "association": 3240,
      "wil": 3241,
      "##sel": 3242,
      "##tain": 3243,
      "sequ": 3244,
      "opening": 3245,
      "anti": 3246,
      "radio": 3247,
      "wanted": 3248,
      "troops": 3249,
      "jordan": 3250,
      "##eler": 3251,
      "stage": 3252,
      "appearance": 3253,
      "stay": 3254,
      "deal": 3255,
      "##ellow": 3256,
      "186": 3257,
      "winds": 3258,
      "particularly": 3259,
      "mot": 3260,
      "mult": 3261,
      "sym": 3262,
      "sem": 3263,
      "##ores": 3264,
      "neg": 3265,
      "employ": 3266,
      "initially": 3267,
      "girl": 3268,
      "cam": 3269,
      "rap": 3270,
      "tech": 3271,
      "##oid": 3272,
      "pract": 3273,
      "muse": 3274,
      "norm": 3275,
      "largest": 3276,
      "##medi": 3277,
      "summer": 3278,
      "500": 3279,
      "gar": 3280,
      "nec": 3281,
      "pot": 3282,
      "##ouri": 3283,
      "##ude": 3284,
      "evidence": 3285,
      "crew": 3286,
      "clear": 3287,
      "kil": 3288,
      "pan": 3289,
      "sus": 3290,
      "reason": 3291,
      "come": 3292,
      "exist": 3293,
      "length": 3294,
      "##erous": 3295,
      "above": 3296,
      "2014": 3297,
      "minor": 3298,
      "instit": 3299,
      "george": 3300,
      "mur": 3301,
      "##west": 3302,
      "christian": 3303,
      "atlantic": 3304,
      "educ": 3305,
      "sam": 3306,
      "yards": 3307,
      "##atin": 3308,
      "##ania": 3309,
      "room": 3310,
      "##action": 3311,
      "invest": 3312,
      "possible": 3313,
      "hit": 3314,
      "mary": 3315,
      "must": 3316,
      "##oth": 3317,
      "##thod": 3318,
      "##eter": 3319,
      "##ago": 3320,
      "##ounted": 3321,
      "construct": 3322,
      "social": 3323,
      "material": 3324,
      "museum": 3325,
      "ban": 3326,
      "19th": 3327,
      "depression": 3328,
      "feel": 3329,
      "office": 3330,
      "middle": 3331,
      "allowed": 3332,
      "saying": 3333,
      "##gg": 3334,
      "##ker": 3335,
      "##ita": 3336,
      "cho": 3337,
      "##iff": 3338,
      "prior": 3339,
      "observ": 3340,
      "poor": 3341,
      "type": 3342,
      "somet": 3343,
      "hours": 3344,
      "wild": 3345,
      "anc": 3346,
      "compos": 3347,
      "diss": 3348,
      "regiment": 3349,
      "oliv": 3350,
      "florida": 3351,
      "nine": 3352,
      "whom": 3353,
      "strength": 3354,
      "respons": 3355,
      "##east": 3356,
      "##val": 3357,
      "lik": 3358,
      "quick": 3359,
      "paul": 3360,
      "viol": 3361,
      "creek": 3362,
      "jud": 3363,
      "race": 3364,
      "##ck": 3365,
      "##ington": 3366,
      "seem": 3367,
      "worked": 3368,
      "fut": 3369,
      "lower": 3370,
      "pain": 3371,
      "##for": 3372,
      "princ": 3373,
      "police": 3374,
      "designed": 3375,
      "missouri": 3376,
      "community": 3377,
      "##gar": 3378,
      "##ville": 3379,
      "previously": 3380,
      "##oon": 3381,
      "repub": 3382,
      "horse": 3383,
      "pac": 3384,
      "test": 3385,
      "##cast": 3386,
      "##uel": 3387,
      "forced": 3388,
      "acad": 3389,
      "##off": 3390,
      "specific": 3391,
      "society": 3392,
      "praised": 3393,
      "commercial": 3394,
      "food": 3395,
      "nomin": 3396,
      "watch": 3397,
      "##ih": 3398,
      "##onst": 3399,
      "##erson": 3400,
      "remains": 3401,
      "operation": 3402,
      "fish": 3403,
      "##bar": 3404,
      "##vert": 3405,
      "2001": 3406,
      "scre": 3407,
      "goals": 3408,
      "##oney": 3409,
      "capital": 3410,
      "increased": 3411,
      "contract": 3412,
      "lin": 3413,
      "ny": 3414,
      "##ett": 3415,
      "heart": 3416,
      "shot": 3417,
      "indian": 3418,
      "mont": 3419,
      "break": 3420,
      "avail": 3421,
      "quarter": 3422,
      "doc": 3423,
      "##rated": 3424,
      "##bor": 3425,
      "##aries": 3426,
      "##iding": 3427,
      "account": 3428,
      "michael": 3429,
      "fer": 3430,
      "fiction": 3431,
      "mart": 3432,
      "uk": 3433,
      "threat": 3434,
      "stone": 3435,
      "unc": 3436,
      "phys": 3437,
      "econ": 3438,
      "hosp": 3439,
      "##gu": 3440,
      "interest": 3441,
      "syn": 3442,
      "##ended": 3443,
      "surf": 3444,
      "studio": 3445,
      "##ography": 3446,
      "interview": 3447,
      "econom": 3448,
      "aut": 3449,
      "##elled": 3450,
      "object": 3451,
      "##gypt": 3452,
      "replaced": 3453,
      "republic": 3454,
      "hu": 3455,
      "hous": 3456,
      "##ving": 3457,
      "parts": 3458,
      "187": 3459,
      "writer": 3460,
      "##ronic": 3461,
      "commander": 3462,
      "egypt": 3463,
      "face": 3464,
      "taking": 3465,
      "##itz": 3466,
      "units": 3467,
      "##ributed": 3468,
      "situ": 3469,
      "liter": 3470,
      "##nal": 3471,
      "##erved": 3472,
      "##ula": 3473,
      "assist": 3474,
      "subst": 3475,
      "discuss": 3476,
      "approxim": 3477,
      "section": 3478,
      "thom": 3479,
      "##lement": 3480,
      "commit": 3481,
      "richard": 3482,
      "##head": 3483,
      "##ma": 3484,
      "theat": 3485,
      "inj": 3486,
      "##usion": 3487,
      "dead": 3488,
      "coach": 3489,
      "highest": 3490,
      "##reg": 3491,
      "profession": 3492,
      "claimed": 3493,
      "navy": 3494,
      "industry": 3495,
      "beginning": 3496,
      "estimated": 3497,
      "era": 3498,
      "happ": 3499,
      "mph": 3500,
      "##round": 3501,
      "##eth": 3502,
      "##xas": 3503,
      "except": 3504,
      "##anned": 3505,
      "certain": 3506,
      "pay": 3507,
      "##lim": 3508,
      "##ites": 3509,
      "touch": 3510,
      "proper": 3511,
      "canada": 3512,
      "joined": 3513,
      "travel": 3514,
      "henry": 3515,
      "dom": 3516,
      "lines": 3517,
      "ot": 3518,
      "##ulf": 3519,
      "placed": 3520,
      "imm": 3521,
      "oldham": 3522,
      "average": 3523,
      "bod": 3524,
      "##men": 3525,
      "##band": 3526,
      "##omet": 3527,
      "##stand": 3528,
      "##eston": 3529,
      "grad": 3530,
      "signed": 3531,
      "establish": 3532,
      "japanese": 3533,
      "involved": 3534,
      "religious": 3535,
      "college": 3536,
      "ox": 3537,
      "rang": 3538,
      "##ste": 3539,
      "forest": 3540,
      "##olic": 3541,
      "change": 3542,
      "##ulated": 3543,
      "canad": 3544,
      "green": 3545,
      "suggested": 3546,
      "##ecutive": 3547,
      "36": 3548,
      "dig": 3549,
      "##atory": 3550,
      "stories": 3551,
      "##ows": 3552,
      "itself": 3553,
      "intens": 3554,
      "carol": 3555,
      "increasing": 3556,
      "introduced": 3557,
      "sometimes": 3558,
      "45": 3559,
      "wat": 3560,
      "immedi": 3561,
      "assemb": 3562,
      "transfer": 3563,
      "cycl": 3564,
      "bab": 3565,
      "##ump": 3566,
      "training": 3567,
      "scene": 3568,
      "term": 3569,
      "complete": 3570,
      "olivier": 3571,
      "00": 3572,
      "male": 3573,
      "pu": 3574,
      "piec": 3575,
      "##gen": 3576,
      "##aker": 3577,
      "arab": 3578,
      "going": 3579,
      "athlet": 3580,
      "give": 3581,
      "zeal": 3582,
      "##of": 3583,
      "##uk": 3584,
      "thus": 3585,
      "today": 3586,
      "##ready": 3587,
      "scen": 3588,
      "##anna": 3589,
      "irish": 3590,
      "available": 3591,
      "cat": 3592,
      "date": 3593,
      "##ari": 3594,
      "abs": 3595,
      "amb": 3596,
      "##ibility": 3597,
      "occup": 3598,
      "vietn": 3599,
      "our": 3600,
      "ran": 3601,
      "sen": 3602,
      "##down": 3603,
      "##yer": 3604,
      "whose": 3605,
      "nearly": 3606,
      "reviews": 3607,
      "additional": 3608,
      "mexico": 3609,
      "ren": 3610,
      "told": 3611,
      "staff": 3612,
      "183": 3613,
      "remov": 3614,
      "je": 3615,
      "woman": 3616,
      "##back": 3617,
      "think": 3618,
      "##arily": 3619,
      "##ask": 3620,
      "india": 3621,
      "approximately": 3622,
      "hun": 3623,
      "##cript": 3624,
      "already": 3625,
      "anth": 3626,
      "##ume": 3627,
      "surround": 3628,
      "airport": 3629,
      "damaged": 3630,
      "friends": 3631,
      "appointed": 3632,
      "thomas": 3633,
      "dut": 3634,
      "names": 3635,
      "chic": 3636,
      "deep": 3637,
      "##ector": 3638,
      "shows": 3639,
      "##porary": 3640,
      "fifth": 3641,
      "native": 3642,
      "contem": 3643,
      "rob": 3644,
      "turned": 3645,
      "issue": 3646,
      "probably": 3647,
      "ca": 3648,
      "dark": 3649,
      "hop": 3650,
      "might": 3651,
      "size": 3652,
      "##ties": 3653,
      "compan": 3654,
      "particip": 3655,
      "debut": 3656,
      "language": 3657,
      "cou": 3658,
      "espec": 3659,
      "##ote": 3660,
      "##achel": 3661,
      "news": 3662,
      "disp": 3663,
      "winning": 3664,
      "students": 3665,
      "passed": 3666,
      "angel": 3667,
      "lord": 3668,
      "boy": 3669,
      "better": 3670,
      "quest": 3671,
      "captain": 3672,
      "lay": 3673,
      "##gl": 3674,
      "##ases": 3675,
      "withd": 3676,
      "board": 3677,
      "##quar": 3678,
      "complet": 3679,
      "pacific": 3680,
      "zealand": 3681,
      "cad": 3682,
      "jin": 3683,
      "tar": 3684,
      "upp": 3685,
      "##ective": 3686,
      "##ateg": 3687,
      "display": 3688,
      "184": 3689,
      "##inese": 3690,
      "media": 3691,
      "structure": 3692,
      "network": 3693,
      "especially": 3694,
      "daugh": 3695,
      "penn": 3696,
      "forward": 3697,
      "exh": 3698,
      "enough": 3699,
      "admin": 3700,
      "twent": 3701,
      "britain": 3702,
      "visit": 3703,
      "60": 3704,
      "failed": 3705,
      "mat": 3706,
      "##zz": 3707,
      "##acing": 3708,
      "chinese": 3709,
      "##abit": 3710,
      "space": 3711,
      "overall": 3712,
      "cathed": 3713,
      "mixed": 3714,
      "doll": 3715,
      "lou": 3716,
      "roll": 3717,
      "##fect": 3718,
      "##bc": 3719,
      "##ises": 3720,
      "notes": 3721,
      "bridge": 3722,
      "##osaurus": 3723,
      "dro": 3724,
      "exam": 3725,
      "limited": 3726,
      "##bers": 3727,
      "##imin": 3728,
      "##ability": 3729,
      "running": 3730,
      "wheeler": 3731,
      "ordered": 3732,
      "lake": 3733,
      "mel": 3734,
      "spent": 3735,
      "includes": 3736,
      "remaining": 3737,
      "emp": 3738,
      "moving": 3739,
      "arrived": 3740,
      "lyric": 3741,
      "department": 3742,
      "dub": 3743,
      "fail": 3744,
      "##apt": 3745,
      "plat": 3746,
      "usually": 3747,
      "larger": 3748,
      "nin": 3749,
      "##rd": 3750,
      "##ston": 3751,
      "ali": 3752,
      "##ocks": 3753,
      "slow": 3754,
      "birds": 3755,
      "latter": 3756,
      "##lor": 3757,
      "2002": 3758,
      "grant": 3759,
      "required": 3760,
      "changes": 3761,
      "natural": 3762,
      "future": 3763,
      "##ening": 3764,
      "decision": 3765,
      "iii": 3766,
      "peter": 3767,
      "mountain": 3768,
      "virgin": 3769,
      "canadian": 3770,
      "upper": 3771,
      "wide": 3772,
      "##ios": 3773,
      "##tr": 3774,
      "span": 3775,
      "remain": 3776,
      "jer": 3777,
      "nature": 3778,
      "##inct": 3779,
      "comed": 3780,
      "##ference": 3781,
      "reveal": 3782,
      "schol": 3783,
      "africa": 3784,
      "mr": 3785,
      "broadcast": 3786,
      "cm": 3787,
      "cell": 3788,
      "corn": 3789,
      "mention": 3790,
      "mounted": 3791,
      "##ilities": 3792,
      "##agon": 3793,
      "centre": 3794,
      "poet": 3795,
      "feature": 3796,
      "groups": 3797,
      "birth": 3798,
      "##stein": 3799,
      "cathedral": 3800,
      "##kn": 3801,
      "##oration": 3802,
      "2000": 3803,
      "score": 3804,
      "##oke": 3805,
      "supported": 3806,
      "breed": 3807,
      "territory": 3808,
      "38": 3809,
      "iron": 3810,
      "living": 3811,
      "oly": 3812,
      "saint": 3813,
      "##ecting": 3814,
      "musical": 3815,
      "ended": 3816,
      "larg": 3817,
      "positive": 3818,
      "critical": 3819,
      "billboard": 3820,
      "pressure": 3821,
      "olymp": 3822,
      "oce": 3823,
      "self": 3824,
      "##ners": 3825,
      "##ken": 3826,
      "traff": 3827,
      "scott": 3828,
      "finally": 3829,
      "blood": 3830,
      "voice": 3831,
      "bad": 3832,
      "rachel": 3833,
      "tv": 3834,
      "xen": 3835,
      "##uals": 3836,
      "##omes": 3837,
      "films": 3838,
      "frequ": 3839,
      "money": 3840,
      "##orial": 3841,
      "shown": 3842,
      "##ifa": 3843,
      "becoming": 3844,
      "provide": 3845,
      "headquar": 3846,
      "smaller": 3847,
      "temper": 3848,
      "ben": 3849,
      "hair": 3850,
      "jun": 3851,
      "mort": 3852,
      "pun": 3853,
      "##su": 3854,
      "##under": 3855,
      "##ga": 3856,
      "always": 3857,
      "related": 3858,
      "discovered": 3859,
      "fox": 3860,
      "ga": 3861,
      "haw": 3862,
      "mom": 3863,
      "science": 3864,
      "charles": 3865,
      "subject": 3866,
      "shortly": 3867,
      "gods": 3868,
      "temple": 3869,
      "squadron": 3870,
      "75": 3871,
      "bord": 3872,
      "got": 3873,
      "##hou": 3874,
      "##ining": 3875,
      "##riage": 3876,
      "##ections": 3877,
      "books": 3878,
      "defeated": 3879,
      "##selves": 3880,
      "##ca": 3881,
      "##iest": 3882,
      "##isc": 3883,
      "##oles": 3884,
      "box": 3885,
      "subsequently": 3886,
      "private": 3887,
      "batter": 3888,
      "jam": 3889,
      "pian": 3890,
      "##wor": 3891,
      "##aded": 3892,
      "##ulted": 3893,
      "trade": 3894,
      "minutes": 3895,
      "surface": 3896,
      "cred": 3897,
      "dj": 3898,
      "morn": 3899,
      "nations": 3900,
      "##aring": 3901,
      "concept": 3902,
      "frank": 3903,
      "health": 3904,
      "##uments": 3905,
      "experience": 3906,
      "professional": 3907,
      "cele": 3908,
      "makes": 3909,
      "##ii": 3910,
      "##key": 3911,
      "1995": 3912,
      "bowl": 3913,
      "pair": 3914,
      "van": 3915,
      "##onse": 3916,
      "intended": 3917,
      "##eless": 3918,
      "mostly": 3919,
      "greater": 3920,
      "calif": 3921,
      "favor": 3922,
      "idea": 3923,
      "und": 3924,
      "##eign": 3925,
      "unit": 3926,
      "learn": 3927,
      "percent": 3928,
      "##ification": 3929,
      "teams": 3930,
      "conclud": 3931,
      "concert": 3932,
      "captured": 3933,
      "scientology": 3934,
      "education": 3935,
      "largely": 3936,
      "log": 3937,
      "master": 3938,
      "pil": 3939,
      "##ault": 3940,
      "##zy": 3941,
      "##acted": 3942,
      "franc": 3943,
      "##rael": 3944,
      "themselves": 3945,
      "metres": 3946,
      "keep": 3947,
      "valley": 3948,
      "likely": 3949,
      "hus": 3950,
      "russ": 3951,
      "numbers": 3952,
      "response": 3953,
      "collection": 3954,
      "arrang": 3955,
      "referred": 3956,
      "haifa": 3957,
      "californ": 3958,
      "dyn": 3959,
      "fest": 3960,
      "yet": 3961,
      "##ban": 3962,
      "##kan": 3963,
      "sev": 3964,
      "##pped": 3965,
      "whole": 3966,
      "method": 3967,
      "consist": 3968,
      "guard": 3969,
      "constant": 3970,
      "galv": 3971,
      "machine": 3972,
      "problems": 3973,
      "queen": 3974,
      "wing": 3975,
      "##ams": 3976,
      "##ples": 3977,
      "##uck": 3978,
      "market": 3979,
      "counter": 3980,
      "xenon": 3981,
      "ded": 3982,
      "tenn": 3983,
      "##ror": 3984,
      "##idents": 3985,
      "##ishop": 3986,
      "contains": 3987,
      "amount": 3988,
      "intell": 3989,
      "croat": 3990,
      "entered": 3991,
      "oppos": 3992,
      "primary": 3993,
      "ultim": 3994,
      "constructed": 3995,
      "cause": 3996,
      "coup": 3997,
      "pow": 3998,
      "sand": 3999,
      "your": 4000,
      "##well": 4001,
      "adop": 4002,
      "majority": 4003,
      "greatest": 4004,
      "square": 4005,
      "ranked": 4006,
      "headquarters": 4007,
      "bomb": 4008,
      "gi": 4009,
      "om": 4010,
      "##ging": 4011,
      "##iva": 4012,
      "che": 4013,
      "cann": 4014,
      "emer": 4015,
      "##ending": 4016,
      "listed": 4017,
      "tower": 4018,
      "ocean": 4019,
      "morning": 4020,
      "cric": 4021,
      "ray": 4022,
      "##atively": 4023,
      "##urs": 4024,
      "asp": 4025,
      "israel": 4026,
      "chief": 4027,
      "leaving": 4028,
      "2016": 4029,
      "product": 4030,
      "portug": 4031,
      "starting": 4032,
      "whether": 4033,
      "fans": 4034,
      "os": 4035,
      "##oor": 4036,
      "##iser": 4037,
      "##ander": 4038,
      "script": 4039,
      "officers": 4040,
      "magn": 4041,
      "brief": 4042,
      "jewish": 4043,
      "traffic": 4044,
      "aer": 4045,
      "gro": 4046,
      "kr": 4047,
      "ll": 4048,
      "ross": 4049,
      "sov": 4050,
      "##essed": 4051,
      "newsp": 4052,
      "create": 4053,
      "effects": 4054,
      "fighting": 4055,
      "information": 4056,
      "jose": 4057,
      "##aut": 4058,
      "##gian": 4059,
      "##ds": 4060,
      "##mon": 4061,
      "##ergy": 4062,
      "##ously": 4063,
      "##ails": 4064,
      "competition": 4065,
      "changed": 4066,
      "journal": 4067,
      "companies": 4068,
      "galveston": 4069,
      "80": 4070,
      "dum": 4071,
      "tourn": 4072,
      "poly": 4073,
      "color": 4074,
      "publish": 4075,
      "concern": 4076,
      "##onym": 4077,
      "standard": 4078,
      "soldiers": 4079,
      "celebr": 4080,
      "33": 4081,
      "lived": 4082,
      "takes": 4083,
      "##jected": 4084,
      "##atops": 4085,
      "forms": 4086,
      "episodes": 4087,
      "runs": 4088,
      "proposed": 4089,
      "agreed": 4090,
      "launched": 4091,
      "committe": 4092,
      "ale": 4093,
      "bound": 4094,
      "gall": 4095,
      "rom": 4096,
      "##fact": 4097,
      "##light": 4098,
      "##change": 4099,
      "graph": 4100,
      "bring": 4101,
      "studies": 4102,
      "constit": 4103,
      "aw": 4104,
      "bud": 4105,
      "ce": 4106,
      "ple": 4107,
      "shoot": 4108,
      "##ria": 4109,
      "##illery": 4110,
      "spir": 4111,
      "##teen": 4112,
      "attr": 4113,
      "assigned": 4114,
      "minute": 4115,
      "location": 4116,
      "increase": 4117,
      "quickly": 4118,
      "administ": 4119,
      "california": 4120,
      "2nd": 4121,
      "cra": 4122,
      "lif": 4123,
      "##outh": 4124,
      "beach": 4125,
      "ital": 4126,
      "plans": 4127,
      "compared": 4128,
      "##lands": 4129,
      "meant": 4130,
      "theme": 4131,
      "movement": 4132,
      "artillery": 4133,
      "determ": 4134,
      "double": 4135,
      "occurred": 4136,
      "meaning": 4137,
      "lyrics": 4138,
      "##rison": 4139,
      "##tar": 4140,
      "##bed": 4141,
      "things": 4142,
      "##icated": 4143,
      "rein": 4144,
      "leave": 4145,
      "brad": 4146,
      "##gress": 4147,
      "1999": 4148,
      "inside": 4149,
      "refl": 4150,
      "trees": 4151,
      "independent": 4152,
      "32": 4153,
      "400": 4154,
      "ut": 4155,
      "##yr": 4156,
      "true": 4157,
      "ens": 4158,
      "serious": 4159,
      "care": 4160,
      "artist": 4161,
      "appears": 4162,
      "speed": 4163,
      "defeat": 4164,
      "catholic": 4165,
      "destroyed": 4166,
      "traditional": 4167,
      "focus": 4168,
      "hospital": 4169,
      "chicago": 4170,
      "done": 4171,
      "here": 4172,
      "latin": 4173,
      "nix": 4174,
      "path": 4175,
      "tons": 4176,
      "##nel": 4177,
      "##mas": 4178,
      "##urity": 4179,
      "##andon": 4180,
      "##umn": 4181,
      "adult": 4182,
      "revolution": 4183,
      "phot": 4184,
      "longer": 4185,
      "consider": 4186,
      "corps": 4187,
      "victor": 4188,
      "condoms": 4189,
      "hund": 4190,
      "kick": 4191,
      "liver": 4192,
      "mas": 4193,
      "##pool": 4194,
      "##anced": 4195,
      "asked": 4196,
      "##ortun": 4197,
      "acqu": 4198,
      "awarded": 4199,
      "villa": 4200,
      "hundred": 4201,
      "bul": 4202,
      "horn": 4203,
      "lady": 4204,
      "purch": 4205,
      "##tained": 4206,
      "##yc": 4207,
      "beat": 4208,
      "anal": 4209,
      "env": 4210,
      "scot": 4211,
      "carried": 4212,
      "election": 4213,
      "complex": 4214,
      "sixth": 4215,
      "schools": 4216,
      "culture": 4217,
      "rapid": 4218,
      "investig": 4219,
      "contemporary": 4220,
      "daughter": 4221,
      "fol": 4222,
      "fow": 4223,
      "ign": 4224,
      "##ba": 4225,
      "##iny": 4226,
      "##isions": 4227,
      "dism": 4228,
      "finish": 4229,
      "flow": 4230,
      "something": 4231,
      "writers": 4232,
      "brother": 4233,
      "sky": 4234,
      "initial": 4235,
      "proteins": 4236,
      "source": 4237,
      "conducted": 4238,
      "300": 4239,
      "70": 4240,
      "cand": 4241,
      "pit": 4242,
      "thick": 4243,
      "access": 4244,
      "ending": 4245,
      "singles": 4246,
      "polish": 4247,
      "district": 4248,
      "annual": 4249,
      "services": 4250,
      "associated": 4251,
      "current": 4252,
      "princip": 4253,
      "sav": 4254,
      "##eas": 4255,
      "alice": 4256,
      "sched": 4257,
      "buildings": 4258,
      "burns": 4259,
      "cold": 4260,
      "gh": 4261,
      "##oms": 4262,
      "alkan": 4263,
      "chall": 4264,
      "##osph": 4265,
      "unable": 4266,
      "married": 4267,
      "image": 4268,
      "minister": 4269,
      "simp": 4270,
      "african": 4271,
      "commented": 4272,
      "twenty": 4273,
      "ess": 4274,
      "fant": 4275,
      "ram": 4276,
      "##ex": 4277,
      "##itation": 4278,
      "conference": 4279,
      "numerous": 4280,
      "ancient": 4281,
      "ott": 4282,
      "empire": 4283,
      "dail": 4284,
      "tax": 4285,
      "##ev": 4286,
      "##itor": 4287,
      "##itude": 4288,
      "chann": 4289,
      "spring": 4290,
      "accomp": 4291,
      "1998": 4292,
      "castle": 4293,
      "producer": 4294,
      "husband": 4295,
      "nixon": 4296,
      "bank": 4297,
      "ow": 4298,
      "##oo": 4299,
      "throw": 4300,
      "imag": 4301,
      "##ologist": 4302,
      "albums": 4303,
      "##itting": 4304,
      "tracks": 4305,
      "personal": 4306,
      "influence": 4307,
      "inspired": 4308,
      "scenes": 4309,
      "1st": 4310,
      "dra": 4311,
      "##pre": 4312,
      "##anas": 4313,
      "crown": 4314,
      "issued": 4315,
      "##aught": 4316,
      "cyclone": 4317,
      "39": 4318,
      "tay": 4319,
      "earned": 4320,
      "polic": 4321,
      "slight": 4322,
      "mosley": 4323,
      "47": 4324,
      "bed": 4325,
      "bon": 4326,
      "bol": 4327,
      "giving": 4328,
      "pul": 4329,
      "scr": 4330,
      "marked": 4331,
      "directly": 4332,
      "variety": 4333,
      "edge": 4334,
      "individual": 4335,
      "safe": 4336,
      "piano": 4337,
      "pick": 4338,
      "rat": 4339,
      "via": 4340,
      "yellow": 4341,
      "##alled": 4342,
      "marriage": 4343,
      "texas": 4344,
      "1993": 4345,
      "1996": 4346,
      "positions": 4347,
      "portray": 4348,
      "occasion": 4349,
      "busch": 4350,
      "begins": 4351,
      "waters": 4352,
      "immediately": 4353,
      "committee": 4354,
      "daily": 4355,
      "fear": 4356,
      "##ding": 4357,
      "##bur": 4358,
      "thunder": 4359,
      "chem": 4360,
      "##ands": 4361,
      "##umed": 4362,
      "actor": 4363,
      "drum": 4364,
      "terms": 4365,
      "somers": 4366,
      "experi": 4367,
      "status": 4368,
      "figure": 4369,
      "baby": 4370,
      "liverpool": 4371,
      "fell": 4372,
      "kind": 4373,
      "pict": 4374,
      "##her": 4375,
      "##kel": 4376,
      "search": 4377,
      "plot": 4378,
      "planned": 4379,
      "##anta": 4380,
      "perfect": 4381,
      "metal": 4382,
      "archit": 4383,
      "christmas": 4384,
      "helped": 4385,
      "swe": 4386,
      "closed": 4387,
      "##ension": 4388,
      "conserv": 4389,
      "transl": 4390,
      "leaders": 4391,
      "advent": 4392,
      "attacks": 4393,
      "combat": 4394,
      "suffered": 4395,
      "multip": 4396,
      "screen": 4397,
      "spanish": 4398,
      "fowler": 4399,
      "somerset": 4400,
      "42": 4401,
      "90": 4402,
      "wound": 4403,
      "##house": 4404,
      "##bury": 4405,
      "##cend": 4406,
      "20th": 4407,
      "##bery": 4408,
      "abandon": 4409,
      "disapp": 4410,
      "financ": 4411,
      "crow": 4412,
      "nearby": 4413,
      "continu": 4414,
      "prevent": 4415,
      "rhy": 4416,
      "##like": 4417,
      "soviet": 4418,
      "taylor": 4419,
      "bid": 4420,
      "bond": 4421,
      "gard": 4422,
      "mol": 4423,
      "nation": 4424,
      "row": 4425,
      "##joy": 4426,
      "thir": 4427,
      "##once": 4428,
      "rear": 4429,
      "suc": 4430,
      "recover": 4431,
      "##ibly": 4432,
      "defense": 4433,
      "presence": 4434,
      "presented": 4435,
      "raised": 4436,
      "historical": 4437,
      "management": 4438,
      "susp": 4439,
      "rif": 4440,
      "really": 4441,
      "##anded": 4442,
      "##ify": 4443,
      "##athan": 4444,
      "peace": 4445,
      "maxim": 4446,
      "##ylv": 4447,
      "continue": 4448,
      "covered": 4449,
      "nuclear": 4450,
      "bass": 4451,
      "sir": 4452,
      "##rical": 4453,
      "##erve": 4454,
      "##ocr": 4455,
      "composed": 4456,
      "weap": 4457,
      "prec": 4458,
      "mission": 4459,
      "hands": 4460,
      "vocals": 4461,
      "jane": 4462,
      "stad": 4463,
      "##olf": 4464,
      "fruit": 4465,
      "##essa": 4466,
      "extended": 4467,
      "incor": 4468,
      "prep": 4469,
      "paris": 4470,
      "below": 4471,
      "organization": 4472,
      "attempts": 4473,
      "casual": 4474,
      "beyonce": 4475,
      "paper": 4476,
      "rough": 4477,
      "attend": 4478,
      "block": 4479,
      "##chester": 4480,
      "figures": 4481,
      "##standing": 4482,
      "diam": 4483,
      "fill": 4484,
      "mis": 4485,
      "mic": 4486,
      "mun": 4487,
      "mile": 4488,
      "sac": 4489,
      "##bour": 4490,
      "##icted": 4491,
      "ash": 4492,
      "shar": 4493,
      "deg": 4494,
      "promin": 4495,
      "enjoy": 4496,
      "relief": 4497,
      "uses": 4498,
      "higher": 4499,
      "##aha": 4500,
      "officer": 4501,
      "federal": 4502,
      "purp": 4503,
      "vocal": 4504,
      "##uries": 4505,
      "##imony": 4506,
      "plant": 4507,
      "sport": 4508,
      "##pted": 4509,
      "meyer": 4510,
      "extre": 4511,
      "germany": 4512,
      "##ipped": 4513,
      "needed": 4514,
      "selected": 4515,
      "rule": 4516,
      "symb": 4517,
      "necess": 4518,
      "carolina": 4519,
      "virginia": 4520,
      "ris": 4521,
      "rush": 4522,
      "ton": 4523,
      "##ental": 4524,
      "##ires": 4525,
      "##apo": 4526,
      "dise": 4527,
      "highly": 4528,
      "##iami": 4529,
      "course": 4530,
      "powerful": 4531,
      "nico": 4532,
      "##sylv": 4533,
      "shr": 4534,
      "canc": 4535,
      "text": 4536,
      "countries": 4537,
      "attacked": 4538,
      "allowing": 4539,
      "veh": 4540,
      "sexual": 4541,
      "situation": 4542,
      "bodies": 4543,
      "assembly": 4544,
      "pennsylv": 4545,
      "comedy": 4546,
      "festival": 4547,
      "44": 4548,
      "cab": 4549,
      "fair": 4550,
      "lock": 4551,
      "rate": 4552,
      "##iate": 4553,
      "##he": 4554,
      "wash": 4555,
      "altern": 4556,
      "##aging": 4557,
      "offensive": 4558,
      "advance": 4559,
      "confir": 4560,
      "hyd": 4561,
      "protein": 4562,
      "cadm": 4563,
      "cricket": 4564,
      "kak": 4565,
      "miami": 4566,
      "##pa": 4567,
      "##pole": 4568,
      "##ils": 4569,
      "##aped": 4570,
      "places": 4571,
      "recent": 4572,
      "bob": 4573,
      "northwest": 4574,
      "1997": 4575,
      "movie": 4576,
      "singer": 4577,
      "opera": 4578,
      "distance": 4579,
      "entertain": 4580,
      "somal": 4581,
      "silver": 4582,
      "widely": 4583,
      "jim": 4584,
      "ka": 4585,
      "lot": 4586,
      "tel": 4587,
      "##rate": 4588,
      "##gal": 4589,
      "##vement": 4590,
      "foreign": 4591,
      "resc": 4592,
      "means": 4593,
      "offered": 4594,
      "active": 4595,
      "genus": 4596,
      "emper": 4597,
      "model": 4598,
      "levels": 4599,
      "copies": 4600,
      "peaked": 4601,
      "removed": 4602,
      "cadmium": 4603,
      "bene": 4604,
      "wa": 4605,
      "##ny": 4606,
      "##awn": 4607,
      "##rovers": 4608,
      "energy": 4609,
      "##ovic": 4610,
      "scoring": 4611,
      "182": 4612,
      "##izing": 4613,
      "edition": 4614,
      "protest": 4615,
      "typically": 4616,
      "opportun": 4617,
      "meeting": 4618,
      "respectively": 4619,
      "question": 4620,
      "##track": 4621,
      "scotland": 4622,
      "bor": 4623,
      "link": 4624,
      "mess": 4625,
      "wear": 4626,
      "##gs": 4627,
      "thous": 4628,
      "##ros": 4629,
      "prince": 4630,
      "compr": 4631,
      "controvers": 4632,
      "doct": 4633,
      "performances": 4634,
      "governor": 4635,
      "attempted": 4636,
      "soundtrack": 4637,
      "combined": 4638,
      "responsible": 4639,
      "academy": 4640,
      "touchdown": 4641,
      "alex": 4642,
      "lu": 4643,
      "china": 4644,
      "##rie": 4645,
      "sports": 4646,
      "##overs": 4647,
      "branch": 4648,
      "musc": 4649,
      "sets": 4650,
      "describes": 4651,
      "observed": 4652,
      "jackson": 4653,
      "labor": 4654,
      "fast": 4655,
      "rout": 4656,
      "##anz": 4657,
      "anderson": 4658,
      "##ication": 4659,
      "##ado": 4660,
      "##tered": 4661,
      "##abor": 4662,
      "remix": 4663,
      "dress": 4664,
      "smith": 4665,
      "chris": 4666,
      "islands": 4667,
      "heavily": 4668,
      "matches": 4669,
      "audience": 4670,
      "houses": 4671,
      "theatre": 4672,
      "pennsylvania": 4673,
      "51": 4674,
      "dun": 4675,
      "habit": 4676,
      "lie": 4677,
      "##ha": 4678,
      "stra": 4679,
      "##send": 4680,
      "instr": 4681,
      "famil": 4682,
      "advant": 4683,
      "entr": 4684,
      "promotion": 4685,
      "braath": 4686,
      "reduced": 4687,
      "candid": 4688,
      "stadium": 4689,
      "vehic": 4690,
      "37": 4691,
      "##aven": 4692,
      "arts": 4693,
      "resulted": 4694,
      "peron": 4695,
      "appar": 4696,
      "carry": 4697,
      "parents": 4698,
      "northeast": 4699,
      "emb": 4700,
      "1991": 4701,
      "armed": 4702,
      "respond": 4703,
      "glob": 4704,
      "rights": 4705,
      "concluded": 4706,
      "envir": 4707,
      "kakapo": 4708,
      "48": 4709,
      "dream": 4710,
      "sister": 4711,
      "##lict": 4712,
      "##anes": 4713,
      "stating": 4714,
      "reign": 4715,
      "chronic": 4716,
      "quality": 4717,
      "1992": 4718,
      "defence": 4719,
      "appearances": 4720,
      "contrast": 4721,
      "looking": 4722,
      "completely": 4723,
      "channel": 4724,
      "76": 4725,
      "et": 4726,
      "sales": 4727,
      "##inal": 4728,
      "##ican": 4729,
      "reform": 4730,
      "##ems": 4731,
      "##ulations": 4732,
      "clim": 4733,
      "managed": 4734,
      "minnes": 4735,
      "winter": 4736,
      "calling": 4737,
      "featuring": 4738,
      "reports": 4739,
      "extr": 4740,
      "activity": 4741,
      "separate": 4742,
      "kilomet": 4743,
      "revealed": 4744,
      "spirit": 4745,
      "minnesota": 4746,
      "3rd": 4747,
      "bh": 4748,
      "lis": 4749,
      "mech": 4750,
      "wave": 4751,
      "##ura": 4752,
      "clar": 4753,
      "plays": 4754,
      "liber": 4755,
      "1994": 4756,
      "colour": 4757,
      "artists": 4758,
      "townsend": 4759,
      "refused": 4760,
      "cultural": 4761,
      "declared": 4762,
      "conditions": 4763,
      "eye": 4764,
      "domest": 4765,
      "hawai": 4766,
      "italian": 4767,
      "architect": 4768,
      "hors": 4769,
      "jul": 4770,
      "overs": 4771,
      "sle": 4772,
      "##hold": 4773,
      "##isl": 4774,
      "##isation": 4775,
      "##ift": 4776,
      "##ella": 4777,
      "##athus": 4778,
      "residents": 4779,
      "therefore": 4780,
      "europ": 4781,
      "progress": 4782,
      "honor": 4783,
      "rosebery": 4784,
      "analys": 4785,
      "categ": 4786,
      "fat": 4787,
      "tun": 4788,
      "##hood": 4789,
      "##bre": 4790,
      "##bird": 4791,
      "##beer": 4792,
      "##ays": 4793,
      "coming": 4794,
      "sust": 4795,
      "##essions": 4796,
      "##rial": 4797,
      "webs": 4798,
      "offer": 4799,
      "formation": 4800,
      "seasons": 4801,
      "specim": 4802,
      "150": 4803,
      "expected": 4804,
      "elev": 4805,
      "walpole": 4806,
      "survey": 4807,
      "naval": 4808,
      "folk": 4809,
      "meyerbeer": 4810,
      "environ": 4811,
      "lib": 4812,
      "sr": 4813,
      "sense": 4814,
      "tessa": 4815,
      "##atives": 4816,
      "##stone": 4817,
      "alle": 4818,
      "##utions": 4819,
      "shiva": 4820,
      "##ogue": 4821,
      "grass": 4822,
      "weaken": 4823,
      "finals": 4824,
      "actions": 4825,
      "mainly": 4826,
      "efforts": 4827,
      "words": 4828,
      "border": 4829,
      "52": 4830,
      "push": 4831,
      "yue": 4832,
      "##iro": 4833,
      "##ingu": 4834,
      "becomes": 4835,
      "attention": 4836,
      "actually": 4837,
      "charl": 4838,
      "job": 4839,
      "##apped": 4840,
      "demonst": 4841,
      "legisl": 4842,
      "activities": 4843,
      "strugg": 4844,
      "intellig": 4845,
      "nicole": 4846,
      "emperor": 4847,
      "34": 4848,
      "nes": 4849,
      "##hl": 4850,
      "##road": 4851,
      "recomm": 4852,
      "scale": 4853,
      "weather": 4854,
      "security": 4855,
      "assault": 4856,
      "1970": 4857,
      "hait": 4858,
      "illust": 4859,
      "struck": 4860,
      "core": 4861,
      "lb": 4862,
      "nest": 4863,
      "ros": 4864,
      "##use": 4865,
      "manu": 4866,
      "actress": 4867,
      "write": 4868,
      "issues": 4869,
      "illino": 4870,
      "excav": 4871,
      "primarily": 4872,
      "practice": 4873,
      "ultimately": 4874,
      "reinfor": 4875,
      "braathens": 4876,
      "dang": 4877,
      "ps": 4878,
      "sor": 4879,
      "##lers": 4880,
      "##era": 4881,
      "##onents": 4882,
      "##icip": 4883,
      "##room": 4884,
      "neigh": 4885,
      "spect": 4886,
      "advert": 4887,
      "termin": 4888,
      "titles": 4889,
      "viewers": 4890,
      "achieved": 4891,
      "cannot": 4892,
      "ottoman": 4893,
      "casualties": 4894,
      "bott": 4895,
      "dog": 4896,
      "luc": 4897,
      "tree": 4898,
      "##iber": 4899,
      "alone": 4900,
      "##emic": 4901,
      "cong": 4902,
      "##essor": 4903,
      "contrib": 4904,
      "finkel": 4905,
      "elected": 4906,
      "columb": 4907,
      "johnson": 4908,
      "distinct": 4909,
      "types": 4910,
      "farm": 4911,
      "authority": 4912,
      "accepted": 4913,
      "rainfall": 4914,
      "newspaper": 4915,
      "tournament": 4916,
      "entertainment": 4917,
      "manufact": 4918,
      "finkelstein": 4919,
      "dur": 4920,
      "fully": 4921,
      "mog": 4922,
      "nick": 4923,
      "rug": 4924,
      "roles": 4925,
      "##ek": 4926,
      "##met": 4927,
      "##enue": 4928,
      "step": 4929,
      "chair": 4930,
      "##berg": 4931,
      "spain": 4932,
      "spread": 4933,
      "scul": 4934,
      "workers": 4935,
      "alongside": 4936,
      "planet": 4937,
      "authorities": 4938,
      "hotel": 4939,
      "flooding": 4940,
      "vietnam": 4941,
      "slightly": 4942,
      "incorpor": 4943,
      "bishop": 4944,
      "es": 4945,
      "hers": 4946,
      "mob": 4947,
      "tint": 4948,
      "##jo": 4949,
      "##alty": 4950,
      "react": 4951,
      "sha": 4952,
      "prison": 4953,
      "##eller": 4954,
      "apple": 4955,
      "inters": 4956,
      "broken": 4957,
      "##ledge": 4958,
      "background": 4959,
      "##elsh": 4960,
      "owned": 4961,
      "impact": 4962,
      "antimony": 4963,
      "legal": 4964,
      "independence": 4965,
      "measure": 4966,
      "males": 4967,
      "pound": 4968,
      "##sen": 4969,
      "##rid": 4970,
      "##rain": 4971,
      "##lies": 4972,
      "##mond": 4973,
      "inches": 4974,
      "##ano": 4975,
      "##asy": 4976,
      "tru": 4977,
      "perman": 4978,
      "181": 4979,
      "foundation": 4980,
      "concent": 4981,
      "1986": 4982,
      "exped": 4983,
      "skin": 4984,
      "standing": 4985,
      "khan": 4986,
      "##ceeded": 4987,
      "expressed": 4988,
      "sequence": 4989,
      "louis": 4990,
      "moment": 4991,
      "portugues": 4992,
      "bull": 4993,
      "mu": 4994,
      "ridge": 4995,
      "sarn": 4996,
      "welsh": 4997,
      "##bon": 4998,
      "height": 4999,
      "computer": 5000,
      "twice": 5001,
      "fey": 5002,
      "prepar": 5003,
      "qual": 5004,
      "colony": 5005,
      "defensive": 5006,
      "surre": 5007,
      "showed": 5008,
      "titled": 5009,
      "doub": 5010,
      "affected": 5011,
      "officials": 5012,
      "letters": 5013,
      "battery": 5014,
      "##onymous": 5015,
      "tintin": 5016,
      "portuguese": 5017,
      "aid": 5018,
      "rid": 5019,
      "zhou": 5020,
      "##aen": 5021,
      "toward": 5022,
      "##uled": 5023,
      "##oper": 5024,
      "orb": 5025,
      "spot": 5026,
      "ability": 5027,
      "180": 5028,
      "direction": 5029,
      "artic": 5030,
      "battles": 5031,
      "conflict": 5032,
      "avoid": 5033,
      "deliv": 5034,
      "cerem": 5035,
      "apart": 5036,
      "murder": 5037,
      "mechan": 5038,
      "nesb": 5039,
      "##uff": 5040,
      "##enant": 5041,
      "neut": 5042,
      "##astic": 5043,
      "tend": 5044,
      "varanas": 5045,
      "convers": 5046,
      "says": 5047,
      "influenced": 5048,
      "ceres": 5049,
      "journey": 5050,
      "angeles": 5051,
      "mentioned": 5052,
      "domestic": 5053,
      "varanasi": 5054,
      "49": 5055,
      "data": 5056,
      "sides": 5057,
      "wed": 5058,
      "##ena": 5059,
      "andrew": 5060,
      "##ims": 5061,
      "compar": 5062,
      "cook": 5063,
      "produce": 5064,
      "continues": 5065,
      "historic": 5066,
      "##while": 5067,
      "propos": 5068,
      "earliest": 5069,
      "narrow": 5070,
      "encour": 5071,
      "individuals": 5072,
      "flying": 5073,
      "physical": 5074,
      "disease": 5075,
      "nesbitt": 5076,
      "dv": 5077,
      "kar": 5078,
      "lives": 5079,
      "##cing": 5080,
      "##hel": 5081,
      "##ych": 5082,
      "##bl": 5083,
      "##rian": 5084,
      "founded": 5085,
      "lands": 5086,
      "barrow": 5087,
      "resulting": 5088,
      "sites": 5089,
      "torped": 5090,
      "odaen": 5091,
      "snow": 5092,
      "admir": 5093,
      "exhib": 5094,
      "adopted": 5095,
      "financial": 5096,
      "torpedo": 5097,
      "oil": 5098,
      "##eck": 5099,
      "##ols": 5100,
      "alab": 5101,
      "##illa": 5102,
      "eva": 5103,
      "themes": 5104,
      "else": 5105,
      "1990": 5106,
      "singing": 5107,
      "studios": 5108,
      "officially": 5109,
      "basis": 5110,
      "represented": 5111,
      "engineer": 5112,
      "digital": 5113,
      "withdraw": 5114,
      "dedicated": 5115,
      "advantage": 5116,
      "environment": 5117,
      "sarnia": 5118,
      "odaenathus": 5119,
      "cin": 5120,
      "cit": 5121,
      "##ya": 5122,
      "##oud": 5123,
      "executive": 5124,
      "recon": 5125,
      "contain": 5126,
      "doing": 5127,
      "##ancy": 5128,
      "losing": 5129,
      "surrounding": 5130,
      "scholars": 5131,
      "dumont": 5132,
      "illinois": 5133,
      "mogad": 5134,
      "65": 5135,
      "din": 5136,
      "dance": 5137,
      "faced": 5138,
      "vess": 5139,
      "##rane": 5140,
      "##lings": 5141,
      "spl": 5142,
      "manchester": 5143,
      "relatively": 5144,
      "18th": 5145,
      "acting": 5146,
      "emph": 5147,
      "drive": 5148,
      "effort": 5149,
      "pattern": 5150,
      "letter": 5151,
      "potential": 5152,
      "transferred": 5153,
      "olympic": 5154,
      "thunderbird": 5155,
      "maximum": 5156,
      "cities": 5157,
      "hope": 5158,
      "jump": 5159,
      "kg": 5160,
      "##tv": 5161,
      "##lied": 5162,
      "##ka": 5163,
      "attended": 5164,
      "chor": 5165,
      "##ills": 5166,
      "unlike": 5167,
      "note": 5168,
      "appeal": 5169,
      "older": 5170,
      "campus": 5171,
      "extra": 5172,
      "tried": 5173,
      "organized": 5174,
      "require": 5175,
      "females": 5176,
      "wilhel": 5177,
      "piece": 5178,
      "gang": 5179,
      "vic": 5180,
      "##een": 5181,
      "##rect": 5182,
      "conver": 5183,
      "##ulate": 5184,
      "proved": 5185,
      "##istics": 5186,
      "boat": 5187,
      "agric": 5188,
      "imper": 5189,
      "charge": 5190,
      "opin": 5191,
      "student": 5192,
      "1988": 5193,
      "element": 5194,
      "capture": 5195,
      "clean": 5196,
      "behav": 5197,
      "freeway": 5198,
      "equip": 5199,
      "meanwhile": 5200,
      "sources": 5201,
      "beyond": 5202,
      "target": 5203,
      "46": 5204,
      "die": 5205,
      "eat": 5206,
      "kent": 5207,
      "##kare": 5208,
      "##adel": 5209,
      "shape": 5210,
      "##odon": 5211,
      "##ishu": 5212,
      "##iana": 5213,
      "divided": 5214,
      "helms": 5215,
      "designated": 5216,
      "possibly": 5217,
      "believe": 5218,
      "intensity": 5219,
      "joseph": 5220,
      "determined": 5221,
      "alabama": 5222,
      "les": 5223,
      "rar": 5224,
      "rod": 5225,
      "##ta": 5226,
      "##writ": 5227,
      "##wide": 5228,
      "##kh": 5229,
      "##igan": 5230,
      "plum": 5231,
      "prime": 5232,
      "##izes": 5233,
      "weight": 5234,
      "flag": 5235,
      "follows": 5236,
      "edward": 5237,
      "medical": 5238,
      "repe": 5239,
      "function": 5240,
      "paid": 5241,
      "animal": 5242,
      "dissip": 5243,
      "omaha": 5244,
      "washington": 5245,
      "agricult": 5246,
      "64": 5247,
      "draft": 5248,
      "eth": 5249,
      "fix": 5250,
      "mouth": 5251,
      "##itness": 5252,
      "unkn": 5253,
      "images": 5254,
      "arms": 5255,
      "1960s": 5256,
      "supporting": 5257,
      "solo": 5258,
      "historian": 5259,
      "argent": 5260,
      "homes": 5261,
      "institute": 5262,
      "simply": 5263,
      "mogadishu": 5264,
      "emphas": 5265,
      "cust": 5266,
      "cub": 5267,
      "dar": 5268,
      "iv": 5269,
      "md": 5270,
      "paint": 5271,
      "sens": 5272,
      "##ero": 5273,
      "ingr": 5274,
      "##station": 5275,
      "onto": 5276,
      "##otes": 5277,
      "frag": 5278,
      "content": 5279,
      "mind": 5280,
      "portion": 5281,
      "1940": 5282,
      "returning": 5283,
      "kept": 5284,
      "golden": 5285,
      "growing": 5286,
      "innis": 5287,
      "mccall": 5288,
      "document": 5289,
      "economic": 5290,
      "couple": 5291,
      "entrance": 5292,
      "sculpt": 5293,
      "rare": 5294,
      "sis": 5295,
      "##wise": 5296,
      "##inary": 5297,
      "##urb": 5298,
      "##ette": 5299,
      "chos": 5300,
      "##osh": 5301,
      "##umber": 5302,
      "##gend": 5303,
      "perm": 5304,
      "feed": 5305,
      "underground": 5306,
      "1980s": 5307,
      "grew": 5308,
      "trip": 5309,
      "purs": 5310,
      "argued": 5311,
      "technology": 5312,
      "knowledge": 5313,
      "archaeological": 5314,
      "secretary": 5315,
      "wilhelm": 5316,
      "kore": 5317,
      "pine": 5318,
      "rit": 5319,
      "rih": 5320,
      "##iations": 5321,
      "share": 5322,
      "##agan": 5323,
      "deploy": 5324,
      "compound": 5325,
      "playstation": 5326,
      "weak": 5327,
      "guest": 5328,
      "leader": 5329,
      "depth": 5330,
      "restaur": 5331,
      "suggests": 5332,
      "weekly": 5333,
      "##where": 5334,
      "structures": 5335,
      "buried": 5336,
      "favour": 5337,
      "railway": 5338,
      "website": 5339,
      "rugby": 5340,
      "rihanna": 5341,
      "53": 5342,
      "55": 5343,
      "eag": 5344,
      "gained": 5345,
      "jup": 5346,
      "lane": 5347,
      "tact": 5348,
      "##oe": 5349,
      "##ety": 5350,
      "lew": 5351,
      "##asty": 5352,
      "flu": 5353,
      "miner": 5354,
      "belong": 5355,
      "landing": 5356,
      "1964": 5357,
      "advanced": 5358,
      "causing": 5359,
      "reference": 5360,
      "palest": 5361,
      "orders": 5362,
      "criticized": 5363,
      "label": 5364,
      "volume": 5365,
      "baseball": 5366,
      "currently": 5367,
      "treaty": 5368,
      "5th": 5369,
      "au": 5370,
      "ba": 5371,
      "##rative": 5372,
      "##eratops": 5373,
      "##acement": 5374,
      "##istry": 5375,
      "unf": 5376,
      "containing": 5377,
      "newly": 5378,
      "coal": 5379,
      "reaching": 5380,
      "visual": 5381,
      "results": 5382,
      "debuted": 5383,
      "projects": 5384,
      "hamels": 5385,
      "djed": 5386,
      "dismiss": 5387,
      "multiple": 5388,
      "prominent": 5389,
      "horses": 5390,
      "equipment": 5391,
      "ib": 5392,
      "oh": 5393,
      "##och": 5394,
      "##po": 5395,
      "##ez": 5396,
      "##mes": 5397,
      "##vin": 5398,
      "theory": 5399,
      "##edar": 5400,
      "##orter": 5401,
      "inch": 5402,
      "stock": 5403,
      "beaut": 5404,
      "shel": 5405,
      "excl": 5406,
      "enemy": 5407,
      "compl": 5408,
      "column": 5409,
      "defend": 5410,
      "distrib": 5411,
      "1947": 5412,
      "importance": 5413,
      "volun": 5414,
      "encoun": 5415,
      "abandoned": 5416,
      "chosen": 5417,
      "djedkare": 5418,
      "56": 5419,
      "ahead": 5420,
      "bru": 5421,
      "ec": 5422,
      "jon": 5423,
      "math": 5424,
      "outer": 5425,
      "##enge": 5426,
      "##aming": 5427,
      "##irt": 5428,
      "rejected": 5429,
      "legend": 5430,
      "try": 5431,
      "adj": 5432,
      "##ached": 5433,
      "##prise": 5434,
      "consecutive": 5435,
      "120": 5436,
      "democr": 5437,
      "claims": 5438,
      "torres": 5439,
      "cases": 5440,
      "faith": 5441,
      "##timore": 5442,
      "baltimore": 5443,
      "escape": 5444,
      "seems": 5445,
      "property": 5446,
      "granted": 5447,
      "molec": 5448,
      "analysis": 5449,
      "unknown": 5450,
      "jupiter": 5451,
      "43": 5452,
      "hib": 5453,
      "mut": 5454,
      "ry": 5455,
      "rise": 5456,
      "trou": 5457,
      "glass": 5458,
      "visited": 5459,
      "commonly": 5460,
      "settlement": 5461,
      "condition": 5462,
      "increasingly": 5463,
      "straight": 5464,
      "bc": 5465,
      "bell": 5466,
      "bbc": 5467,
      "##la": 5468,
      "##more": 5469,
      "##ati": 5470,
      "anonymous": 5471,
      "atm": 5472,
      "deities": 5473,
      "train": 5474,
      "regions": 5475,
      "seconds": 5476,
      "broke": 5477,
      "address": 5478,
      "creation": 5479,
      "1941": 5480,
      "##azz": 5481,
      "passing": 5482,
      "request": 5483,
      "##white": 5484,
      "religion": 5485,
      "strike": 5486,
      "identified": 5487,
      "chapter": 5488,
      "nominated": 5489,
      "senior": 5490,
      "breeding": 5491,
      "scottish": 5492,
      "administration": 5493,
      "crazy": 5494,
      "wounded": 5495,
      "applewhite": 5496,
      "cart": 5497,
      "cells": 5498,
      "hart": 5499,
      "haven": 5500,
      "igu": 5501,
      "ring": 5502,
      "save": 5503,
      "##osoph": 5504,
      "sud": 5505,
      "unique": 5506,
      "truth": 5507,
      "##phia": 5508,
      "secondary": 5509,
      "dram": 5510,
      "operated": 5511,
      "systems": 5512,
      "promoted": 5513,
      "killing": 5514,
      "chapel": 5515,
      "problem": 5516,
      "synth": 5517,
      "temperature": 5518,
      "francis": 5519,
      "risk": 5520,
      "##adelphia": 5521,
      "atmosph": 5522,
      "bat": 5523,
      "greek": 5524,
      "kir": 5525,
      "kings": 5526,
      "rac": 5527,
      "selling": 5528,
      "##iant": 5529,
      "##fl": 5530,
      "##lam": 5531,
      "thing": 5532,
      "##esis": 5533,
      "##ala": 5534,
      "##iced": 5535,
      "congress": 5536,
      "trust": 5537,
      "fired": 5538,
      "##ogen": 5539,
      "nothing": 5540,
      "aired": 5541,
      "1989": 5542,
      "famous": 5543,
      "opposed": 5544,
      "agreement": 5545,
      "premier": 5546,
      "egyptian": 5547,
      "literature": 5548,
      "accompan": 5549,
      "micro": 5550,
      "dvd": 5551,
      "41": 5552,
      "9th": 5553,
      "dw": 5554,
      "hyp": 5555,
      "rub": 5556,
      "##dh": 5557,
      "##ads": 5558,
      "stations": 5559,
      "serve": 5560,
      "##rick": 5561,
      "defin": 5562,
      "descript": 5563,
      "1985": 5564,
      "1970s": 5565,
      "repair": 5566,
      "swed": 5567,
      "controlled": 5568,
      "virt": 5569,
      "animals": 5570,
      "growth": 5571,
      "urban": 5572,
      "fantasy": 5573,
      "4th": 5574,
      "bern": 5575,
      "camb": 5576,
      "mig": 5577,
      "none": 5578,
      "tan": 5579,
      "tell": 5580,
      "tail": 5581,
      "vert": 5582,
      "##nest": 5583,
      "##lines": 5584,
      "##mun": 5585,
      "##rey": 5586,
      "##stream": 5587,
      "reaction": 5588,
      "##aine": 5589,
      "##abb": 5590,
      "##ips": 5591,
      "boats": 5592,
      "contact": 5593,
      "cool": 5594,
      "interchange": 5595,
      "filmed": 5596,
      "writes": 5597,
      "drama": 5598,
      "1984": 5599,
      "1972": 5600,
      "youth": 5601,
      "towns": 5602,
      "explained": 5603,
      "speak": 5604,
      "criticism": 5605,
      "mike": 5606,
      "ode": 5607,
      "philosoph": 5608,
      "ideas": 5609,
      "motor": 5610,
      "semi": 5611,
      "choice": 5612,
      "pieces": 5613,
      "poetry": 5614,
      "croatia": 5615,
      "crowd": 5616,
      "confirmed": 5617,
      "bit": 5618,
      "cry": 5619,
      "fash": 5620,
      "lov": 5621,
      "mand": 5622,
      "sin": 5623,
      "vul": 5624,
      "##ike": 5625,
      "##kin": 5626,
      "##asc": 5627,
      "##icient": 5628,
      "sund": 5629,
      "##ighth": 5630,
      "notable": 5631,
      "reserv": 5632,
      "impress": 5633,
      "consisted": 5634,
      "register": 5635,
      "max": 5636,
      "invasion": 5637,
      "slam": 5638,
      "1987": 5639,
      "landfall": 5640,
      "calc": 5641,
      "pitched": 5642,
      "regarded": 5643,
      "cougar": 5644,
      "rapidly": 5645,
      "weapons": 5646,
      "herself": 5647,
      "bats": 5648,
      "fal": 5649,
      "fame": 5650,
      "gives": 5651,
      "mir": 5652,
      "matter": 5653,
      "##don": 5654,
      "##icks": 5655,
      "stan": 5656,
      "send": 5657,
      "arc": 5658,
      "extend": 5659,
      "resemb": 5660,
      "bright": 5661,
      "indu": 5662,
      "actors": 5663,
      "joint": 5664,
      "mush": 5665,
      "highlight": 5666,
      "minim": 5667,
      "130": 5668,
      "##resp": 5669,
      "myth": 5670,
      "raid": 5671,
      "keats": 5672,
      "battalions": 5673,
      "williams": 5674,
      "biograph": 5675,
      "philadelphia": 5676,
      "memorial": 5677,
      "cardiff": 5678,
      "aspects": 5679,
      "families": 5680,
      "57": 5681,
      "ari": 5682,
      "dry": 5683,
      "dani": 5684,
      "##aust": 5685,
      "reun": 5686,
      "fresh": 5687,
      "chains": 5688,
      "##umes": 5689,
      "##illo": 5690,
      "leon": 5691,
      "retired": 5692,
      "transit": 5693,
      "maintained": 5694,
      "1944": 5695,
      "steam": 5696,
      "extensive": 5697,
      "value": 5698,
      "fung": 5699,
      "penins": 5700,
      "premi": 5701,
      "dutch": 5702,
      "prepared": 5703,
      "54": 5704,
      "600": 5705,
      "catch": 5706,
      "dial": 5707,
      "drop": 5708,
      "gain": 5709,
      "gulf": 5710,
      "mist": 5711,
      "rog": 5712,
      "##iqu": 5713,
      "##inity": 5714,
      "##iring": 5715,
      "why": 5716,
      "##otyp": 5717,
      "orch": 5718,
      "maria": 5719,
      "carl": 5720,
      "flank": 5721,
      "##awa": 5722,
      "southwest": 5723,
      "southeast": 5724,
      "phase": 5725,
      "##fully": 5726,
      "concer": 5727,
      "steve": 5728,
      "km2": 5729,
      "roads": 5730,
      "laid": 5731,
      "versions": 5732,
      "connected": 5733,
      "significantly": 5734,
      "creating": 5735,
      "subsequent": 5736,
      "jeff": 5737,
      "dropped": 5738,
      "failure": 5739,
      "seventh": 5740,
      "sustained": 5741,
      "bes": 5742,
      "bost": 5743,
      "hms": 5744,
      "kur": 5745,
      "##ls": 5746,
      "##ja": 5747,
      "andy": 5748,
      "italy": 5749,
      "shell": 5750,
      "trail": 5751,
      "abu": 5752,
      "perh": 5753,
      "applic": 5754,
      "emotion": 5755,
      "filming": 5756,
      "1990s": 5757,
      "mah": 5758,
      "1960": 5759,
      "passes": 5760,
      "finding": 5761,
      "walls": 5762,
      "recognized": 5763,
      "injury": 5764,
      "budget": 5765,
      "scheduled": 5766,
      "lieut": 5767,
      "ice": 5768,
      "rot": 5769,
      "sought": 5770,
      "wish": 5771,
      "wolf": 5772,
      "##ris": 5773,
      "thin": 5774,
      "##itable": 5775,
      "chose": 5776,
      "gram": 5777,
      "monument": 5778,
      "supply": 5779,
      "province": 5780,
      "starts": 5781,
      "publication": 5782,
      "humans": 5783,
      "delay": 5784,
      "champion": 5785,
      "producers": 5786,
      "gradu": 5787,
      "necessary": 5788,
      "perhaps": 5789,
      "96": 5790,
      "fought": 5791,
      "gas": 5792,
      "gab": 5793,
      "gord": 5794,
      "hem": 5795,
      "hell": 5796,
      "il": 5797,
      "##mark": 5798,
      "##rete": 5799,
      "##theless": 5800,
      "consequ": 5801,
      "chel": 5802,
      "comic": 5803,
      "unus": 5804,
      "##ieval": 5805,
      "recently": 5806,
      "parall": 5807,
      "americans": 5808,
      "medieval": 5809,
      "protection": 5810,
      "basket": 5811,
      "belief": 5812,
      "popularity": 5813,
      "nucleus": 5814,
      "frequently": 5815,
      "surrender": 5816,
      "dated": 5817,
      "motion": 5818,
      "rating": 5819,
      "rival": 5820,
      "##can": 5821,
      "##ees": 5822,
      "##ato": 5823,
      "##aria": 5824,
      "##isy": 5825,
      "stones": 5826,
      "##olved": 5827,
      "seg": 5828,
      "reconst": 5829,
      "cooper": 5830,
      "soft": 5831,
      "ends": 5832,
      "##amese": 5833,
      "crus": 5834,
      "depend": 5835,
      "distingu": 5836,
      "##apping": 5837,
      "trial": 5838,
      "inscript": 5839,
      "household": 5840,
      "priest": 5841,
      "employed": 5842,
      "martin": 5843,
      "gradually": 5844,
      "powers": 5845,
      "constitution": 5846,
      "degree": 5847,
      "bottom": 5848,
      "ai": 5849,
      "fellow": 5850,
      "naz": 5851,
      "nathan": 5852,
      "ron": 5853,
      "##fort": 5854,
      "##onent": 5855,
      "shaped": 5856,
      "comes": 5857,
      "contained": 5858,
      "gray": 5859,
      "##ologists": 5860,
      "generation": 5861,
      "surviv": 5862,
      "michigan": 5863,
      "facilities": 5864,
      "regarding": 5865,
      "conduct": 5866,
      "oxford": 5867,
      "vietnamese": 5868,
      "##eastern": 5869,
      "policy": 5870,
      "libr": 5871,
      "thunderbirds": 5872,
      "iguan": 5873,
      "cambod": 5874,
      "peninsula": 5875,
      "73": 5876,
      "700": 5877,
      "cited": 5878,
      "eld": 5879,
      "wis": 5880,
      "##oen": 5881,
      "##eda": 5882,
      "altar": 5883,
      "cham": 5884,
      "exec": 5885,
      "lev": 5886,
      "contributed": 5887,
      "cole": 5888,
      "prefer": 5889,
      "attorn": 5890,
      "join": 5891,
      "worldwide": 5892,
      "severe": 5893,
      "simple": 5894,
      "1981": 5895,
      "crash": 5896,
      "179": 5897,
      "17th": 5898,
      "1942": 5899,
      "serving": 5900,
      "collected": 5901,
      "allows": 5902,
      "convention": 5903,
      "finds": 5904,
      "astron": 5905,
      "improved": 5906,
      "treatment": 5907,
      "negative": 5908,
      "athletes": 5909,
      "pilot": 5910,
      "intelligence": 5911,
      "psych": 5912,
      "attorney": 5913,
      "62": 5914,
      "95": 5915,
      "egg": 5916,
      "fan": 5917,
      "kang": 5918,
      "nc": 5919,
      "sap": 5920,
      "##ias": 5921,
      "##elle": 5922,
      "##acu": 5923,
      "store": 5924,
      "##iments": 5925,
      "neither": 5926,
      "##acks": 5927,
      "steph": 5928,
      "##ancing": 5929,
      "effective": 5930,
      "programs": 5931,
      "entirely": 5932,
      "macle": 5933,
      "commissioned": 5934,
      "safety": 5935,
      "fictional": 5936,
      "cinem": 5937,
      "volunte": 5938,
      "lieutenant": 5939,
      "800": 5940,
      "97": 5941,
      "cd": 5942,
      "cav": 5943,
      "ty": 5944,
      "vice": 5945,
      "witness": 5946,
      "##lusion": 5947,
      "##kins": 5948,
      "##iled": 5949,
      "##thur": 5950,
      "items": 5951,
      "##ifying": 5952,
      "##sey": 5953,
      "canal": 5954,
      "floor": 5955,
      "centuries": 5956,
      "muslim": 5957,
      "concrete": 5958,
      "expanded": 5959,
      "1950s": 5960,
      "1918": 5961,
      "turner": 5962,
      "solid": 5963,
      "electric": 5964,
      "industrial": 5965,
      "aston": 5966,
      "normal": 5967,
      "slowly": 5968,
      "dynasty": 5969,
      "challeng": 5970,
      "kilometres": 5971,
      "imperial": 5972,
      "lewis": 5973,
      "exclus": 5974,
      "fashion": 5975,
      "han": 5976,
      "hind": 5977,
      "poll": 5978,
      "ts": 5979,
      "tall": 5980,
      "##rig": 5981,
      "##ua": 5982,
      "##win": 5983,
      "##ingly": 5984,
      "##rec": 5985,
      "##ivity": 5986,
      "alf": 5987,
      "##ched": 5988,
      "frame": 5989,
      "##apes": 5990,
      "##sea": 5991,
      "incident": 5992,
      "##outs": 5993,
      "mario": 5994,
      "##rupt": 5995,
      "##ansas": 5996,
      "decade": 5997,
      "decades": 5998,
      "wars": 5999,
      "12th": 6000,
      "##oys": 6001,
      "portra": 6002,
      "1939": 6003,
      "negot": 6004,
      "reasons": 6005,
      "##borough": 6006,
      "russian": 6007,
      "drawn": 6008,
      "experienced": 6009,
      "roughly": 6010,
      "lisa": 6011,
      "expedition": 6012,
      "chorus": 6013,
      "boston": 6014,
      "61": 6015,
      "72": 6016,
      "85": 6017,
      "dates": 6018,
      "dota": 6019,
      "gil": 6020,
      "gross": 6021,
      "nba": 6022,
      "sie": 6023,
      "##iences": 6024,
      "##de": 6025,
      "##mans": 6026,
      "stages": 6027,
      "##eton": 6028,
      "##erse": 6029,
      "##uli": 6030,
      "plate": 6031,
      "firm": 6032,
      "worth": 6033,
      "##oked": 6034,
      "evita": 6035,
      "upd": 6036,
      "engaged": 6037,
      "pope": 6038,
      "transm": 6039,
      "1969": 6040,
      "1965": 6041,
      "didn": 6042,
      "evening": 6043,
      "deaths": 6044,
      "championships": 6045,
      "earthqu": 6046,
      "wrest": 6047,
      "eyes": 6048,
      "occasionally": 6049,
      "sweet": 6050,
      "europium": 6051,
      "bart": 6052,
      "hin": 6053,
      "nich": 6054,
      "pap": 6055,
      "ta": 6056,
      "##set": 6057,
      "##rum": 6058,
      "##rang": 6059,
      "##iot": 6060,
      "##pass": 6061,
      "##erted": 6062,
      "##amin": 6063,
      "##ading": 6064,
      "stal": 6065,
      "##lywood": 6066,
      "##ola": 6067,
      "##ayer": 6068,
      "isol": 6069,
      "##ava": 6070,
      "pros": 6071,
      "adap": 6072,
      "allied": 6073,
      "terror": 6074,
      "##anny": 6075,
      "editor": 6076,
      "1975": 6077,
      "passeng": 6078,
      "juan": 6079,
      "avenue": 6080,
      "additionally": 6081,
      "authors": 6082,
      "sentence": 6083,
      "##bridge": 6084,
      "##shire": 6085,
      "speaking": 6086,
      "massive": 6087,
      "turk": 6088,
      "successfully": 6089,
      "losses": 6090,
      "girls": 6091,
      "violence": 6092,
      "occupied": 6093,
      "platform": 6094,
      "attract": 6095,
      "purchased": 6096,
      "municip": 6097,
      "71": 6098,
      "gully": 6099,
      "jac": 6100,
      "jain": 6101,
      "jurch": 6102,
      "kits": 6103,
      "loy": 6104,
      "merc": 6105,
      "rivers": 6106,
      "wides": 6107,
      "##oir": 6108,
      "##ini": 6109,
      "##ompl": 6110,
      "##ela": 6111,
      "##thm": 6112,
      "##ider": 6113,
      "isab": 6114,
      "##opes": 6115,
      "adapt": 6116,
      "boise": 6117,
      "abb": 6118,
      "bron": 6119,
      "quite": 6120,
      "1968": 6121,
      "greg": 6122,
      "organiz": 6123,
      "patrol": 6124,
      "declined": 6125,
      "composition": 6126,
      "dollar": 6127,
      "pleas": 6128,
      "conservation": 6129,
      "gordon": 6130,
      "94": 6131,
      "da": 6132,
      "drew": 6133,
      "hang": 6134,
      "rome": 6135,
      "sail": 6136,
      "wick": 6137,
      "ye": 6138,
      "##sw": 6139,
      "##uan": 6140,
      "##han": 6141,
      "##hire": 6142,
      "##yson": 6143,
      "##adh": 6144,
      "##utz": 6145,
      "##ersey": 6146,
      "##anda": 6147,
      "formula": 6148,
      "remn": 6149,
      "liu": 6150,
      "subm": 6151,
      "brook": 6152,
      "setting": 6153,
      "longest": 6154,
      "164": 6155,
      "160": 6156,
      "barb": 6157,
      "churches": 6158,
      "arrival": 6159,
      "stret": 6160,
      "laws": 6161,
      "holy": 6162,
      "begun": 6163,
      "jamal": 6164,
      "learned": 6165,
      "tennyson": 6166,
      "briefly": 6167,
      "disappear": 6168,
      "category": 6169,
      "permanent": 6170,
      "khanh": 6171,
      "wedding": 6172,
      "paintings": 6173,
      "81": 6174,
      "map": 6175,
      "rene": 6176,
      "sar": 6177,
      "sid": 6178,
      "sector": 6179,
      "zone": 6180,
      "##town": 6181,
      "##eed": 6182,
      "##inn": 6183,
      "##itan": 6184,
      "##ules": 6185,
      "##istan": 6186,
      "##ocated": 6187,
      "spons": 6188,
      "grav": 6189,
      "marl": 6190,
      "marsh": 6191,
      "applied": 6192,
      "brid": 6193,
      "interact": 6194,
      "accompl": 6195,
      "elimin": 6196,
      "guide": 6197,
      "adding": 6198,
      "crime": 6199,
      "owners": 6200,
      "protagon": 6201,
      "corpor": 6202,
      "possibility": 6203,
      "billion": 6204,
      "brian": 6205,
      "exception": 6206,
      "pupp": 6207,
      "purpose": 6208,
      "macleod": 6209,
      "ble": 6210,
      "bath": 6211,
      "cos": 6212,
      "hired": 6213,
      "##ule": 6214,
      "##arian": 6215,
      "##lyss": 6216,
      "albert": 6217,
      "arsen": 6218,
      "unsu": 6219,
      "roof": 6220,
      "marine": 6221,
      "impr": 6222,
      "acres": 6223,
      "door": 6224,
      "moves": 6225,
      "guy": 6226,
      "calls": 6227,
      "simon": 6228,
      "1974": 6229,
      "corresp": 6230,
      "basin": 6231,
      "##ographic": 6232,
      "fields": 6233,
      "planning": 6234,
      "settlers": 6235,
      "participated": 6236,
      "dublin": 6237,
      "thirty": 6238,
      "enjoyed": 6239,
      "hydro": 6240,
      "instrument": 6241,
      "responded": 6242,
      "accompanied": 6243,
      "correspond": 6244,
      "cul": 6245,
      "fuel": 6246,
      "hip": 6247,
      "jes": 6248,
      "tu": 6249,
      "##eals": 6250,
      "##isers": 6251,
      "##amy": 6252,
      "ones": 6253,
      "heard": 6254,
      "##oses": 6255,
      "seat": 6256,
      "##unk": 6257,
      "uns": 6258,
      "##okes": 6259,
      "##ffman": 6260,
      "decre": 6261,
      "assass": 6262,
      "wins": 6263,
      "brothers": 6264,
      "phill": 6265,
      "simone": 6266,
      "performing": 6267,
      "developing": 6268,
      "110": 6269,
      "oldest": 6270,
      "177": 6271,
      "stew": 6272,
      "1966": 6273,
      "heads": 6274,
      "deter": 6275,
      "clubs": 6276,
      "initi": 6277,
      "speech": 6278,
      "combination": 6279,
      "braz": 6280,
      "existing": 6281,
      "existence": 6282,
      "happy": 6283,
      "anthony": 6284,
      "##worth": 6285,
      "chemical": 6286,
      "symbol": 6287,
      "77": 6288,
      "dru": 6289,
      "kat": 6290,
      "lic": 6291,
      "ni": 6292,
      "vision": 6293,
      "##pread": 6294,
      "##ym": 6295,
      "ther": 6296,
      "##aked": 6297,
      "lear": 6298,
      "reserve": 6299,
      "marc": 6300,
      "goes": 6301,
      "carib": 6302,
      "charter": 6303,
      "accident": 6304,
      "consists": 6305,
      "populations": 6306,
      "belt": 6307,
      "grey": 6308,
      "justice": 6309,
      "1950": 6310,
      "1936": 6311,
      "lasted": 6312,
      "reviewers": 6313,
      "typical": 6314,
      "moon": 6315,
      "younger": 6316,
      "freed": 6317,
      "competitions": 6318,
      "cardinal": 6319,
      "dominated": 6320,
      "neck": 6321,
      "literary": 6322,
      "opportunity": 6323,
      "thousands": 6324,
      "earthquake": 6325,
      "widespread": 6326,
      "aim": 6327,
      "dock": 6328,
      "fit": 6329,
      "gri": 6330,
      "jazz": 6331,
      "lit": 6332,
      "mine": 6333,
      "pav": 6334,
      "task": 6335,
      "ulyss": 6336,
      "##com": 6337,
      "##come": 6338,
      "##zer": 6339,
      "##water": 6340,
      "##eds": 6341,
      "##aser": 6342,
      "##iday": 6343,
      "##utation": 6344,
      "chance": 6345,
      "supre": 6346,
      "##iston": 6347,
      "##iance": 6348,
      "##ipl": 6349,
      "recre": 6350,
      "usa": 6351,
      "interior": 6352,
      "submar": 6353,
      "capable": 6354,
      "receiving": 6355,
      "anything": 6356,
      "magic": 6357,
      "missing": 6358,
      "1952": 6359,
      "greatly": 6360,
      "details": 6361,
      "1919": 6362,
      "everything": 6363,
      "mountains": 6364,
      "coastal": 6365,
      "dougl": 6366,
      "technical": 6367,
      "funding": 6368,
      "closely": 6369,
      "stopped": 6370,
      "painting": 6371,
      "substant": 6372,
      "benef": 6373,
      "routes": 6374,
      "weakened": 6375,
      "ceremony": 6376,
      "unsuccess": 6377,
      "ulysses": 6378,
      "59": 6379,
      "66": 6380,
      "caught": 6381,
      "fount": 6382,
      "hung": 6383,
      "kenn": 6384,
      "ori": 6385,
      "rum": 6386,
      "tas": 6387,
      "tells": 6388,
      "witch": 6389,
      "##ni": 6390,
      "##rence": 6391,
      "##rons": 6392,
      "##itors": 6393,
      "##ications": 6394,
      "##usal": 6395,
      "tra": 6396,
      "##pty": 6397,
      "resident": 6398,
      "descend": 6399,
      "joy": 6400,
      "monarch": 6401,
      "acid": 6402,
      "1946": 6403,
      "provides": 6404,
      "1973": 6405,
      "headed": 6406,
      "serves": 6407,
      "courts": 6408,
      "reality": 6409,
      "similarly": 6410,
      "georg": 6411,
      "engineering": 6412,
      "holding": 6413,
      "derived": 6414,
      "creator": 6415,
      "transportation": 6416,
      "economy": 6417,
      "assistant": 6418,
      "hornung": 6419,
      "vehicles": 6420,
      "astronom": 6421,
      "caribbe": 6422,
      "6th": 6423,
      "98": 6424,
      "bought": 6425,
      "kel": 6426,
      "opt": 6427,
      "##laim": 6428,
      "##born": 6429,
      "##body": 6430,
      "##atus": 6431,
      "##ici": 6432,
      "##agre": 6433,
      "##athers": 6434,
      "allah": 6435,
      "aml": 6436,
      "noisy": 6437,
      "##phy": 6438,
      "subt": 6439,
      "supposed": 6440,
      "invited": 6441,
      "175": 6442,
      "downlo": 6443,
      "1967": 6444,
      "myc": 6445,
      "classic": 6446,
      "classified": 6447,
      "1930s": 6448,
      "turning": 6449,
      "storyline": 6450,
      "viewed": 6451,
      "experiment": 6452,
      "survived": 6453,
      "affair": 6454,
      "falls": 6455,
      "hills": 6456,
      "innings": 6457,
      "flights": 6458,
      "banks": 6459,
      "rolling": 6460,
      "filled": 6461,
      "dissipated": 6462,
      "orchest": 6463,
      "turkish": 6464,
      "caribbean": 6465,
      "cens": 6466,
      "jay": 6467,
      "jersey": 6468,
      "pup": 6469,
      "rio": 6470,
      "sed": 6471,
      "sort": 6472,
      "##ram": 6473,
      "##aire": 6474,
      "##bled": 6475,
      "##iles": 6476,
      "##entially": 6477,
      "##cher": 6478,
      "##estone": 6479,
      "shared": 6480,
      "exact": 6481,
      "trying": 6482,
      "##ordin": 6483,
      "grade": 6484,
      "evacu": 6485,
      "flash": 6486,
      "receive": 6487,
      "describing": 6488,
      "1971": 6489,
      "1930": 6490,
      "1914": 6491,
      "ways": 6492,
      "regional": 6493,
      "electronic": 6494,
      "reading": 6495,
      "colonel": 6496,
      "colonial": 6497,
      "rebu": 6498,
      "honour": 6499,
      "railroad": 6500,
      "watched": 6501,
      "alien": 6502,
      "##works": 6503,
      "acquired": 6504,
      "battleship": 6505,
      "opinion": 6506,
      "repeated": 6507,
      "restaurant": 6508,
      "iguanodon": 6509,
      "douglas": 6510,
      "cot": 6511,
      "dan": 6512,
      "dim": 6513,
      "fine": 6514,
      "jones": 6515,
      "mtv": 6516,
      "pack": 6517,
      "rural": 6518,
      "sang": 6519,
      "table": 6520,
      "von": 6521,
      "##rest": 6522,
      "##uous": 6523,
      "##har": 6524,
      "##vens": 6525,
      "inner": 6526,
      "##acity": 6527,
      "asia": 6528,
      "##eme": 6529,
      "##ighter": 6530,
      "##abil": 6531,
      "resist": 6532,
      "resour": 6533,
      "perry": 6534,
      "evil": 6535,
      "whereas": 6536,
      "locations": 6537,
      "1982": 6538,
      "crimin": 6539,
      "1945": 6540,
      "steel": 6541,
      "demand": 6542,
      "destiny": 6543,
      "palace": 6544,
      "##araj": 6545,
      "technique": 6546,
      "cruiser": 6547,
      "focused": 6548,
      "mortal": 6549,
      "constantine": 6550,
      "boliv": 6551,
      "haiti": 6552,
      "converted": 6553,
      "custom": 6554,
      "eagle": 6555,
      "hibari": 6556,
      "atmosphere": 6557,
      "ech": 6558,
      "gate": 6559,
      "lad": 6560,
      "lamb": 6561,
      "mul": 6562,
      "qedar": 6563,
      "wy": 6564,
      "##cle": 6565,
      "##ji": 6566,
      "##urg": 6567,
      "franch": 6568,
      "##iful": 6569,
      "##aka": 6570,
      "exerc": 6571,
      "boys": 6572,
      "amate": 6573,
      "intention": 6574,
      "knew": 6575,
      "maeda": 6576,
      "phoen": 6577,
      "depict": 6578,
      "depicted": 6579,
      "providing": 6580,
      "1976": 6581,
      "expans": 6582,
      "moder": 6583,
      "protect": 6584,
      "entry": 6585,
      "explos": 6586,
      "entering": 6587,
      "romani": 6588,
      "engineers": 6589,
      "poems": 6590,
      "rules": 6591,
      "venus": 6592,
      "teaching": 6593,
      "uncle": 6594,
      "assistance": 6595,
      "establishment": 6596,
      "puzz": 6597,
      "renamed": 6598,
      "arranged": 6599,
      "opposition": 6600,
      "oslo": 6601,
      "succeeded": 6602,
      "mushroom": 6603,
      "chelsea": 6604,
      "library": 6605,
      "8th": 6606,
      "dod": 6607,
      "dating": 6608,
      "eighth": 6609,
      "tied": 6610,
      "##rant": 6611,
      "##uct": 6612,
      "##zac": 6613,
      "##ona": 6614,
      "##ador": 6615,
      "conqu": 6616,
      "anton": 6617,
      "orn": 6618,
      "plun": 6619,
      "lee": 6620,
      "spacing": 6621,
      "##elli": 6622,
      "recru": 6623,
      "##ights": 6624,
      "agent": 6625,
      "partners": 6626,
      "decline": 6627,
      "attached": 6628,
      "##issance": 6629,
      "regime": 6630,
      "defined": 6631,
      "supplies": 6632,
      "10th": 6633,
      "112": 6634,
      "1943": 6635,
      "lover": 6636,
      "camps": 6637,
      "township": 6638,
      "250": 6639,
      "moz": 6640,
      "prize": 6641,
      "##ipping": 6642,
      "georgian": 6643,
      "certified": 6644,
      "holds": 6645,
      "penalty": 6646,
      "inspir": 6647,
      "separated": 6648,
      "immig": 6649,
      "credited": 6650,
      "consisting": 6651,
      "romantic": 6652,
      "rescue": 6653,
      "article": 6654,
      "delivered": 6655,
      "citiz": 6656,
      "87": 6657,
      "hits": 6658,
      "lenn": 6659,
      "sad": 6660,
      "##uing": 6661,
      "##bles": 6662,
      "##ilton": 6663,
      "##eman": 6664,
      "##agn": 6665,
      "##uma": 6666,
      "##rier": 6667,
      "enl": 6668,
      "##pton": 6669,
      "##ube": 6670,
      "desire": 6671,
      "outstanding": 6672,
      "pregn": 6673,
      "secure": 6674,
      "strateg": 6675,
      "novels": 6676,
      "reception": 6677,
      "##ropri": 6678,
      "176": 6679,
      "evergl": 6680,
      "expos": 6681,
      "commanded": 6682,
      "1916": 6683,
      "professor": 6684,
      "charts": 6685,
      "examples": 6686,
      "methods": 6687,
      "##burg": 6688,
      "rarely": 6689,
      "sudden": 6690,
      "hindu": 6691,
      "adapted": 6692,
      "brazil": 6693,
      "everglades": 6694,
      "69": 6695,
      "fel": 6696,
      "lam": 6697,
      "nas": 6698,
      "patt": 6699,
      "util": 6700,
      "##ns": 6701,
      "##je": 6702,
      "##xe": 6703,
      "##uls": 6704,
      "hear": 6705,
      "##ardo": 6706,
      "unn": 6707,
      "unl": 6708,
      "leaves": 6709,
      "print": 6710,
      "spin": 6711,
      "worship": 6712,
      "prey": 6713,
      "##mann": 6714,
      "gameplay": 6715,
      "remar": 6716,
      "eliz": 6717,
      "##attle": 6718,
      "transform": 6719,
      "1980": 6720,
      "depos": 6721,
      "stevens": 6722,
      "1963": 6723,
      "correct": 6724,
      "classes": 6725,
      "##oba": 6726,
      "communist": 6727,
      "window": 6728,
      "morrison": 6729,
      "walter": 6730,
      "labour": 6731,
      "##iece": 6732,
      "circum": 6733,
      "tomb": 6734,
      "colonies": 6735,
      "indicate": 6736,
      "montana": 6737,
      "athletic": 6738,
      "remainder": 6739,
      "shooting": 6740,
      "utc": 6741,
      "portrayed": 6742,
      "alexander": 6743,
      "basketball": 6744,
      "tests": 6745,
      "vent": 6746,
      "##ture": 6747,
      "##aling": 6748,
      "plain": 6749,
      "arthur": 6750,
      "worst": 6751,
      "pole": 6752,
      "soul": 6753,
      "##issipp": 6754,
      "undert": 6755,
      "soil": 6756,
      "16th": 6757,
      "11th": 6758,
      "1978": 6759,
      "mississipp": 6760,
      "protected": 6761,
      "1953": 6762,
      "1956": 6763,
      "australians": 6764,
      "turns": 6765,
      "politics": 6766,
      "occurs": 6767,
      "facing": 6768,
      "discovery": 6769,
      "producing": 6770,
      "appoint": 6771,
      "specifically": 6772,
      "accounts": 6773,
      "threatened": 6774,
      "finishing": 6775,
      "ghost": 6776,
      "columbia": 6777,
      "chairman": 6778,
      "truj": 6779,
      "dinosaur": 6780,
      "sunday": 6781,
      "siege": 6782,
      "bos": 6783,
      "ecc": 6784,
      "rand": 6785,
      "voy": 6786,
      "##ora": 6787,
      "##entions": 6788,
      "online": 6789,
      "##rot": 6790,
      "##emia": 6791,
      "freder": 6792,
      "chess": 6793,
      "proh": 6794,
      "noting": 6795,
      "interested": 6796,
      "warm": 6797,
      "##ocked": 6798,
      "studied": 6799,
      "divine": 6800,
      "appearing": 6801,
      "leads": 6802,
      "successor": 6803,
      "sword": 6804,
      "##book": 6805,
      "personnel": 6806,
      "views": 6807,
      "replace": 6808,
      "statement": 6809,
      "wooden": 6810,
      "introduction": 6811,
      "homer": 6812,
      "civilian": 6813,
      "getting": 6814,
      "denied": 6815,
      "hollywood": 6816,
      "samuel": 6817,
      "maryland": 6818,
      "feeling": 6819,
      "feelings": 6820,
      "hearts": 6821,
      "substit": 6822,
      "##aska": 6823,
      "favorite": 6824,
      "croatian": 6825,
      "masters": 6826,
      "charlie": 6827,
      "agricultural": 6828,
      "ritual": 6829,
      "daniel": 6830,
      "fountain": 6831,
      "trujillo": 6832,
      "7th": 6833,
      "91": 6834,
      "lat": 6835,
      "nbc": 6836,
      "##no": 6837,
      "##rations": 6838,
      "##ti": 6839,
      "alan": 6840,
      "##agues": 6841,
      "##pping": 6842,
      "roxas": 6843,
      "brand": 6844,
      "indig": 6845,
      "acts": 6846,
      "warri": 6847,
      "strand": 6848,
      "maintain": 6849,
      "infr": 6850,
      "stef": 6851,
      "reputation": 6852,
      "1913": 6853,
      "1915": 6854,
      "reviewer": 6855,
      "basic": 6856,
      "seeing": 6857,
      "predec": 6858,
      "wrong": 6859,
      "memory": 6860,
      "archaeology": 6861,
      "rangers": 6862,
      "lords": 6863,
      "principal": 6864,
      "picture": 6865,
      "rifles": 6866,
      "alternative": 6867,
      "message": 6868,
      "global": 6869,
      "dismissed": 6870,
      "supreme": 6871,
      "mississippi": 6872,
      "gam": 6873,
      "##oz": 6874,
      "##sch": 6875,
      "##taining": 6876,
      "##gie": 6877,
      "##mel": 6878,
      "##enz": 6879,
      "##oul": 6880,
      "##str": 6881,
      "##acent": 6882,
      "conte": 6883,
      "anzac": 6884,
      "plants": 6885,
      "##onder": 6886,
      "attributed": 6887,
      "knots": 6888,
      "howard": 6889,
      "capacity": 6890,
      "instruct": 6891,
      "passage": 6892,
      "bush": 6893,
      "opponents": 6894,
      "summ": 6895,
      "activision": 6896,
      "connection": 6897,
      "scientific": 6898,
      "tribes": 6899,
      "drawing": 6900,
      "discussed": 6901,
      "considerable": 6902,
      "extrem": 6903,
      "plunket": 6904,
      "79": 6905,
      "dna": 6906,
      "danny": 6907,
      "eu": 6908,
      "fab": 6909,
      "hud": 6910,
      "session": 6911,
      "taught": 6912,
      "vary": 6913,
      "yank": 6914,
      "##ients": 6915,
      "##30": 6916,
      "##hed": 6917,
      "inland": 6918,
      "##itage": 6919,
      "##rel": 6920,
      "sty": 6921,
      "forests": 6922,
      "##ersed": 6923,
      "##oting": 6924,
      "shut": 6925,
      "nether": 6926,
      "exchange": 6927,
      "##arts": 6928,
      "marks": 6929,
      "offers": 6930,
      "##kson": 6931,
      "charges": 6932,
      "someone": 6933,
      "releg": 6934,
      "##ront": 6935,
      "collect": 6936,
      "1917": 6937,
      "calvert": 6938,
      "communities": 6939,
      "veget": 6940,
      "biography": 6941,
      "difficulty": 6942,
      "ruled": 6943,
      "dollars": 6944,
      "ninth": 6945,
      "scholar": 6946,
      "sevent": 6947,
      "bradford": 6948,
      "photograph": 6949,
      "challenge": 6950,
      "continuing": 6951,
      "habitat": 6952,
      "##break": 6953,
      "specimens": 6954,
      "isabella": 6955,
      "arsenal": 6956,
      "99": 6957,
      "bin": 6958,
      "cu": 6959,
      "tie": 6960,
      "##cy": 6961,
      "##ruli": 6962,
      "##iar": 6963,
      "##eu": 6964,
      "##fri": 6965,
      "theater": 6966,
      "##onom": 6967,
      "##orer": 6968,
      "##orters": 6969,
      "##elve": 6970,
      "shore": 6971,
      "leuk": 6972,
      "twelve": 6973,
      "##tegr": 6974,
      "manner": 6975,
      "carbon": 6976,
      "wealth": 6977,
      "##aws": 6978,
      "subs": 6979,
      "divisions": 6980,
      "signing": 6981,
      "discip": 6982,
      "##ews": 6983,
      "enterprise": 6984,
      "standards": 6985,
      "superior": 6986,
      "changing": 6987,
      "involvement": 6988,
      "duke": 6989,
      "towers": 6990,
      "teacher": 6991,
      "hugh": 6992,
      "absor": 6993,
      "dynam": 6994,
      "guardian": 6995,
      "adventure": 6996,
      "dangerous": 6997,
      "split": 6998,
      "emotional": 6999,
      "stephen": 7000,
      "kitsune": 7001,
      "bolivar": 7002,
      "yankovic": 7003,
      "88": 7004,
      "cory": 7005,
      "dag": 7006,
      "faces": 7007,
      "jif": 7008,
      "mode": 7009,
      "nap": 7010,
      "page": 7011,
      "sell": 7012,
      "saraj": 7013,
      "##eper": 7014,
      "##eenth": 7015,
      "##6th": 7016,
      "##err": 7017,
      "##esc": 7018,
      "##itled": 7019,
      "##elin": 7020,
      "##uri": 7021,
      "##idden": 7022,
      "alg": 7023,
      "##imet": 7024,
      "shop": 7025,
      "##aga": 7026,
      "proceed": 7027,
      "##abeth": 7028,
      "exit": 7029,
      "spr": 7030,
      "heritage": 7031,
      "cloud": 7032,
      "##anger": 7033,
      "offense": 7034,
      "##iously": 7035,
      "consum": 7036,
      "##graded": 7037,
      "##ugu": 7038,
      "122": 7039,
      "121": 7040,
      "landed": 7041,
      "1948": 7042,
      "1961": 7043,
      "missions": 7044,
      "demol": 7045,
      "rocky": 7046,
      "brigades": 7047,
      "historians": 7048,
      "crossing": 7049,
      "settle": 7050,
      "talk": 7051,
      "autom": 7052,
      "##know": 7053,
      "victoria": 7054,
      "##evo": 7055,
      "leadership": 7056,
      "candidate": 7057,
      "clarkson": 7058,
      "distribution": 7059,
      "parallel": 7060,
      "chamber": 7061,
      "frederick": 7062,
      "sarajevo": 7063,
      "74": 7064,
      "ah": 7065,
      "fro": 7066,
      "lap": 7067,
      "mam": 7068,
      "races": 7069,
      "si": 7070,
      "tank": 7071,
      "yan": 7072,
      "##orous": 7073,
      "##isf": 7074,
      "##ceived": 7075,
      "##osa": 7076,
      "sher": 7077,
      "##avia": 7078,
      "##illing": 7079,
      "##berts": 7080,
      "cloth": 7081,
      "agency": 7082,
      "parties": 7083,
      "##ultane": 7084,
      "decor": 7085,
      "secured": 7086,
      "teeth": 7087,
      "accur": 7088,
      "simultane": 7089,
      "estate": 7090,
      "distributed": 7091,
      "1979": 7092,
      "breaking": 7093,
      "1937": 7094,
      "believes": 7095,
      "legs": 7096,
      "replacement": 7097,
      "walk": 7098,
      "nighting": 7099,
      "destroyers": 7100,
      "wilde": 7101,
      "bringing": 7102,
      "adults": 7103,
      "bono": 7104,
      "picked": 7105,
      "somali": 7106,
      "recommended": 7107,
      "intersection": 7108,
      "##ranean": 7109,
      "documentary": 7110,
      "description": 7111,
      "fungus": 7112,
      "mozamb": 7113,
      "extremely": 7114,
      "jifna": 7115,
      "bure": 7116,
      "gle": 7117,
      "gone": 7118,
      "gather": 7119,
      "ml": 7120,
      "sections": 7121,
      "santa": 7122,
      "tig": 7123,
      "##nell": 7124,
      "##gas": 7125,
      "##dal": 7126,
      "##wich": 7127,
      "##rected": 7128,
      "##umps": 7129,
      "##ctions": 7130,
      "##istol": 7131,
      "clay": 7132,
      "##raf": 7133,
      "roberts": 7134,
      "partial": 7135,
      "carter": 7136,
      "blocks": 7137,
      "showing": 7138,
      "##ropol": 7139,
      "annivers": 7140,
      "missed": 7141,
      "campb": 7142,
      "1954": 7143,
      "classical": 7144,
      "listen": 7145,
      "windows": 7146,
      "##ivalent": 7147,
      "surviving": 7148,
      "nevertheless": 7149,
      "territories": 7150,
      "observations": 7151,
      "nomination": 7152,
      "surrounded": 7153,
      "jerusal": 7154,
      "concerns": 7155,
      "skye": 7156,
      "rifle": 7157,
      "extreme": 7158,
      "isolated": 7159,
      "learning": 7160,
      "amateur": 7161,
      "nightingale": 7162,
      "jerusalem": 7163,
      "82": 7164,
      "option": 7165,
      "pir": 7166,
      "tick": 7167,
      "wants": 7168,
      "##ois": 7169,
      "##iable": 7170,
      "##ping": 7171,
      "##hi": 7172,
      "##eness": 7173,
      "##asions": 7174,
      "##rets": 7175,
      "##eland": 7176,
      "##aments": 7177,
      "##adow": 7178,
      "##osis": 7179,
      "existed": 7180,
      "##ears": 7181,
      "##oven": 7182,
      "adam": 7183,
      "mans": 7184,
      "marines": 7185,
      "flat": 7186,
      "##wealth": 7187,
      "joe": 7188,
      "simps": 7189,
      "cris": 7190,
      "##ructure": 7191,
      "characteristics": 7192,
      "detail": 7193,
      "detailed": 7194,
      "tries": 7195,
      "godd": 7196,
      "commonwealth": 7197,
      "##iveness": 7198,
      "hamilton": 7199,
      "approached": 7200,
      "multi": 7201,
      "rooms": 7202,
      "banai": 7203,
      "academic": 7204,
      "immediate": 7205,
      "emerged": 7206,
      "ratings": 7207,
      "diameter": 7208,
      "controversy": 7209,
      "encouraged": 7210,
      "admiral": 7211,
      "argentina": 7212,
      "ryan": 7213,
      "francisco": 7214,
      "organizations": 7215,
      "anniversary": 7216,
      "simpsons": 7217,
      "3d": 7218,
      "dipl": 7219,
      "gor": 7220,
      "hoc": 7221,
      "na": 7222,
      "pip": 7223,
      "sight": 7224,
      "sons": 7225,
      "##ooth": 7226,
      "##nic": 7227,
      "##inals": 7228,
      "##ester": 7229,
      "##itals": 7230,
      "##inger": 7231,
      "##rell": 7232,
      "stem": 7233,
      "asc": 7234,
      "bear": 7235,
      "alph": 7236,
      "##aya": 7237,
      "##avada": 7238,
      "firing": 7239,
      "adams": 7240,
      "web": 7241,
      "##ensis": 7242,
      "flo": 7243,
      "pointed": 7244,
      "retire": 7245,
      "1949": 7246,
      "1977": 7247,
      "gerard": 7248,
      "protests": 7249,
      "1958": 7250,
      "1955": 7251,
      "1951": 7252,
      "attempting": 7253,
      "heaven": 7254,
      "treated": 7255,
      "crossed": 7256,
      "equal": 7257,
      "suffering": 7258,
      "brien": 7259,
      "ceratops": 7260,
      "relationships": 7261,
      "regularly": 7262,
      "admitted": 7263,
      "inhabit": 7264,
      "institutions": 7265,
      "hoped": 7266,
      "olympics": 7267,
      "arrangement": 7268,
      "giant": 7269,
      "apparent": 7270,
      "tunnel": 7271,
      "lbw": 7272,
      "unusual": 7273,
      "eggs": 7274,
      "municipal": 7275,
      "07": 7276,
      "kit": 7277,
      "kid": 7278,
      "las": 7279,
      "lanc": 7280,
      "riv": 7281,
      "sulf": 7282,
      "sessions": 7283,
      "wim": 7284,
      "##yon": 7285,
      "##iling": 7286,
      "##using": 7287,
      "##rif": 7288,
      "##unt": 7289,
      "##antly": 7290,
      "##uda": 7291,
      "herge": 7292,
      "scar": 7293,
      "relative": 7294,
      "serial": 7295,
      "aged": 7296,
      "mega": 7297,
      "cob": 7298,
      "fled": 7299,
      "indeed": 7300,
      "songwrit": 7301,
      "assumed": 7302,
      "ell": 7303,
      "acknow": 7304,
      "retreat": 7305,
      "airline": 7306,
      "counties": 7307,
      "armor": 7308,
      "##roll": 7309,
      "owner": 7310,
      "13th": 7311,
      "medium": 7312,
      "implement": 7313,
      "triple": 7314,
      "archb": 7315,
      "verse": 7316,
      "visible": 7317,
      "approved": 7318,
      "possession": 7319,
      "##inking": 7320,
      "##aurus": 7321,
      "footage": 7322,
      "mole": 7323,
      "references": 7324,
      "strongly": 7325,
      "##ombat": 7326,
      "identity": 7327,
      "improve": 7328,
      "sequel": 7329,
      "institution": 7330,
      "ancest": 7331,
      "hundreds": 7332,
      "wearing": 7333,
      "reunion": 7334,
      "caval": 7335,
      "portrait": 7336,
      "renew": 7337,
      "initiative": 7338,
      "franchise": 7339,
      "lennon": 7340,
      "prohib": 7341,
      "06": 7342,
      "63": 7343,
      "bce": 7344,
      "craft": 7345,
      "pure": 7346,
      "tales": 7347,
      "wings": 7348,
      "##pe": 7349,
      "##wen": 7350,
      "ina": 7351,
      "##icts": 7352,
      "##elet": 7353,
      "anek": 7354,
      "##uses": 7355,
      "heat": 7356,
      "shif": 7357,
      "proport": 7358,
      "dean": 7359,
      "##ables": 7360,
      "prer": 7361,
      "partly": 7362,
      "goffman": 7363,
      "preced": 7364,
      "intercept": 7365,
      "paras": 7366,
      "accused": 7367,
      "embar": 7368,
      "winner": 7369,
      "musicians": 7370,
      "1983": 7371,
      "imposs": 7372,
      "corp": 7373,
      "harv": 7374,
      "streets": 7375,
      "easily": 7376,
      "##whel": 7377,
      "##encies": 7378,
      "looked": 7379,
      "rhodes": 7380,
      "languages": 7381,
      "indicated": 7382,
      "camera": 7383,
      "practices": 7384,
      "norman": 7385,
      "kilmer": 7386,
      "choir": 7387,
      "richardson": 7388,
      "jean": 7389,
      "duties": 7390,
      "concerned": 7391,
      "gallery": 7392,
      "attracted": 7393,
      "janeiro": 7394,
      "terminus": 7395,
      "doubt": 7396,
      "fixed": 7397,
      "adjacent": 7398,
      "roger": 7399,
      "concerts": 7400,
      "crusad": 7401,
      "saprang": 7402,
      "protagonist": 7403,
      "freedom": 7404,
      "expansion": 7405,
      "circumst": 7406,
      "89": 7407,
      "diet": 7408,
      "fern": 7409,
      "hat": 7410,
      "jag": 7411,
      "kin": 7412,
      "ped": 7413,
      "pink": 7414,
      "rated": 7415,
      "wic": 7416,
      "##ook": 7417,
      "##rates": 7418,
      "##tw": 7419,
      "##zen": 7420,
      "##eline": 7421,
      "##imate": 7422,
      "shakes": 7423,
      "shots": 7424,
      "prol": 7425,
      "##allow": 7426,
      "spaces": 7427,
      "##eare": 7428,
      "##oking": 7429,
      "aggress": 7430,
      "pool": 7431,
      "understand": 7432,
      "genre": 7433,
      "ministry": 7434,
      "starling": 7435,
      "armour": 7436,
      "162": 7437,
      "metall": 7438,
      "##ahl": 7439,
      "designation": 7440,
      "collabor": 7441,
      "trials": 7442,
      "videos": 7443,
      "internal": 7444,
      "convoy": 7445,
      "1920": 7446,
      "patron": 7447,
      "lawton": 7448,
      "debate": 7449,
      "effectively": 7450,
      "##naissance": 7451,
      "falling": 7452,
      "verte": 7453,
      "settled": 7454,
      "recognition": 7455,
      "reduce": 7456,
      "composer": 7457,
      "traveled": 7458,
      "completion": 7459,
      "exhaust": 7460,
      "publishing": 7461,
      "purchase": 7462,
      "owen": 7463,
      "rhythm": 7464,
      "cabin": 7465,
      "somalia": 7466,
      "doctor": 7467,
      "specimen": 7468,
      "congreg": 7469,
      "incorporated": 7470,
      "reconnaissance": 7471,
      "korean": 7472,
      "dramatic": 7473,
      "reconstruction": 7474,
      "remnants": 7475,
      "georgia": 7476,
      "download": 7477,
      "resources": 7478,
      "05": 7479,
      "58": 7480,
      "93": 7481,
      "ax": 7482,
      "ak": 7483,
      "boss": 7484,
      "cant": 7485,
      "cater": 7486,
      "ky": 7487,
      "kombat": 7488,
      "sb": 7489,
      "##hu": 7490,
      "##how": 7491,
      "##yard": 7492,
      "##vis": 7493,
      "##organ": 7494,
      "##itated": 7495,
      "aniston": 7496,
      "##umin": 7497,
      "##opl": 7498,
      "##ishing": 7499,
      "recalled": 7500,
      "grace": 7501,
      "afterwards": 7502,
      "desert": 7503,
      "displ": 7504,
      "impl": 7505,
      "meets": 7506,
      "overwhel": 7507,
      "accomm": 7508,
      "somewh": 7509,
      "driving": 7510,
      "transition": 7511,
      "obtained": 7512,
      "operating": 7513,
      "advis": 7514,
      "persp": 7515,
      "medal": 7516,
      "attacking": 7517,
      "solar": 7518,
      "##attered": 7519,
      "stands": 7520,
      "moral": 7521,
      "holiday": 7522,
      "pitcher": 7523,
      "funds": 7524,
      "measures": 7525,
      "##going": 7526,
      "ruler": 7527,
      "cambridge": 7528,
      "seemed": 7529,
      "painted": 7530,
      "##ometric": 7531,
      "absol": 7532,
      "watershed": 7533,
      "recovered": 7534,
      "controversial": 7535,
      "pleasure": 7536,
      "puppet": 7537,
      "jesus": 7538,
      "inspiration": 7539,
      "accommod": 7540,
      "somewhat": 7541,
      "bert": 7542,
      "hob": 7543,
      "mant": 7544,
      "matt": 7545,
      "nom": 7546,
      "oak": 7547,
      "pion": 7548,
      "pale": 7549,
      "rag": 7550,
      "tone": 7551,
      "ward": 7552,
      "##cia": 7553,
      "##hm": 7554,
      "##arth": 7555,
      "##icate": 7556,
      "##real": 7557,
      "##idae": 7558,
      "fraser": 7559,
      "##odies": 7560,
      "##ifer": 7561,
      "unp": 7562,
      "spend": 7563,
      "manus": 7564,
      "ages": 7565,
      "parish": 7566,
      "consc": 7567,
      "mayor": 7568,
      "preserved": 7569,
      "generals": 7570,
      "poland": 7571,
      "artific": 7572,
      "barr": 7573,
      "lob": 7574,
      "germans": 7575,
      "aviation": 7576,
      "1935": 7577,
      "1931": 7578,
      "1910": 7579,
      "keamy": 7580,
      "destruction": 7581,
      "convin": 7582,
      "victims": 7583,
      "lowest": 7584,
      "cycle": 7585,
      "praise": 7586,
      "researchers": 7587,
      "meetings": 7588,
      "representing": 7589,
      "rebels": 7590,
      "hosted": 7591,
      "queens": 7592,
      "normally": 7593,
      "garcia": 7594,
      "panel": 7595,
      "linked": 7596,
      "hunting": 7597,
      "opposite": 7598,
      "emerg": 7599,
      "essential": 7600,
      "diamond": 7601,
      "passengers": 7602,
      "pupils": 7603,
      "elizabeth": 7604,
      "crisis": 7605,
      "prerog": 7606,
      "ace": 7607,
      "bone": 7608,
      "bapt": 7609,
      "cake": 7610,
      "dc": 7611,
      "fold": 7612,
      "gib": 7613,
      "pier": 7614,
      "ust": 7615,
      "##cement": 7616,
      "##rus": 7617,
      "##right": 7618,
      "thro": 7619,
      "##thosaurus": 7620,
      "##ira": 7621,
      "##otic": 7622,
      "answ": 7623,
      "1900": 7624,
      "sees": 7625,
      "recur": 7626,
      "clock": 7627,
      "income": 7628,
      "disaster": 7629,
      "carp": 7630,
      "flower": 7631,
      "forming": 7632,
      "param": 7633,
      "parks": 7634,
      "##ribed": 7635,
      "defended": 7636,
      "willing": 7637,
      "divor": 7638,
      "##annah": 7639,
      "johnston": 7640,
      "expensive": 7641,
      "##tendo": 7642,
      "##eera": 7643,
      "1932": 7644,
      "1912": 7645,
      "trading": 7646,
      "crosses": 7647,
      "covering": 7648,
      "equipped": 7649,
      "destroyer": 7650,
      "1909": 7651,
      "circulation": 7652,
      "difficulties": 7653,
      "escort": 7654,
      "stayed": 7655,
      "judge": 7656,
      "princess": 7657,
      "arabic": 7658,
      "nintendo": 7659,
      "throwing": 7660,
      "cancer": 7661,
      "carrying": 7662,
      "vessel": 7663,
      "sculpture": 7664,
      "sisters": 7665,
      "compounds": 7666,
      "distinguished": 7667,
      "bridges": 7668,
      "plunketts": 7669,
      "corythosaurus": 7670,
      "goddess": 7671,
      "inaug": 7672,
      "shakesp": 7673,
      "08": 7674,
      "68": 7675,
      "cave": 7676,
      "fia": 7677,
      "hay": 7678,
      "ken": 7679,
      "lith": 7680,
      "pad": 7681,
      "sab": 7682,
      "tong": 7683,
      "tailed": 7684,
      "vac": 7685,
      "voted": 7686,
      "wine": 7687,
      "##rating": 7688,
      "##put": 7689,
      "##ugh": 7690,
      "##ware": 7691,
      "##xts": 7692,
      "##bie": 7693,
      "##onica": 7694,
      "##atures": 7695,
      "integr": 7696,
      "##olay": 7697,
      "islam": 7698,
      "##emet": 7699,
      "comments": 7700,
      "##aku": 7701,
      "enth": 7702,
      "##achus": 7703,
      "abd": 7704,
      "agree": 7705,
      "otherwise": 7706,
      "canter": 7707,
      "interaction": 7708,
      "elabor": 7709,
      "defences": 7710,
      "helmet": 7711,
      "returns": 7712,
      "occasions": 7713,
      "confeder": 7714,
      "waterfall": 7715,
      "restoration": 7716,
      "universal": 7717,
      "eleven": 7718,
      "promote": 7719,
      "1929": 7720,
      "1921": 7721,
      "patrick": 7722,
      "lawrence": 7723,
      "propag": 7724,
      "defeating": 7725,
      "palmy": 7726,
      "programme": 7727,
      "limit": 7728,
      "satur": 7729,
      "responsibility": 7730,
      "junior": 7731,
      "bombard": 7732,
      "pushed": 7733,
      "legislation": 7734,
      "mobile": 7735,
      "elsewhere": 7736,
      "beautiful": 7737,
      "survivors": 7738,
      "elder": 7739,
      "marlborough": 7740,
      "##bledon": 7741,
      "citizens": 7742,
      "context": 7743,
      "hockey": 7744,
      "wimbledon": 7745,
      "manuscript": 7746,
      "shakespeare": 7747,
      "az": 7748,
      "bang": 7749,
      "cull": 7750,
      "citing": 7751,
      "dens": 7752,
      "eric": 7753,
      "gates": 7754,
      "hi": 7755,
      "holl": 7756,
      "ira": 7757,
      "pin": 7758,
      "pig": 7759,
      "tight": 7760,
      "wag": 7761,
      "##oom": 7762,
      "##rich": 7763,
      "##pret": 7764,
      "##eries": 7765,
      "##ician": 7766,
      "##reh": 7767,
      "##oma": 7768,
      "##etime": 7769,
      "##ithic": 7770,
      "##ifies": 7771,
      "##oceratops": 7772,
      "##ishment": 7773,
      "amino": 7774,
      "fei": 7775,
      "##amps": 7776,
      "acclaim": 7777,
      "underst": 7778,
      "understanding": 7779,
      "##aware": 7780,
      "monuments": 7781,
      "retained": 7782,
      "surpr": 7783,
      "161": 7784,
      "directors": 7785,
      "stead": 7786,
      "mediter": 7787,
      "raj": 7788,
      "raise": 7789,
      "arrested": 7790,
      "glad": 7791,
      "1938": 7792,
      "geoff": 7793,
      "1911": 7794,
      "switch": 7795,
      "internet": 7796,
      "streak": 7797,
      "periods": 7798,
      "villages": 7799,
      "patri": 7800,
      "equivalent": 7801,
      "involving": 7802,
      "merch": 7803,
      "voiced": 7804,
      "tribute": 7805,
      "closer": 7806,
      "objects": 7807,
      "intensified": 7808,
      "catech": 7809,
      "ambass": 7810,
      "accompany": 7811,
      "disappo": 7812,
      "garden": 7813,
      "##heim": 7814,
      "thousand": 7815,
      "sleep": 7816,
      "vessels": 7817,
      "behavi": 7818,
      "batsman": 7819,
      "stanley": 7820,
      "cambodia": 7821,
      "unsuccessful": 7822,
      "criminal": 7823,
      "stefani": 7824,
      "netherlands": 7825,
      "impossible": 7826,
      "artificial": 7827,
      "bore": 7828,
      "cbs": 7829,
      "covers": 7830,
      "dor": 7831,
      "gent": 7832,
      "gust": 7833,
      "hou": 7834,
      "nad": 7835,
      "rib": 7836,
      "sic": 7837,
      "tale": 7838,
      "va": 7839,
      "wet": 7840,
      "##rator": 7841,
      "##uv": 7842,
      "##burn": 7843,
      "theor": 7844,
      "##arm": 7845,
      "##acle": 7846,
      "stable": 7847,
      "alter": 7848,
      "##uting": 7849,
      "##iform": 7850,
      "##aboration": 7851,
      "notably": 7852,
      "##oster": 7853,
      "abund": 7854,
      "margin": 7855,
      "committed": 7856,
      "##rupted": 7857,
      "appropri": 7858,
      "recordings": 7859,
      "reveals": 7860,
      "phr": 7861,
      "supporters": 7862,
      "crush": 7863,
      "1962": 7864,
      "myst": 7865,
      "collaps": 7866,
      "collaboration": 7867,
      "raff": 7868,
      "convection": 7869,
      "##quez": 7870,
      "treas": 7871,
      "criticised": 7872,
      "horiz": 7873,
      "burning": 7874,
      "needs": 7875,
      "doesn": 7876,
      "narrative": 7877,
      "selection": 7878,
      "tribut": 7879,
      "observatory": 7880,
      "absence": 7881,
      "caes": 7882,
      "visitors": 7883,
      "moments": 7884,
      "products": 7885,
      "pitman": 7886,
      "saved": 7887,
      "sharp": 7888,
      "doctr": 7889,
      "apparently": 7890,
      "overseas": 7891,
      "proposal": 7892,
      "deployed": 7893,
      "palestine": 7894,
      "cryst": 7895,
      "biographer": 7896,
      "dialogue": 7897,
      "##iques": 7898,
      "preferred": 7899,
      "resistance": 7900,
      "fernand": 7901,
      "prerogative": 7902,
      "canterbury": 7903,
      "mediterranean": 7904,
      "67": 7905,
      "86": 7906,
      "cemet": 7907,
      "dele": 7908,
      "fate": 7909,
      "hok": 7910,
      "icon": 7911,
      "nur": 7912,
      "nurs": 7913,
      "rect": 7914,
      "##coming": 7915,
      "##dy": 7916,
      "##erry": 7917,
      "##inje": 7918,
      "##icide": 7919,
      "##illy": 7920,
      "##lete": 7921,
      "ready": 7922,
      "shipping": 7923,
      "deem": 7924,
      "##apers": 7925,
      "##illed": 7926,
      "intense": 7927,
      "usd": 7928,
      "canyon": 7929,
      "formal": 7930,
      "formally": 7931,
      "charity": 7932,
      "warning": 7933,
      "followers": 7934,
      "slide": 7935,
      "helic": 7936,
      "expand": 7937,
      "modified": 7938,
      "considers": 7939,
      "1959": 7940,
      "raf": 7941,
      "furt": 7942,
      "extension": 7943,
      "storms": 7944,
      "restrict": 7945,
      "latex": 7946,
      "refers": 7947,
      "suggesting": 7948,
      "posted": 7949,
      "represents": 7950,
      "fallen": 7951,
      "atlanta": 7952,
      "representative": 7953,
      "stationed": 7954,
      "improv": 7955,
      "platoon": 7956,
      "corner": 7957,
      "aerith": 7958,
      "journalist": 7959,
      "colorado": 7960,
      "drums": 7961,
      "spiritual": 7962,
      "nickn": 7963,
      "environmental": 7964,
      "behavior": 7965,
      "democratic": 7966,
      "phillies": 7967,
      "mamm": 7968,
      "bureau": 7969,
      "catechism": 7970,
      "bou": 7971,
      "cec": 7972,
      "hull": 7973,
      "kann": 7974,
      "lose": 7975,
      "mud": 7976,
      "nu": 7977,
      "sale": 7978,
      "saves": 7979,
      "tam": 7980,
      "##rabb": 7981,
      "##fare": 7982,
      "##graf": 7983,
      "##vn": 7984,
      "##vada": 7985,
      "##boy": 7986,
      "andre": 7987,
      "toll": 7988,
      "##lets": 7989,
      "forb": 7990,
      "seas": 7991,
      "degr": 7992,
      "##abled": 7993,
      "##ocy": 7994,
      "spur": 7995,
      "trick": 7996,
      "attrib": 7997,
      "actual": 7998,
      "remember": 7999,
      "thereaf": 8000,
      "engines": 8001,
      "166": 8002,
      "obst": 8003,
      "musician": 8004,
      "depending": 8005,
      "disturb": 8006,
      "annually": 8007,
      "persu": 8008,
      "extent": 8009,
      "140": 8010,
      "skull": 8011,
      "temples": 8012,
      "sugar": 8013,
      "1920s": 8014,
      "markgraf": 8015,
      "jackrabb": 8016,
      "innov": 8017,
      "informed": 8018,
      "dominican": 8019,
      "inher": 8020,
      "antiqu": 8021,
      "poorly": 8022,
      "happened": 8023,
      "ranges": 8024,
      "displays": 8025,
      "krak": 8026,
      "aware": 8027,
      "ensure": 8028,
      "imagine": 8029,
      "sacred": 8030,
      "purposes": 8031,
      "laboratory": 8032,
      "vehicle": 8033,
      "climate": 8034,
      "trouble": 8035,
      "reservoir": 8036,
      "##otype": 8037,
      "ille": 8038,
      "submarine": 8039,
      "exposure": 8040,
      "archbishop": 8041,
      "anekant": 8042,
      "behaviour": 8043,
      "raffles": 8044,
      "cemetery": 8045,
      "deleg": 8046,
      "helicop": 8047,
      "furtado": 8048,
      "thereafter": 8049,
      "09": 8050,
      "baker": 8051,
      "dawn": 8052,
      "jenn": 8053,
      "lists": 8054,
      "mail": 8055,
      "nic": 8056,
      "nhl": 8057,
      "pull": 8058,
      "rates": 8059,
      "u2": 8060,
      "vel": 8061,
      "##oes": 8062,
      "##cements": 8063,
      "##lec": 8064,
      "##hang": 8065,
      "##za": 8066,
      "##vati": 8067,
      "##onna": 8068,
      "##alu": 8069,
      "forg": 8070,
      "##chang": 8071,
      "shear": 8072,
      "sholay": 8073,
      "##agas": 8074,
      "##apy": 8075,
      "plane": 8076,
      "##ishn": 8077,
      "##udes": 8078,
      "##acked": 8079,
      "##iang": 8080,
      "##iped": 8081,
      "twin": 8082,
      "ago": 8083,
      "coins": 8084,
      "interpret": 8085,
      "blow": 8086,
      "teen": 8087,
      "consult": 8088,
      "throne": 8089,
      "cape": 8090,
      "driven": 8091,
      "starlings": 8092,
      "obl": 8093,
      "15th": 8094,
      "barker": 8095,
      "1940s": 8096,
      "models": 8097,
      "useful": 8098,
      "blacks": 8099,
      "entitled": 8100,
      "valky": 8101,
      "easy": 8102,
      "communications": 8103,
      "supern": 8104,
      "causes": 8105,
      "grounds": 8106,
      "influential": 8107,
      "fifa": 8108,
      "readers": 8109,
      "salv": 8110,
      "audio": 8111,
      "talking": 8112,
      "mexican": 8113,
      "camer": 8114,
      "materials": 8115,
      "watching": 8116,
      "republican": 8117,
      "housing": 8118,
      "situated": 8119,
      "injuries": 8120,
      "layer": 8121,
      "withdrew": 8122,
      "israeli": 8123,
      "productions": 8124,
      "publisher": 8125,
      "opportunities": 8126,
      "muscaria": 8127,
      "advertising": 8128,
      "orbit": 8129,
      "cotton": 8130,
      "infrast": 8131,
      "simultaneously": 8132,
      "diplom": 8133,
      "saturday": 8134,
      "02": 8135,
      "78": 8136,
      "bald": 8137,
      "kim": 8138,
      "ri": 8139,
      "tag": 8140,
      "wel": 8141,
      "yo": 8142,
      "##gam": 8143,
      "##life": 8144,
      "##hol": 8145,
      "##mat": 8146,
      "##va": 8147,
      "##inian": 8148,
      "##esco": 8149,
      "##ili": 8150,
      "##ilst": 8151,
      "##etts": 8152,
      "##igation": 8153,
      "##owiec": 8154,
      "analy": 8155,
      "##osl": 8156,
      "##ager": 8157,
      "spoke": 8158,
      "enfor": 8159,
      "##teenth": 8160,
      "manga": 8161,
      "ammun": 8162,
      "roth": 8163,
      "partially": 8164,
      "brick": 8165,
      "pret": 8166,
      "##ricted": 8167,
      "norway": 8168,
      "deck": 8169,
      "movements": 8170,
      "driver": 8171,
      "severely": 8172,
      "##ifications": 8173,
      "generated": 8174,
      "123": 8175,
      "originated": 8176,
      "installed": 8177,
      "##inson": 8178,
      "operate": 8179,
      "155": 8180,
      "113": 8181,
      "passion": 8182,
      "maggie": 8183,
      "harm": 8184,
      "deliver": 8185,
      "victories": 8186,
      "historically": 8187,
      "richmond": 8188,
      "factors": 8189,
      "influences": 8190,
      "burned": 8191,
      "excess": 8192,
      "networks": 8193,
      "turb": 8194,
      "representatives": 8195,
      "fundament": 8196,
      "sequences": 8197,
      "credits": 8198,
      "portugal": 8199,
      "instruments": 8200,
      "excavation": 8201,
      "bulls": 8202,
      "grammy": 8203,
      "wisni": 8204,
      "nichol": 8205,
      "substantial": 8206,
      "circumstances": 8207,
      "ammunition": 8208,
      "wisniowiec": 8209,
      "900": 8210,
      "benn": 8211,
      "cov": 8212,
      "cass": 8213,
      "gwen": 8214,
      "hamp": 8215,
      "jar": 8216,
      "liv": 8217,
      "osc": 8218,
      "pagan": 8219,
      "tast": 8220,
      "vast": 8221,
      "##aver": 8222,
      "##eit": 8223,
      "##mont": 8224,
      "##western": 8225,
      "##kes": 8226,
      "##onic": 8227,
      "##arf": 8228,
      "##aled": 8229,
      "##lying": 8230,
      "whilst": 8231,
      "##owa": 8232,
      "fred": 8233,
      "frig": 8234,
      "frust": 8235,
      "anime": 8236,
      "chron": 8237,
      "shark": 8238,
      "shells": 8239,
      "ark": 8240,
      "spores": 8241,
      "resign": 8242,
      "relie": 8243,
      "carved": 8244,
      "weigh": 8245,
      "interests": 8246,
      "poison": 8247,
      "parvati": 8248,
      "remark": 8249,
      "sole": 8250,
      "##ugosl": 8251,
      "writings": 8252,
      "subspec": 8253,
      "101": 8254,
      "miller": 8255,
      "##ucing": 8256,
      "loan": 8257,
      "anyone": 8258,
      "moore": 8259,
      "amongst": 8260,
      "1928": 8261,
      "1927": 8262,
      "##scop": 8263,
      "everyone": 8264,
      "funer": 8265,
      "survive": 8266,
      "looks": 8267,
      "mixture": 8268,
      "predomin": 8269,
      "strip": 8270,
      "khand": 8271,
      "biggest": 8272,
      "wilson": 8273,
      "##itzer": 8274,
      "establishing": 8275,
      "athletics": 8276,
      "thinking": 8277,
      "loud": 8278,
      "adventures": 8279,
      "swedish": 8280,
      "plateau": 8281,
      "jacob": 8282,
      "acknowled": 8283,
      "emergency": 8284,
      "ustase": 8285,
      "anekantavada": 8286,
      "subspecies": 8287,
      "84": 8288,
      "92": 8289,
      "gill": 8290,
      "gary": 8291,
      "jr": 8292,
      "kam": 8293,
      "lud": 8294,
      "mack": 8295,
      "rising": 8296,
      "sans": 8297,
      "tide": 8298,
      "yugosl": 8299,
      "##uge": 8300,
      "##greg": 8301,
      "##bal": 8302,
      "##ares": 8303,
      "##ilation": 8304,
      "##state": 8305,
      "wasn": 8306,
      "forty": 8307,
      "bearing": 8308,
      "##emat": 8309,
      "##agement": 8310,
      "price": 8311,
      "herald": 8312,
      "twins": 8313,
      "boom": 8314,
      "contest": 8315,
      "intr": 8316,
      "resigned": 8317,
      "marry": 8318,
      "agents": 8319,
      "cars": 8320,
      "##kend": 8321,
      "blues": 8322,
      "howe": 8323,
      "instance": 8324,
      "ports": 8325,
      "metropol": 8326,
      "178": 8327,
      "##yll": 8328,
      "downtown": 8329,
      "westward": 8330,
      "reprodu": 8331,
      "restored": 8332,
      "harsh": 8333,
      "hurricanes": 8334,
      "radiation": 8335,
      "formerly": 8336,
      "compete": 8337,
      "sung": 8338,
      "massachus": 8339,
      "techniques": 8340,
      "fifteen": 8341,
      "veronica": 8342,
      "predators": 8343,
      "select": 8344,
      "departure": 8345,
      "garrison": 8346,
      "interesting": 8347,
      "pictures": 8348,
      "struggle": 8349,
      "eaton": 8350,
      "tanks": 8351,
      "premiered": 8352,
      "delayed": 8353,
      "gilbert": 8354,
      "corporation": 8355,
      "stewart": 8356,
      "phoenix": 8357,
      "##friend": 8358,
      "kannada": 8359,
      "khandoba": 8360,
      "massachusetts": 8361,
      "cow": 8362,
      "celt": 8363,
      "dak": 8364,
      "denn": 8365,
      "esh": 8366,
      "josh": 8367,
      "mall": 8368,
      "mood": 8369,
      "mental": 8370,
      "pf": 8371,
      "pag": 8372,
      "rig": 8373,
      "rav": 8374,
      "##ses": 8375,
      "##piece": 8376,
      "##gro": 8377,
      "##mate": 8378,
      "##isters": 8379,
      "##the": 8380,
      "forcing": 8381,
      "reh": 8382,
      "##ulating": 8383,
      "prove": 8384,
      "trained": 8385,
      "recip": 8386,
      "##ogy": 8387,
      "residence": 8388,
      "resolution": 8389,
      "marquez": 8390,
      "commem": 8391,
      "overl": 8392,
      "##weight": 8393,
      "paraly": 8394,
      "consp": 8395,
      "surg": 8396,
      "surge": 8397,
      "supplement": 8398,
      "founder": 8399,
      "smooth": 8400,
      "armored": 8401,
      "165": 8402,
      "continental": 8403,
      "loose": 8404,
      "##onto": 8405,
      "##ontin": 8406,
      "weekend": 8407,
      "midge": 8408,
      "1933": 8409,
      "universe": 8410,
      "skills": 8411,
      "differences": 8412,
      "valu": 8413,
      "sounds": 8414,
      "##encing": 8415,
      "scientists": 8416,
      "audiences": 8417,
      "wright": 8418,
      "recognised": 8419,
      "costs": 8420,
      "measured": 8421,
      "achieve": 8422,
      "inhg": 8423,
      "clearly": 8424,
      "experiences": 8425,
      "recovery": 8426,
      "illustrated": 8427,
      "reinforcements": 8428,
      "neighbor": 8429,
      "minimum": 8430,
      "application": 8431,
      "terrorist": 8432,
      "jurchen": 8433,
      "affairs": 8434,
      "mulder": 8435,
      "moderate": 8436,
      "hudson": 8437,
      "yanke": 8438,
      "mozambique": 8439,
      "proportion": 8440,
      "bones": 8441,
      "code": 8442,
      "caves": 8443,
      "foss": 8444,
      "mcl": 8445,
      "mbar": 8446,
      "tack": 8447,
      "tiss": 8448,
      "wu": 8449,
      "ww": 8450,
      "wives": 8451,
      "wonder": 8452,
      "zomb": 8453,
      "zoo": 8454,
      "##oh": 8455,
      "##lie": 8456,
      "##mus": 8457,
      "##jun": 8458,
      "##bn": 8459,
      "thor": 8460,
      "##onia": 8461,
      "##ori": 8462,
      "##oux": 8463,
      "##rees": 8464,
      "succ": 8465,
      "plus": 8466,
      "clin": 8467,
      "scully": 8468,
      "commons": 8469,
      "coff": 8470,
      "format": 8471,
      "engage": 8472,
      "symp": 8473,
      "defending": 8474,
      "scheme": 8475,
      "drain": 8476,
      "##ologies": 8477,
      "divers": 8478,
      "starred": 8479,
      "crops": 8480,
      "##elsen": 8481,
      "depicts": 8482,
      "##yline": 8483,
      "barry": 8484,
      "designs": 8485,
      "1957": 8486,
      "characterized": 8487,
      "harmon": 8488,
      "christoph": 8489,
      "kevin": 8490,
      "promised": 8491,
      "cleared": 8492,
      "federation": 8493,
      "toronto": 8494,
      "sufficient": 8495,
      "condem": 8496,
      "satisf": 8497,
      "creative": 8498,
      "archaeologist": 8499,
      "err": 8500,
      "documents": 8501,
      "objective": 8502,
      "huge": 8503,
      "ranging": 8504,
      "badly": 8505,
      "boxing": 8506,
      "russia": 8507,
      "grown": 8508,
      "revolutionary": 8509,
      "victorian": 8510,
      "simpson": 8511,
      "draf": 8512,
      "weapon": 8513,
      "fatal": 8514,
      "tactics": 8515,
      "coleman": 8516,
      "cinema": 8517,
      "imprison": 8518,
      "remarked": 8519,
      "convinced": 8520,
      "wisniowiecki": 8521,
      "03": 8522,
      "aster": 8523,
      "bun": 8524,
      "cel": 8525,
      "fasc": 8526,
      "kong": 8527,
      "kansas": 8528,
      "lia": 8529,
      "ns": 8530,
      "pc": 8531,
      "ride": 8532,
      "ruth": 8533,
      "sant": 8534,
      "vote": 8535,
      "##night": 8536,
      "##cer": 8537,
      "##rants": 8538,
      "##vant": 8539,
      "##inery": 8540,
      "##edy": 8541,
      "##asm": 8542,
      "wasp": 8543,
      "##oli": 8544,
      "##olen": 8545,
      "render": 8546,
      "##emies": 8547,
      "chanc": 8548,
      "##opp": 8549,
      "##apse": 8550,
      "unre": 8551,
      "spar": 8552,
      "enh": 8553,
      "complic": 8554,
      "boot": 8555,
      "fee": 8556,
      "feathers": 8557,
      "playoff": 8558,
      "partner": 8559,
      "cargo": 8560,
      "decides": 8561,
      "interpre": 8562,
      "texts": 8563,
      "jobs": 8564,
      "regiments": 8565,
      "peach": 8566,
      "battlec": 8567,
      "163": 8568,
      "install": 8569,
      "crake": 8570,
      "##atherine": 8571,
      "describe": 8572,
      "designer": 8573,
      "offices": 8574,
      "magdal": 8575,
      "raaf": 8576,
      "corb": 8577,
      "arriving": 8578,
      "childhood": 8579,
      "temporary": 8580,
      "explo": 8581,
      "communication": 8582,
      "opponent": 8583,
      "personality": 8584,
      "expert": 8585,
      "frelim": 8586,
      "trek": 8587,
      "trend": 8588,
      "claiming": 8589,
      "21st": 8590,
      "peters": 8591,
      "hamlet": 8592,
      "elections": 8593,
      "factory": 8594,
      "presentation": 8595,
      "burial": 8596,
      "##efa": 8597,
      "striking": 8598,
      "ranking": 8599,
      "closest": 8600,
      "quarterback": 8601,
      "martial": 8602,
      "occupation": 8603,
      "duty": 8604,
      "displayed": 8605,
      "giants": 8606,
      "aspect": 8607,
      "boundary": 8608,
      "graphics": 8609,
      "determine": 8610,
      "protestant": 8611,
      "alleged": 8612,
      "excavations": 8613,
      "mechanical": 8614,
      "neutral": 8615,
      "ethnic": 8616,
      "cubs": 8617,
      "impressed": 8618,
      "false": 8619,
      "inscription": 8620,
      "wrestling": 8621,
      "drug": 8622,
      "benefit": 8623,
      "voyage": 8624,
      "predecessor": 8625,
      "styles": 8626,
      "cavalry": 8627,
      "wicca": 8628,
      "hokies": 8629,
      "infrastructure": 8630,
      "oscar": 8631,
      "valuable": 8632,
      "battlecru": 8633,
      "frelimo": 8634,
      "01": 8635,
      "bind": 8636,
      "dies": 8637,
      "dave": 8638,
      "dual": 8639,
      "erected": 8640,
      "hub": 8641,
      "hans": 8642,
      "mes": 8643,
      "mitch": 8644,
      "pic": 8645,
      "sas": 8646,
      "##rat": 8647,
      "##ien": 8648,
      "##tav": 8649,
      "##tles": 8650,
      "##bing": 8651,
      "##inus": 8652,
      "##icit": 8653,
      "##ecraft": 8654,
      "##acles": 8655,
      "##roit": 8656,
      "aside": 8657,
      "##iders": 8658,
      "isbn": 8659,
      "##aints": 8660,
      "##akum": 8661,
      "##ategy": 8662,
      "uniform": 8663,
      "##ellar": 8664,
      "clust": 8665,
      "allen": 8666,
      "amph": 8667,
      "relation": 8668,
      "##ignment": 8669,
      "brill": 8670,
      "coin": 8671,
      "centers": 8672,
      "decay": 8673,
      "attained": 8674,
      "charged": 8675,
      "##graph": 8676,
      "revol": 8677,
      "strategy": 8678,
      "belg": 8679,
      "millenn": 8680,
      "crab": 8681,
      "deput": 8682,
      "considering": 8683,
      "arrive": 8684,
      "detroit": 8685,
      "restricted": 8686,
      "harbour": 8687,
      "refuge": 8688,
      "difference": 8689,
      "possess": 8690,
      "prompted": 8691,
      "explains": 8692,
      "bands": 8693,
      "cyt": 8694,
      "argues": 8695,
      "davis": 8696,
      "turks": 8697,
      "machines": 8698,
      "satell": 8699,
      "strengthened": 8700,
      "properties": 8701,
      "anthem": 8702,
      "mrs": 8703,
      "intellect": 8704,
      "magnitude": 8705,
      "newspapers": 8706,
      "bulk": 8707,
      "degrees": 8708,
      "waiting": 8709,
      "liberal": 8710,
      "architecture": 8711,
      "jonathan": 8712,
      "dwarf": 8713,
      "philosophy": 8714,
      "exclusively": 8715,
      "updated": 8716,
      "residential": 8717,
      "kelly": 8718,
      "inhabitants": 8719,
      "perspective": 8720,
      "ambassador": 8721,
      "deemed": 8722,
      "bom": 8723,
      "banned": 8724,
      "gamb": 8725,
      "jet": 8726,
      "nash": 8727,
      "tenth": 8728,
      "uefa": 8729,
      "##iac": 8730,
      "##eor": 8731,
      "##gov": 8732,
      "##yce": 8733,
      "##wer": 8734,
      "##ko": 8735,
      "##itively": 8736,
      "##inge": 8737,
      "##icity": 8738,
      "##icia": 8739,
      "##eled": 8740,
      "##ilty": 8741,
      "##urer": 8742,
      "##roph": 8743,
      "rend": 8744,
      "##char": 8745,
      "chagas": 8746,
      "prosp": 8747,
      "deity": 8748,
      "nebr": 8749,
      "##aki": 8750,
      "export": 8751,
      "exists": 8752,
      "##arte": 8753,
      "clark": 8754,
      "scattered": 8755,
      "amaz": 8756,
      "resumed": 8757,
      "##oko": 8758,
      "roots": 8759,
      "impression": 8760,
      "brain": 8761,
      "coinc": 8762,
      "outbreak": 8763,
      "upset": 8764,
      "earn": 8765,
      "assisted": 8766,
      "warren": 8767,
      "northward": 8768,
      "northeastern": 8769,
      "artwork": 8770,
      "obv": 8771,
      "metre": 8772,
      "##ucks": 8773,
      "##ertain": 8774,
      "##aham": 8775,
      "variation": 8776,
      "exposed": 8777,
      "eleph": 8778,
      "deliber": 8779,
      "handled": 8780,
      "##box": 8781,
      "1926": 8782,
      "furthermore": 8783,
      "tourist": 8784,
      "seek": 8785,
      "heroes": 8786,
      "fifty": 8787,
      "1905": 8788,
      "cruise": 8789,
      "ruling": 8790,
      "dominant": 8791,
      "malley": 8792,
      "injured": 8793,
      "frequent": 8794,
      "batteries": 8795,
      "amounts": 8796,
      "magnetic": 8797,
      "celebrated": 8798,
      "##burgh": 8799,
      "globe": 8800,
      "distinctive": 8801,
      "preparation": 8802,
      "leslie": 8803,
      "defenders": 8804,
      "mathews": 8805,
      "premiere": 8806,
      "kurt": 8807,
      "brooks": 8808,
      "wagner": 8809,
      "valkyria": 8810,
      "paralymp": 8811,
      "cous": 8812,
      "cash": 8813,
      "dict": 8814,
      "eg": 8815,
      "fib": 8816,
      "lies": 8817,
      "laugh": 8818,
      "nut": 8819,
      "pec": 8820,
      "soph": 8821,
      "tut": 8822,
      "tip": 8823,
      "wander": 8824,
      "zinc": 8825,
      "##rad": 8826,
      "##eb": 8827,
      "##jan": 8828,
      "##atically": 8829,
      "infer": 8830,
      "##urally": 8831,
      "##adier": 8832,
      "stu": 8833,
      "stores": 8834,
      "forth": 8835,
      "##olithic": 8836,
      "anch": 8837,
      "chan": 8838,
      "chain": 8839,
      "shield": 8840,
      "sure": 8841,
      "spac": 8842,
      "enters": 8843,
      "herze": 8844,
      "abby": 8845,
      "gran": 8846,
      "carn": 8847,
      "carmel": 8848,
      "coordin": 8849,
      "pref": 8850,
      "prefect": 8851,
      "charm": 8852,
      "peaking": 8853,
      "emmy": 8854,
      "quant": 8855,
      "revival": 8856,
      "southeastern": 8857,
      "guilty": 8858,
      "##endar": 8859,
      "##inton": 8860,
      "artistic": 8861,
      "117": 8862,
      "landings": 8863,
      "##rows": 8864,
      "prevented": 8865,
      "expect": 8866,
      "persian": 8867,
      "ideal": 8868,
      "magadh": 8869,
      "publications": 8870,
      "triang": 8871,
      "approval": 8872,
      "tempor": 8873,
      "prompt": 8874,
      "1925": 8875,
      "referring": 8876,
      "jackets": 8877,
      "highways": 8878,
      "sunk": 8879,
      "tooth": 8880,
      "structural": 8881,
      "turrets": 8882,
      "circle": 8883,
      "magazines": 8884,
      "memor": 8885,
      "talent": 8886,
      "diagn": 8887,
      "violent": 8888,
      "testing": 8889,
      "matth": 8890,
      "cheval": 8891,
      "tournaments": 8892,
      "schedule": 8893,
      "chronicles": 8894,
      "demonstrated": 8895,
      "delivery": 8896,
      "pursue": 8897,
      "executed": 8898,
      "alfred": 8899,
      "adaptation": 8900,
      "disappeared": 8901,
      "nielsen": 8902,
      "##borne": 8903,
      "substitute": 8904,
      "settlements": 8905,
      "bertin": 8906,
      "pioneer": 8907,
      "houston": 8908,
      "nurse": 8909,
      "celtic": 8910,
      "##govina": 8911,
      "magadheera": 8912,
      "bible": 8913,
      "cod": 8914,
      "fulf": 8915,
      "gets": 8916,
      "haz": 8917,
      "jur": 8918,
      "por": 8919,
      "pyr": 8920,
      "ump": 8921,
      "wik": 8922,
      "##noon": 8923,
      "##gars": 8924,
      "##hy": 8925,
      "##hem": 8926,
      "##mouth": 8927,
      "##wa": 8928,
      "##went": 8929,
      "##reet": 8930,
      "##adi": 8931,
      "stood": 8932,
      "##olia": 8933,
      "##ivated": 8934,
      "altered": 8935,
      "chest": 8936,
      "comics": 8937,
      "##odr": 8938,
      "suicide": 8939,
      "##sex": 8940,
      "##arya": 8941,
      "afternoon": 8942,
      "##okovic": 8943,
      "feels": 8944,
      "disagre": 8945,
      "carre": 8946,
      "brack": 8947,
      "offs": 8948,
      "paran": 8949,
      "noble": 8950,
      "genetic": 8951,
      "liked": 8952,
      "acre": 8953,
      "phen": 8954,
      "string": 8955,
      "##atched": 8956,
      "##ieties": 8957,
      "170": 8958,
      "runway": 8959,
      "edges": 8960,
      "sixteen": 8961,
      "helium": 8962,
      "commandos": 8963,
      "demands": 8964,
      "harold": 8965,
      "sket": 8966,
      "soci": 8967,
      "valve": 8968,
      "basement": 8969,
      "1924": 8970,
      "initiated": 8971,
      "profile": 8972,
      "circuit": 8973,
      "1890": 8974,
      "innoc": 8975,
      "rebell": 8976,
      "keys": 8977,
      "jews": 8978,
      "indicating": 8979,
      "crews": 8980,
      "murray": 8981,
      "uncertain": 8982,
      "##cription": 8983,
      "subjects": 8984,
      "djokovic": 8985,
      "adopt": 8986,
      "investigation": 8987,
      "succeed": 8988,
      "suspended": 8989,
      "recommend": 8990,
      "pounds": 8991,
      "definition": 8992,
      "inscriptions": 8993,
      "cosm": 8994,
      "warrior": 8995,
      "carpent": 8996,
      "commemor": 8997,
      "yankees": 8998,
      "nebraska": 8999,
      "herzegovina": 9000,
      "dat": 9001,
      "gap": 9002,
      "gosp": 9003,
      "gift": 9004,
      "kon": 9005,
      "lor": 9006,
      "mit": 9007,
      "ndh": 9008,
      "yield": 9009,
      "##gers": 9010,
      "##zi": 9011,
      "##wick": 9012,
      "##bel": 9013,
      "##kon": 9014,
      "##esi": 9015,
      "toured": 9016,
      "##icial": 9017,
      "##urst": 9018,
      "sting": 9019,
      "stav": 9020,
      "strict": 9021,
      "##iri": 9022,
      "isot": 9023,
      "congo": 9024,
      "chen": 9025,
      "##agen": 9026,
      "expression": 9027,
      "pryce": 9028,
      "components": 9029,
      "abc": 9030,
      "abol": 9031,
      "evans": 9032,
      "weir": 9033,
      "canon": 9034,
      "dece": 9035,
      "liqu": 9036,
      "buy": 9037,
      "acute": 9038,
      "125": 9039,
      "armament": 9040,
      "origins": 9041,
      "meteor": 9042,
      "conclusion": 9043,
      "receives": 9044,
      "reducing": 9045,
      "##isms": 9046,
      "1934": 9047,
      "swim": 9048,
      "swiss": 9049,
      "organisation": 9050,
      "sentiment": 9051,
      "realized": 9052,
      "1000": 9053,
      "requested": 9054,
      "seeking": 9055,
      "walking": 9056,
      "anglo": 9057,
      "##itarian": 9058,
      "trophy": 9059,
      "1908": 9060,
      "reader": 9061,
      "putting": 9062,
      "philip": 9063,
      "berlin": 9064,
      "colleagues": 9065,
      "territorial": 9066,
      "madison": 9067,
      "hostile": 9068,
      "venues": 9069,
      "respective": 9070,
      "employees": 9071,
      "theatrical": 9072,
      "certainly": 9073,
      "catal": 9074,
      "renov": 9075,
      "melody": 9076,
      "ninet": 9077,
      "birthday": 9078,
      "benj": 9079,
      "keeping": 9080,
      "conservative": 9081,
      "translation": 9082,
      "neighbour": 9083,
      "advertis": 9084,
      "measurements": 9085,
      "withdrawal": 9086,
      "kirk": 9087,
      "typh": 9088,
      "eliminated": 9089,
      "culmin": 9090,
      "orchestra": 9091,
      "rebuilt": 9092,
      "retirement": 9093,
      "iraq": 9094,
      "pretty": 9095,
      "sympath": 9096,
      "dud": 9097,
      "dust": 9098,
      "jen": 9099,
      "kw": 9100,
      "liz": 9101,
      "lakes": 9102,
      "linc": 9103,
      "mg": 9104,
      "nam": 9105,
      "omar": 9106,
      "oreg": 9107,
      "riding": 9108,
      "sult": 9109,
      "vig": 9110,
      "veter": 9111,
      "##nie": 9112,
      "##rom": 9113,
      "##equ": 9114,
      "##father": 9115,
      "##anth": 9116,
      "tox": 9117,
      "ontar": 9118,
      "##acc": 9119,
      "stere": 9120,
      "asian": 9121,
      "asks": 9122,
      "##ulu": 9123,
      "##osing": 9124,
      "##estyle": 9125,
      "##odore": 9126,
      "##essee": 9127,
      "##una": 9128,
      "tracy": 9129,
      "enzy": 9130,
      "##ieth": 9131,
      "##iney": 9132,
      "scand": 9133,
      "resol": 9134,
      "rook": 9135,
      "mariana": 9136,
      "aggreg": 9137,
      "disband": 9138,
      "##pled": 9139,
      "brut": 9140,
      "earning": 9141,
      "##osex": 9142,
      "parody": 9143,
      "assess": 9144,
      "underne": 9145,
      "releases": 9146,
      "presby": 9147,
      "operates": 9148,
      "cress": 9149,
      "114": 9150,
      "runners": 9151,
      "anne": 9152,
      "dams": 9153,
      "chrom": 9154,
      "conflic": 9155,
      "trium": 9156,
      "harrison": 9157,
      "visiting": 9158,
      "organised": 9159,
      "bases": 9160,
      "kills": 9161,
      "sentences": 9162,
      "##shore": 9163,
      "ordering": 9164,
      "shoulder": 9165,
      "madrid": 9166,
      "rounds": 9167,
      "ernest": 9168,
      "semif": 9169,
      "potentially": 9170,
      "fishing": 9171,
      "autumn": 9172,
      "removal": 9173,
      "chicks": 9174,
      "cougars": 9175,
      "favorable": 9176,
      "tennessee": 9177,
      "hawaii": 9178,
      "hawaiian": 9179,
      "architectural": 9180,
      "sorra": 9181,
      "feeding": 9182,
      "molecules": 9183,
      "synthes": 9184,
      "vertical": 9185,
      "assassination": 9186,
      "partnership": 9187,
      "paramount": 9188,
      "elaborate": 9189,
      "collapsed": 9190,
      "fundamental": 9191,
      "dakota": 9192,
      "eshmun": 9193,
      "satellite": 9194,
      "spacecraft": 9195,
      "chevaliers": 9196,
      "benjamin": 9197,
      "lincol": 9198,
      "oregon": 9199,
      "ontario": 9200,
      "underneath": 9201,
      "presbyter": 9202,
      "dish": 9203,
      "hast": 9204,
      "jason": 9205,
      "lanes": 9206,
      "lumber": 9207,
      "pse": 9208,
      "pace": 9209,
      "rick": 9210,
      "sib": 9211,
      "sony": 9212,
      "vand": 9213,
      "##sis": 9214,
      "##cribed": 9215,
      "##rent": 9216,
      "##ij": 9217,
      "##pan": 9218,
      "##tic": 9219,
      "##wan": 9220,
      "##bound": 9221,
      "##inth": 9222,
      "##inations": 9223,
      "##atural": 9224,
      "##atropical": 9225,
      "##aski": 9226,
      "##isa": 9227,
      "##oust": 9228,
      "##star": 9229,
      "##rose": 9230,
      "stim": 9231,
      "asking": 9232,
      "whit": 9233,
      "atom": 9234,
      "##vereign": 9235,
      "shorter": 9236,
      "##umented": 9237,
      "suitable": 9238,
      "platin": 9239,
      "##ardine": 9240,
      "scout": 9241,
      "##rae": 9242,
      "percept": 9243,
      "usage": 9244,
      "sheff": 9245,
      "overlo": 9246,
      "outl": 9247,
      "##active": 9248,
      "##kshire": 9249,
      "parade": 9250,
      "remove": 9251,
      "sovereign": 9252,
      "acids": 9253,
      "guid": 9254,
      "guerr": 9255,
      "##enden": 9256,
      "starring": 9257,
      "##ernon": 9258,
      "barbar": 9259,
      "signal": 9260,
      "completing": 9261,
      "##azer": 9262,
      "provinc": 9263,
      "peoples": 9264,
      "advancing": 9265,
      "14th": 9266,
      "stream": 9267,
      "valid": 9268,
      "believing": 9269,
      "personally": 9270,
      "youngest": 9271,
      "##minster": 9272,
      "profit": 9273,
      "programming": 9274,
      "electron": 9275,
      "voices": 9276,
      "animation": 9277,
      "wrapped": 9278,
      "wider": 9279,
      "inhab": 9280,
      "documented": 9281,
      "fertil": 9282,
      "questions": 9283,
      "drove": 9284,
      "boundaries": 9285,
      "pulaski": 9286,
      "translated": 9287,
      "rhyme": 9288,
      "bidd": 9289,
      "gardner": 9290,
      "borough": 9291,
      "extratropical": 9292,
      "contribution": 9293,
      "comparison": 9294,
      "ingres": 9295,
      "sculptures": 9296,
      "columns": 9297,
      "molecular": 9298,
      "abbey": 9299,
      "determin": 9300,
      "##imetres": 9301,
      "queensland": 9302,
      "enthus": 9303,
      "propaganda": 9304,
      "phrase": 9305,
      "doctrine": 9306,
      "##music": 9307,
      "christopher": 9308,
      "brilliant": 9309,
      "lincoln": 9310,
      "pseud": 9311,
      "platinum": 9312,
      "aa": 9313,
      "hidden": 9314,
      "nl": 9315,
      "ost": 9316,
      "pp": 9317,
      "pel": 9318,
      "pages": 9319,
      "sect": 9320,
      "sample": 9321,
      "tub": 9322,
      "vib": 9323,
      "##oly": 9324,
      "##nels": 9325,
      "##rh": 9326,
      "##gets": 9327,
      "##low": 9328,
      "##dles": 9329,
      "##dney": 9330,
      "##vi": 9331,
      "##krit": 9332,
      "##nda": 9333,
      "##anita": 9334,
      "tod": 9335,
      "toler": 9336,
      "topped": 9337,
      "##ami": 9338,
      "##acru": 9339,
      "##olis": 9340,
      "bears": 9341,
      "cha": 9342,
      "chase": 9343,
      "##apore": 9344,
      "##unc": 9345,
      "neil": 9346,
      "neves": 9347,
      "##akers": 9348,
      "leigh": 9349,
      "spending": 9350,
      "trig": 9351,
      "notice": 9352,
      "inclusion": 9353,
      "grave": 9354,
      "mars": 9355,
      "##enses": 9356,
      "##ensions": 9357,
      "joining": 9358,
      "##orship": 9359,
      "mines": 9360,
      "maur": 9361,
      "revised": 9362,
      "produces": 9363,
      "airlines": 9364,
      "singapore": 9365,
      "mainland": 9366,
      "signs": 9367,
      "advoc": 9368,
      "myster": 9369,
      "christine": 9370,
      "controller": 9371,
      "easter": 9372,
      "explain": 9373,
      "1923": 9374,
      "traded": 9375,
      "contrad": 9376,
      "radical": 9377,
      "walker": 9378,
      "friendly": 9379,
      "romanian": 9380,
      "africaine": 9381,
      "factor": 9382,
      "connect": 9383,
      "woodhouse": 9384,
      "devotion": 9385,
      "nettles": 9386,
      "industries": 9387,
      "veracru": 9388,
      "facility": 9389,
      "biological": 9390,
      "rhys": 9391,
      "snake": 9392,
      "representation": 9393,
      "parliamentary": 9394,
      "wildlife": 9395,
      "synag": 9396,
      "objectives": 9397,
      "discussion": 9398,
      "bodyline": 9399,
      "dispute": 9400,
      "punt": 9401,
      "ultimate": 9402,
      "powered": 9403,
      "reflected": 9404,
      "prepare": 9405,
      "telugu": 9406,
      "honorary": 9407,
      "steps": 9408,
      "louisiana": 9409,
      "emphasis": 9410,
      "sisler": 9411,
      "beauty": 9412,
      "encountered": 9413,
      "segment": 9414,
      "negotiations": 9415,
[...]
